Ġ Ġ
Ġ t
i n
Ġ a
h e
r e
o n
ĠĠ ĠĠ
e r
a t
ä ¸
Ġ s
Ġt he
o r
ï ¼
e n
Ġ c
e s
Ġ w
i t
i s
o u
a n
ï¼ Į
a l
Ġ f
Ġ p
in g
Ġ o
Ġ b
e d
a r
ç ļ
Ġa n
çļ Ħ
ã Ģ
Ġ m
i on
ä º
l e
Ġ in
Ġt o
i c
Ġ d
Ġo f
Ġan d
a s
â Ģ
r o
ĠĠ Ġ
e t
Ġ h
Ġt h
c t
en t
ãĢ Ĥ
ä »
s t
å ı
æ ľ
e l
ĠĠĠĠ ĠĠĠĠ
o m
i l
Ġ n
Ġ re
Ġ l
è ¿
å ¤
å ħ
Ġ e
i d
æ ĺ
v e
a m
Ġ I
Ġ T
Ġ g
Ġ S
o t
å ®
å Ī
i m
ä ½
Ġ y
Ġ is
o l
å Ĳ
c e
å ľ
i g
s e
Ġ C
u t
ä ¹
ä¸ Ģ
Ġf or
o w
a d
Ġ A
at ion
a y
æ Ī
u r
l y
c h
Ġy ou
Ġ (
æĺ ¯
Ġ u
Ġ on
Ġb e
ç Ķ
å °
v er
i f
Ġs t
Ġ =
è ¯
u l
ç »
it h
Ġth at
å Ĭ
äº Ĩ
ä¸ į
o d
a g
æ Ĺ
Ġ M
æ Ŀ
i r
Ġ P
ãĢ ģ
t er
Ġw ith
æ ĸ
at e
ĠĠĠĠ ĠĠĠ
å Ľ
æ ī
r a
- -
æľ ī
å Ń
åľ ¨
Ġc on
Ġ it
ä ¼
å į
e m
è ®
a b
Ġa s
Ġp ro
u n
r i
Ġ B
c k
he r
u m
p e
Ġa l
es t
äº º
å ¹
Ġ v
âĢ Ļ
âĢ ľ
es s
ou t
er s
å ¾
q u
é ĩ
p p
å ĩ
n d
is t
Ġ D
u s
Ġw h
Ġw e
å ¥
å ·
il l
Ġ F
e w
t h
å ¼
Ġ W
âĢ Ŀ
k e
Ġa re
re s
å Ĩ
ou r
Ġ or
Ġ R
è Ģ
ĉ ĉ
an d
Ġc om
ĥ ½
å ¸
Ġ H
o re
n t
Ġ he
or t
Ġe x
å º
ĠT he
o p
h t
Ġ L
m ent
Ġd e
è¿ Ļ
o s
æĪ ĳ
Ġ "
é Ģ
å ¯
* *
it y
Ġa t
è ¡
ç Ľ
p t
en d
è µ
l d
ä¸ ª
e ct
. .
/ /
Ġ N
Ġh a
ro m
an t
Ġ {
Ġ r
ä¸ Ń
Ġ *
Ġth is
l o
a in
æ ķ
Ġ E
æ Ģ
è §
Ġ G
å¤ §
æ Ĭ
å Ĵ
æ ł
ar t
Ġs u
ä¸ º
ç İ
i v
å ¿
å Į
ä¸ Ĭ
ç ľ
i ve
å İ
i es
Ġs e
Ġn ot
Ġb y
æ Ń
Ġw as
é Ĺ
ä» ¥
æĿ ¥
in e
ig ht
e x
è ĩ
Ġ -
åĴ Į
u st
ç §
Ġ O
ĠĠĠĠĠĠĠĠ ĠĠĠ
ag e
ä» ĸ
è ´
Ġf rom
am e
Ġs h
¦ ģ
é Ŀ
u d
u e
Ġc h
æ ĥ
ct ion
æ ²
al l
Ġ $
æĹ ¶
Ġc an
Ġha ve
u re
Ġyou r
åĪ °
æ °
o o
è ¦ģ
ç ī
i al
i z
p er
å ½
o c
å ±
é Ļ
æ İ
æ Ķ
åı ¯
f f
o st
p l
å ĳ
æ ŀ
u b
å° ±
Ġ le
re d
a c
ä¼ ļ
ar d
æ ³
ç º
g e
çĶ ¨
è ĥ½
el l
ou ld
as s
åĩ º
ab le
âĢĻ s
é ģ
a ck
-- --
om e
in d
r ou
è ½
çĶ Ł
Â ł
Ġu s
id e
in t
ä ¿
c l
Ġin t
Ġ j
ä¹ Ł
ç Ŀ
æ ĭ
ä» ¬
ä¸ ĭ
Ġa b
Ġ if
or m
å¯ ¹
Ġw ill
ic e
ï¼ ļ
ul t
as t
Ġ J
å¹ ´
æ µ
è ¾
Ġ k
æ ¯
a p
å ¦
Ġd o
Ġp l
a k
ur n
Ġ }
æ Ħ
Ġw or
a re
i p
ç ¬
å ĵ
ä½ ł
Ġ U
ĠĠĠĠĠĠĠĠ ĠĠĠĠĠĠĠĠ
Ġal l
as e
im p
åľ °
è¿ ĩ
at ed
åĲ İ
b er
åı ĳ
ç Ĳ
ç Ń
im e
èĩ ª
Ġa d
å ī
o g
åŃ Ĳ
ion s
Ġt r
i le
é ¢
äº İ
Ġn e
ç «
T he
on e
oo k
Ġw he
Ġc l
é ĺ
al ly
è¡ Į
a ct
è¯ ´
Ġ âĢľ
Ġ '
æ Į
an s
çĿ Ģ
ic h
c c
t her
Ġm e
c on
' s
Ġcom p
åĽ ½
it e
e p
åŃ ¦
æĪ Ĳ
Ġcon t
Ġre s
å¤ ļ
l ic
ä ¾
ar y
ä½ ľ
e f
ä¹ ĭ
Ġ en
æī Ģ
æĸ ¹
a il
ĠI n
å® ¶
i b
ig n
an ce
Ġh as
e re
e ar
on g
é Ĥ
Ġg o
éģ ĵ
a ce
Ġb ut
å¥ ½
Ġ out
ç ®
ĠS t
a v
a ke
æ ¬
( )
Ġs o
å¾ Ĺ
é ĥ½
ĠT h
ex t
åĬ ¨
è Ĥ
r u
ç ½
g et
r ing
å° ı
ç Ħ
åĪ Ĩ
ç Ĥ
ä¸ ļ
ou s
éĿ ¢
å Ł
r y
Ġu p
d u
f orm
s o
t urn
æ ¸
ä¹ Ī
çİ °
ation s
i re
g h
= =
åħ ¬
æ ±
at a
or d
èĢ Į
ç Ł
Ġm ore
res s
an g
Ġ +
Ġn ew
è ·
i a
æľ ¬
å¿ ĥ
è¿ ĺ
çľ ĭ
å¼ Ģ
a ch
ver y
Ġthe y
å ģ
å Ģ
Ġ \
æ ´
Ġ <
ĠĠĠĠ Ġ
el f
éĤ £
ou nt
Ġthe ir
å® ŀ
çĦ ¶
S t
çĲ Ĩ
å¦ Ĥ
å® ļ
Ġ V
Ġon e
Ġm y
ent s
l l
æ Ľ
ic al
ç» ı
è¿ Ľ
Ġwh ich
it ion
å¤ ©
at h
en ce
å· ¥
en s
Ġ K
Ġ qu
ï¼ Ł
er v
é ĥ
æ² ¡
Ġ [
Ġu n
y pe
Ġg et
j ect
é ķ
ç¬ ¬
Ġ Y
Ġa r
c om
v el
re e
éĩ Į
é «
i e
I n
Ġ âĢ
od e
åħ ¶
Ġ &
é« ĺ
é ¡
è °
Ġp er
- >
Ġl i
äº ĭ
æ³ ķ
ï¼ ģ
Ġd is
Ġm an
åĬ Ľ
ä½ ĵ
ä¸ İ
** **
Ġab out
o ve
or y
Ġ our
åī į
æ ı
Ġa pp
ow n
k s
Ġe v
Ġs p
é Ľ
æ į
a u
Ġo ther
p h
il d
on t
å Ŀ
åĲ Į
ä¸Ģ ä¸ª
çŃ ī
æ Ļ
åİ »
éĹ ´
é £
çĤ ¹
ay s
or s
re at
æľ º
Ġan y
Ġt ime
el y
Ġh is
Ġwh o
åĲ Ī
Ġ imp
ou nd
ç ¨
i ew
é ļ
æĥ ħ
èµ ·
ro w
Ġal so
è ī
er t
Ġp art
Ġs c
éĥ ¨
ar k
å §
è ¶
ä¸ »
ĠĠĠĠĠĠĠĠ ĠĠĠĠĠĠĠ
iz e
åħ ¨
å¾ Ī
ç Ļ
ub lic
f t
Ġof f
Ġwe re
æĸ °
) .
t e
ing s
æ ģ
è Ĭ
æĹ ¥
æĥ ³
e c
ic k
Ġp re
Ġ //
in k
) ,
Ġre turn
Ġa g
ç§ į
Ġthe re
äº §
æī ĭ
Ġwhe n
e g
æĢ §
åĨ ħ
: :
ĠC h
ç ¾
---- ----
èĢ ħ
o b
å¥ ¹
å £
Ġwor k
ĠI t
è º
éķ ¿
æľ Ģ
éĢ ļ
cl ud
åħ ³
çĶ µ
Ġs ome
Ġk n
åĮ ĸ
æĹ ł
l ow
ver s
æĦ ı
äº Ľ
å½ ĵ
å° Ĩ
= "
Âł Âł
è ¢
åĬ ł
Ġt e
ç ¤
åº ¦
al ue
Ġthe m
ç ©
Ġf un
é Ķ
ç Ī
Ġs a
åº Ķ
æ ¶
Ġo ver
æ Ł
æł ·
if f
åı¯ ä»¥
o v
æĸ ĩ
æĺ İ
o se
é ľ
Ġbe en
et h
o ol
éĩ į
ir st
æķ °
c es
ä½ Ĩ
å· ±
ri b
Ġw ould
ä¸ ī
pe c
Ġy ear
èº «
ï¼ ī
ol d
Ġa m
è ģ
ç ¥
è ĭ
Ġh ad
Ġli ke
åı ª
Ġa cc
ï¼ Ī
è Ħ
Ġ ro
æ° ´
çĽ ¸
Ġn o
_ t
ul l
Ġth an
ï¼ Ľ
è® ¾
å¸ Ĥ
w e
u al
å »
èĩª å·±
ter n
le ct
Ġne ed
ä½ į
" ,
Ġwh at
åĽ ł
å¤ ĸ
if ic
pt ion
åħ ¥
æľ Ī
å ķ
_ _
nd er
y st
åĵ ģ
æİ ¥
æĪĳ ä»¬
y s
at es
Ġp e
( "
Ġu se
ç ĥ
r ic
Ġcom m
ç ķ
éĩ ı
ĠTh is
æŀ ľ
ä» İ
èµ Ħ
at er
é ħ
is h
è Ĳ
çŁ ¥
Ġin d
E R
Ġad d
æı Ĳ
am p
åĪ ¶
# #
Ġde f
Ġ her
Ġd es
ç ³
Ġit s
Ġe m
Ġh ow
åı Ĭ
äº Į
Ġf e
a x
ĠW e
æ¯ Ķ
c he
âĢĻ t
å ¢
r am
pe ct
æĽ ´
en er
éĩ ĳ
s et
Ġm ay
æŃ ¤
Ġs et
o int
Ġint o
å¹ ¶
w o
åı ¸
çī ©
on s
Ġj ust
åľ º
r it
Ġ i
ç ģ
ç ł
æ²¡ æľī
b s
l i
å¤ ´
é Ĵ
è ĥ
ig h
ment s
n e
æ¬ ¡
er m
p s
è¢ «
å® ī
ç ¼
f ter
Ġc ol
yst em
Ġb et
ç® ¡
p ort
.. .
ä¿ ¡
c ess
p ut
æ ·
ç ±
æŃ £
ç ´
s s
åĬ ¡
æľ Ł
ä¸ ¤
I N
è¡ ¨
t y
çĽ ®
Ġre c
æ° Ķ
Ġpro v
ad e
è Ī
ä¿ Ŀ
n ing
ç ĸ
Ġ /
Ġ :
op le
is s
is e
å· ²
c re
i ous
Ġcon s
è £
an ge
i an
on d
au se
å ĸ
Ġon ly
Ġ @
æĪ ĸ
T h
l es
åĲ į
æ ¡
Ġu nder
å¸ ¸
Ġbe c
ãĢĤ âĢĿ
è® ©
Ġas s
ç ¡
è® ¡
ä½ ¿
åĽ ŀ
Ġd iff
at ing
e v
ri v
ar am
a w
Ġp r
ç ²
i x
O N
Ġf irst
ĠâĢ ĵ
Ġa ct
Ġ |
Ġb u
i el
u p
éĹ ®
f ul
' t
Ġhe l
å¹ ³
ç¨ ĭ
ä» Ģ
t ing
åį ģ
o id
ç³ »
åĮ º
rou nd
åħ¬ åı¸
ä» ¶
ç Ĺ
å» º
Ġkn ow
æĦ Ł
Ġt ra
ä»Ģ ä¹Ī
n g
çī ¹
Ġcl ass
Ġp os
Ġ .
åĪ ©
er r
Ġm ake
Ġre g
Ġpe ople
rou gh
è½ ¦
åĲ ĳ
b le
Ġ #
Ġthe se
åģ ļ
< /
ãĢ ĭ
al s
èĢ ģ
ãĢ Ĭ
æ »
ç» Ļ
é ©
il ity
Ġp ublic
Ġm od
âĢ ¦
âĢ Ķ
è į
c ed
é ĵ
Ġ im
è§ £
p r
p ro
it ies
Ġc o
Ġs he
ï¼ļ âĢľ
ç¾ İ
åı £
æ Ĥ
ĠH e
l ine
s h
å¼ ı
pp ort
Ġin clud
ĉĉ ĉĉ
i ent
o od
åĳ ĺ
æį ®
h at
è¯ Ŀ
Ġp h
Ġ ke
æ´ »
é ª
Ġt wo
Ġn um
iel d
Ġthe n
çľ Ł
ç» ĵ
ib le
ic s
== ==
Ġb ack
b ject
i o
åŁ º
u g
å± ķ
or k
m er
é ¦
Ġm ost
ra ct
Ġre qu
ot h
Ġsh ould
å¤ Ħ
it s
ul ar
Ġat t
ic t
Ġcon st
å ŀ
Ġpro du
é »
Ġse e
ç ¦
' ,
o k
at ive
èī ²
Ġl ook
Ġs elf
è¿ °
Ġst ud
æķ Ļ
æī ĵ
ou gh
Ġth rough
ru ct
Ġd ata
Ġf in
ĠC om
w n
ar g
Ġw ant
Ġin v
s elf
ï¼Į è¿Ļ
as ed
R E
ä» £
Ġv ar
Ġw ell
i ed
ol og
é£ İ
at ch
Ġ* /
u res
åħ ĥ
è Ļ
Ġhel p
ic es
é¢ ĺ
Ġre m
Ġe very
å Ļ
è· ¯
ar ch
Ġin st
at ic
çĽ ´
Ġwhe re
f ore
Ġ end
re ad
u es
ĠP ro
d ay
éĹ ¨
åĪ «
å° ĳ
æĬ Ĭ
le t
Ġfun ction
ĠY ou
Ġre l
Ġc ould
he d
è§ ģ
S T
å¥ ³
åı ĺ
Ġs erv
Ġs pec
å Ķ
ol low
ers on
d ef
æĶ ¶
Ġ el
e ad
æľ ¯
åİ Ł
A T
il y
d er
ä¸ ľ
form ation
åı Ī
¥ ¿
he n
Ġsa id
ä»ĸ ä»¬
åį ķ
ur re
Ġtr ans
**** ****
c y
ä» »
Ġsu ch
Ġ ent
è İ
Ġdiff ere
ĠU n
Ġus ed
o ck
å°± æĺ¯
rib ut
äº ¤
Ġex per
çĶ ±
æµ ģ
æ° ĳ
Ġe ff
ç½ ĳ
) )
æĬ Ģ
E x
id ent
èĩ ³
u ch
åĨ į
éľ Ģ
Ġa fter
if e
as h
è ¥¿
Ġre ad
m s
Ġin ter
_ d
ow er
æī į
Ġs m
s p
Ġ very
æľ į
o x
çĻ ½
è£ ħ
en g
çº ¿
at or
æĶ ¾
å¼ º
åĻ ¨
åħ ī
in ess
Ġr ight
çľ ¼
n ce
Ġw ay
ĉĉ ĉ
Ġst art
Ġres ult
Ġf ind
Ġd et
Ġa c
Ġman y
it t
an y
r ay
( '
c ri
ï¼Į ä¸į
Ġev en
ç ĭ
p os
ï¼Į æĪĳ
Ġgo od
a ve
ã ģ
w ard
æ ®
n ame
.. ..
P ro
è´ ¨
ation al
éĢ ī
a ir
å Ħ
e e
åĲ Ħ
ag es
Ġbec ause
å® ¹
ç½ ®
Ġl ong
n er
A R
ç¥ ŀ
ak ing
Ġ x
ä¼ ł
å® Į
al th
å£ °
t o
i ence
ar s
æĮ ģ
ĠI f
_ s
åı Ĺ
åħ Ī
{ \
Ġdo es
æµ ·
vel op
ĠĠĠĠĠĠĠĠ ĠĠĠĠĠĠĠĠĠĠĠ
a pp
å¸ Ī
Ġc all
Ġn ow
åĩ ł
å¸ ¦
æ± Ĥ
t t
è¯ ¥
Ġd id
å·¥ ä½ľ
Ġm in
d d
åħ ·
lo ck
ç« ĭ
æ º
Ġex t
å¤ ĩ
åŀ ĭ
Ġ ra
ur ing
Ġpl ay
Ġf ollow
è½ ¬
Ġp res
` `
f ig
åĦ ¿
E N
our ce
Ġp ol
Ġc he
ä¹ ¦
æł ĩ
ut h
è¿Ļ ä¸ª
it ed
an k
l ed
æł ¼
en se
æĢ »
å½ ¢
ä¸ ĩ
rou p
lo g
Ġyear s
ot her
ï¼Į ä½Ĩ
Ġl oc
ç» Ħ
è¿Ľ è¡Į
O R
Ġd on
åĽ Ľ
é Ł
al e
ç§ ĳ
c o
Ġh igh
in s
Ġsh ow
è¿ ŀ
ç» Ł
Ġg reat
Ġ= =
t he
us iness
t s
æĬ ¥
åĢ Ļ
æĮ ĩ
Ġt est
èµ °
æ¸ ħ
Ġg u
å± ±
æ £
le ment
Ġfor m
åĮ ħ
éĿ ŀ
è Į
el s
ç± »
Ġc re
ire ct
Ġd own
åĽ ¾
ect ion
th is
. com
Ġ _
ä» ·
æĪ ĺ
v iew
g ram
Ġo wn
å¤ ª
è¿ Ĳ
ç¤ º
e ver
v ent
é¡ ¹
Ġs ystem
Ġh im
m a
Ġhe re
Ġde c
urre nt
æģ ¯
æ¯ ı
p en
Ġus ing
we en
ol ut
ä½ ķ
æ ¨
I t
å½ ±
I T
Ġv alue
Ġm uch
Ġe ach
W e
Ġex p
å¯ ¼
æ ¼
Ġm on
C ont
iz ed
ç© º
t r
eth od
å ²
A L
imp ort
in es
ÂłÂł Âł
ä¸ ĸ
at ure
Ġst r
Ġimp ort
Ġre f
re turn
_ p
æĶ ¿
Ġc our
åķ Ĩ
è® ¤
Ġin formation
Ġth ink
è ±
_ f
I D
am es
è§ ī
Ġb el
con d
_ m
æĹ¶ éĹ´
çİ ĭ
Ġs ign
åŁ İ
Ġsu b
ĠA nd
ç¡ ®
ä¸ ĵ
æ ĳ
Ġn ame
è° ĥ
Ġf l
èĢ ĥ
in ed
Ġd ist
. get
ä¸į æĺ¯
_ c
æŃ ¥
è¾ ¹
Ġp erson
ce pt
å ĥ
ç ħ
o f
Ġdiffere nt
-------- --------
æĸ Ļ
è§ Ħ
æķ ´
ĠA n
S E
Ġch ar
ĠF or
å¿ «
Ġb est
è® °
Ġbet ween
Ġl ist
Ġs ur
o y
Ġbe fore
Ġag ain
an n
éĻ ¢
y m
æīĢ è¿°
è¯ ģ
g ht
ä¾ ¿
èĬ Ĥ
Ġh and
g an
ark et
p on
Ġc or
f o
ĠE x
u ally
re f
ç® Ĺ
ad d
èĤ ¡
Ġa v
äºĨ ä¸Ģ
æ ¢
Ġc ase
Ġbe ing
ç Ĭ
t en
æĪ ·
Ġg ener
im es
çº §
ä¸Ń åĽ½
em ent
å ¨
å·² ç»ı
y n
i red
Ġnum ber
in ce
er y
æĹ¶ åĢĻ
åı ĸ
æķ Ī
y p
ar n
æł ¹
N ame
ä¸ Ķ
ch n
Ġg r
Ġt ake
C om
Ġth ose
ĠA r
L E
as on
å® ĥ
C h
ï¼Į åľ¨
A N
æ³ ¨
t on
Ġd ay
ĠA l
Ġ !
Ġwh ile
å¼ ł
ä» Ĭ
Ġv al
an c
éĽ Ĩ
em ber
çŁ¥ éģĵ
- b
e k
ĠS h
Ġp oint
åį Ĺ
Ġpro cess
Ġm ed
T ype
ust om
. m
Ġ Q
od y
Ġin s
åĩ Ĩ
ĠN ew
å¦Ĥ æŀľ
Ġs er
Ġb l
id er
Ġde velop
. S
re n
éĺ Ł
e b
ç¬ ĳ
. s
Ġf act
Ġm ade
éĢ ł
Ġs ame
åĨ Ľ
èģ Ķ
Ġst ate
amp le
ï¼Į ä»ĸ
è ħ
çļĦ äºº
ate g
æĿ ¡
é ¥
Ġs om
al ity
n ess
iv es
åı į
Ġsu pport
C on
h ip
èĬ ±
åį ´
åŃ ĺ
åĥ ı
ou se
e qu
ç¬¬ ä¸Ģ
åı °
al k
Ġp ost
ç ª
è§ Ĩ
ang u
w ay
çĪ ±
éļ ¾
æĺ ĵ
è¾ ¾
æ ħ
Ġv is
r ight
ction s
St ring
é© ¬
if y
ra ph
æŀ Ħ
åĮ »
Ġc ar
åĽł ä¸º
ä½ ı
ç¦ »
. "
æĶ ¯
_ {
Ġf il
æĿ ĥ
Ġf ound
çİ° åľ¨
è´ ¹
çĲ ĥ
äº Ķ
Ġc ount
ĠĠĠĠĠĠĠĠ Ġ
æĬ ķ
ç² ¾
Ġ ed
ç¤ ¾
t ain
Th is
v al
Ġp at
i et
I d
è¾ ĥ
lo ad
Ġar t
æİ §
å¤ į
Ġwor ld
éĻ Ĳ
i er
e red
at her
w are
ant s
åı ·
åĢ ¼
æĸ ½
a z
Ġel se
å§ ĭ
Ġ >
ch ool
Ġb oth
æ ļ
Ġl ast
è¿ ĳ
Ġb usiness
_ C
Ġ ï¼Į
æĪ ¿
çķ Į
ï¼Į ä¸Ģ
ï¼Į èĢĮ
Ġf am
re am
le ase
åĬ Ł
Ġ= >
åĨ µ
Ġprodu ct
a h
ĠA s
çĥ Ń
ro l
Ġl ife
al se
æĢ Ŀ
_ b
æĸ ¯
ä¾ Ľ
éĹ® é¢ĺ
l and
æ¨ ¡
a ult
Ġprov id
åĪ Ļ
v en
Ġa p
ion al
åŃ Ĺ
æ· ±
ä¾ ĭ
åı Ĥ
åĪ Ľ
æ² »
Ġre p
Ġ err
ak es
èĲ ¥
Ġle t
- s
åĲ ¬
éľĢ è¦ģ
åĮ Ĺ
å¢ ŀ
ter s
åĬ ŀ
Ġr un
çĹ ħ
Ġh ome
æĿ ¿
. p
Ġs k
éĢļ è¿ĩ
æ¶ Ī
çİ ¯
. c
æĢ İ
åĨ ³
è¯ ·
Ġb ook
riv ate
ï¼Į ä½ł
ä¼ ģ
angu age
m in
Ġc le
åĳ ¨
Ġm ust
Ġt ype
çī ĩ
åĳ Ĭ
æ Ĵ
a red
è¶ Ĭ
as k
e y
i vers
ou n
Ġdes ign
æº Ĳ
um ent
Ġde p
. d
éĺ ²
ot e
Ġeff ect
æ¸ ¸
R es
ĠĠĠĠĠĠĠĠĠĠĠĠĠĠĠĠ ĠĠĠĠĠĠĠĠĠĠĠĠĠĠĠĠ
ĠĠĠĠ ĠĠ
Ġch ild
olog y
è¯ Ń
çļĦ ä¸Ģ
Ġapp ro
cc ess
Ġle ad
ç« ł
u c
åį ³
çł Ķ
Ġpro gram
ere st
å® ¢
é¢ Ĩ
æĶ ¹
ar m
he s
Ġin f
l ess
Ġre ally
ï¼Į ä¹Ł
ä½¿ çĶ¨
Ġpart ic
: //
è® º
ĠH ow
s on
Ġe qu
st r
w ays
Ġp ur
ä¼ ĺ
ĠB ut
Ġpos s
å¹ ²
å¸ ĥ
ent ial
éħ į
in al
ess age
er n
å ĭ
T o
è¿ĺ æĺ¯
è§ Ĥ
et s
ist s
è¯ Ĩ
Ġwith out
åı¯ èĥ½
Ġto p
ç®¡ çĲĨ
æ¡ Ī
åıĳ å±ķ
it al
ä¹ ł
è ¨
å¹ ¿
Ġtr ue
if ied
Ġm ain
æİ ¨
Ġo b
Ġb re
Ġm at
Ġst ill
æŀ Ĺ
Ġcomm un
æĬĢ æľ¯
ä½ İ
I C
Ġd el
æŁ ¥
æľ ª
è® ®
Ġc are
E S
Ġv oid
éĢ Ł
åİ ĭ
ĠD e
f or
iv en
A C
ĠC l
æł ¡
" >
Ġdis c
iz ation
æ ¥
è¯ ķ
Ġa round
Ġre al
è® ¸
Ġ z
us s
as es
Ġqu est
ĠC on
u ff
æ» ¡
ro ss
åĲ §
ĠT r
é ¾
è¨ Ģ
ri end
æīĢ ä»¥
éļ ı
Ġpro f
å¿ ħ
} }
Ġe as
éŁ ³
åĳ ½
c ent
- t
åĪ° äºĨ
Ġtr y
g g
A r
op y
p aram
Ġf ree
st and
Ġl o
Ġgo ing
Ġo pt
Ġpro per
in ing
lo y
ä¼ģ ä¸ļ
åŃ ©
å° Ķ
v ing
è½ »
ĠP l
Ġ$ \
ç ı
åį İ
er g
å¤ Ł
ä¹ Ĳ
ce ption
ĠS e
ç» Ń
] .
o ot
æĺ ¾
eng th
åħ ±
m ber
çĻ ¾
æľ Ľ
- d
Ġm arket
Ġm em
Ġw rit
Ġs ay
Ġp ass
Ġcon f
çİ ĩ
ç« Ļ
Ġin cre
// //
r id
æľį åĬ¡
å¾ ®
Ġ )
è¿Ļ æł·
æ Ĳ
. ,
æŃ »
ĠW h
is ion
æĬ ¤
åĽ ¢
Ġt ri
b ers
r ite
Ġto o
os s
m an
éĻ ¤
æĢ ģ
are nt
_ S
Ġte chn
Ġle vel
Ġad v
L ist
ĠS o
Ġor der
he re
ĠThe y
o ver
Ġpl ace
i qu
Ġall ow
æŀ ģ
un d
Ġhe alth
èĤ ²
ail able
Ġpro ble
Ġc urrent
m l
å¼ ķ
åĲ ĥ
i k
çº ¢
Ġo per
Ġsm all
æĸ Ń
Ġcont in
å¾ ·
## ##
ĠThe re
Ġse cond
å ĺ
Ġpro t
en cy
_ P
æĢİ ä¹Ī
le ction
i ents
Ġper form
ver t
Ġth ree
" :
Ġmon th
æµ ĭ
] ,
is hed
s c
Ġ %
å£ «
è· Ł
ind ow
Ġha pp
Ġte am
ç ¢
åĬ ©
is m
èµ Ľ
us h
å¤ ±
Ġt erm
w ork
Ġl anguage
Ġf ile
v ed
==== ====
ab ility
äºº çļĦ
Â ·
ur al
Ġd uring
Ġl ot
Ġo pen
çģ «
y le
Ġis s
itt le
le x
s w
ar ly
ou ght
èĩªå·± çļĦ
Ġbu ild
åı ĭ
ut e
Ġl ove
Ġ Z
- f
ro ll
å ¡
Ġ X
æĭ ī
è ı
ar get
åħ ĭ
Ġl ine
u le
ä¸Ń çļĦ
åĵ į
bs ite
um m
æĥħ åĨµ
t ext
Ġc ent
Ġm ethod
Ġn ext
b e
ä¹ ī
å¾ Ģ
éª Į
çħ §
æ® µ
n ot
em s
Ġ ,
cri pt
ä¿ ®
m p
Ġf ew
m ath
D ata
re m
è¶ ³
æ¸ ©
th ing
Ġc ustom
def ine
é£ Ł
Ġre port
ĠR es
iv id
Ġ est
Ġan al
ï¼Į å¹¶
æ ¹
A S
Ġth ings
åº ķ
[ '
W hat
Ġre st
Ġm et
w w
eth ing
Ġre ce
ç¬¬ äºĮ
uth or
A n
å± Ģ
æĺ¯ ä¸Ģ
è¿ ľ
Ġhe ad
_ l
âĢĻ re
a j
le te
Ġd irect
èµ· æĿ¥
æī ¾
ç Į
Ġp ay
it ions
r ation
r al
D E
r r
p ar
ç§ °
pon se
ï¼Į éĤ£
å¢ ĥ
Ġint erest
at t
ra w
èİ ·
o ard
éĢ Ĥ
Ġst ring
Ġpro ject
ä» ½
n ect
ĠR e
è± ¡
at us
Ġke ep
A M
Ġ et
Ġpl an
ĠT o
re g
ab el
Ġbet ter
Ġst and
æİ Ĵ
é¦ ĸ
Ġfe el
iv ing
d s
r on
äº ²
mer ic
st ring
. h
æĿ İ
ĠI nd
èĲ ½
cl ass
åĪ ĩ
A s
" )
çľ ģ
å± ŀ
l ing
ç© ¶
Ġ ide
er ing
a ut
Ġm ight
s er
åĸ ľ
éĺ ³
pl ay
Ġal ways
çĬ ¶
ot t
iss ion
ï¼Į å°±
çĶ ·
ert ain
ä¼ Ĺ
G et
ĠI s
- m
Ġn ull
ç» Ĩ
i or
Ġs it
. C
åķ Ĭ
ic ally
b y
Ġche ck
R O
æĿ Ĳ
L L
Ġwe ek
éĥ½ æĺ¯
Ġf r
åĳ ¢
Ġs l
Ġex pl
n ew
éĩ ĩ
åĲ Ĺ
v es
å· ŀ
Ġimport ant
ĠO n
æ± Ł
éĻ ħ
. t
b ack
æ¬ ¾
Y ou
èĩ ´
Ġc r
com m
' ]
S h
ic le
ç» ´
ra c
ç± ³
å± Ĥ
lo b
æ ĵ
Ġex pect
äº ĳ
_ T
åĬ ¿
Ġ â
Ġs ize
çļĦ æĹ¶åĢĻ
Ġke y
Ġs im
äº§ åĵģ
è¶ ħ
Ġs oc
åħ »
å¼Ģ å§ĭ
çº ¦
Ġinclud ing
. f
Ġexper ience
ç» Ī
Ġn on
ç« ¯
ç´ ł
I f
Ġc ook
I S
Ġl ittle
âĢ¦ âĢ¦
} $
Ġp ut
Ġfollow ing
é¢ Ħ
Ġsom ething
Ġav ailable
I ON
( $
çŁ ³
Ġan other
Ġ// /
åį ĩ
Ġp ower
Ġpres ent
ĠS p
Ġb r
Ġs ince
c al
ĠC ol
Ġcon d
ĠA ll
ç³» ç»Ł
at ely
ç ¿
Ġserv ice
Ġor gan
vers ion
Ġg row
iv ely
ç® Ģ
i um
o h
åı Į
Ġa ut
Ġapp lic
Ġf ield
å ©
éĿ Ĵ
or n
f ace
at s
, âĢĿ
Ġar g
æĺ Ł
åħ¶ ä»ĸ
r ist
èĦ ¸
et er
ar ge
F or
d ate
Ġp rivate
- c
ï¼Į ä»¥
æ¬ ¢
Ġl aw
oc i
çĶŁ æ´»
ä¿¡ æģ¯
olut ion
it ive
Ġa ff
Ġprov ide
Ġw ater
åİ Ĩ
Ġo bject
Ġwith in
è ŀ
re en
ï¼Ł âĢĿ
Ġd i
Ġsu re
ĠS he
. g
a f
one y
ĠP h
******** ********
E D
v ious
å Ĥ
Ġsu pp
u ck
å ł
Ġ --
g er
Ġo ld
_ M
re qu
ï¼Į âĢľ
C T
_ n
Ġinv est
æķ° æį®
Ġon line
Ġde v
ĠW hat
ir on
æĹ ©
åĩ »
Ġg roup
F F
è¿Ļ äºĽ
è¡ Ģ
ere nce
Ġ ve
# define
av a
Ġcom e
Ġl ess
ç§ ¯
U T
Ġ! =
ã Ĥ
or ies
Ġc ost
Ġm ult
Ġv iew
ĠS c
åį Ĭ
Ġman ag
a it
Ġne ver
Ġadd ition
Ġwe bsite
é¾ Ļ
ĠA d
/ *
ail s
Ġs imp
du ct
æĿ ĳ
æķ ħ
åĪ ļ
ht t
å® Ŀ
æĮ ī
æ£ Ģ
Ġt em
um p
ĠA meric
Ġin c
in ation
çļĦ æĺ¯
é» ĳ
) ;
Ġem p
V iew
Ġf riend
Ġcomp any
Ġg ot
Ġb ig
è´ £
é Ń
iv ity
éĻ ©
con st
Ġs pe
^ {
Ġacc ess
m ed
Ġg ive
ain s
re t
åŃ© åŃĲ
it le
èģ Į
æĻ ¯
C l
èĻ ½
ro p
v ar
Ġc ell
Ġfam ily
å¾Ī å¤ļ
un ction
Ġch ange
å¸Ĥ åľº
èĭ ±
od el
ä¸Ĭ çļĦ
è§ Ĵ
Ġmod el
Ġm ov
u ild
åĪ Ĺ
ĠâĢ ĺ
ä» ħ
clud e
Ġunder stand
å¤§ çļĦ
éĶ Ļ
V alue
T r
Ġg iven
our s
Ġ Ð
a pe
Ġap pe
ra p
C ol
èĪ ¬
l er
ivers ity
Ġch ang
ä¾ Ŀ
âĢĶ âĢĶ
A P
ent ion
ï¼ģ âĢĿ
Ġst ruct
( f
g le
o pe
v alue
Ġs chool
åĽ ´
Ġfin al
ke y
åĿ Ĺ
w it
erv ice
Ġres p
un e
Ġh ard
i en
- p
u se
a im
ĠU S
Ġab le
Ġre se
æĭ ©
ial ly
ï¼Į æľī
Ġf ull
Ġs ing
æıĲ ä¾Ľ
( s
å¥½ çļĦ
a pt
ĠĠĠĠĠĠĠĠĠĠĠĠĠĠĠĠ ĠĠĠĠĠĠĠ
ac y
åĪ Ĵ
Ġst atic
iv ed
Ġl im
ĠA pp
id th
ic y
, "
æĭ ¬
ur s
an ag
as ter
( t
Ġg ame
Ġas k
éĶ Ģ
ä¸» è¦ģ
c ul
ä¹Ł æĺ¯
ater ial
åĲĮ æĹ¶
Ġp op
æ² ¹
in ter
è ĳ
æł¹ æį®
E T
éĢ ģ
å§ Ķ
ä¸į èĥ½
an e
end ing
ress ion
éĿŀ å¸¸
éħ Ĵ
æ¼ Ķ
Ġloc al
ent ly
if t
Ġcre ate
ĠT e
p or
Ġin tern
ĠS u
åĩº æĿ¥
A D
Ġle g
Ġd ays
è´ Ł
Ġd em
Ġw om
å¸ ®
ç Ĩ
èį ¯
it or
å¤§ å®¶
Ġf alse
ä»ĸ çļĦ
æī ¿
Ġus er
ï¼Į åıª
éĴ ±
+ +
ç´ §
Ġl og
çĽ Ĭ
èĮ ĥ
Ġt urn
é£ ŀ
op t
u f
ä¸į ä¼ļ
Ġh um
å® ¤
åĨ ·
è¿ĺ æľī
Ġbe h
B y
ess ion
Ġg l
U n
ĠCom m
åĪ Ŀ
åĨ Ļ
ä¸ĸ çķĮ
Ġagain st
ï¼Į æĺ¯
é» Ħ
Ġev ent
Ġb as
åŁ Ł
ä¹ĭ åĲİ
æµ İ
Ġ Â
Ġimp ro
Ġ `
ic ense
ir d
it her
æĸ¹ æ³ķ
is ter
èĥ½ å¤Ł
Ġen g
res ent
ot s
Ġ ident
Ġl ight
ft ware
é ¸
éĢī æĭ©
åĮħ æĭ¬
Ġex ample
`` `
rr or
act er
Ġ& &
Ġstud y
ab ly
cri ption
ac he
Ġre t
Ã ©
Ġb ased
Ġc ap
a ction
Ġb en
è¾ ĵ
ĠB e
ä¹ °
åĵ ª
in a
åı ¤
çķ Ļ
Ġcont rol
con t
Ġle ft
ri es
é¡¹ çĽ®
Ġposs ible
Ġspec ific
l ish
çĸ Ĺ
Ġn et
oc us
äº ¬
. A
ie ve
lo se
ide o
å¯¹ äºİ
è¦ģ æ±Ĥ
ord ing
Ġs ol
çłĶ ç©¶
Ġp ar
is ed
å° ½
Ġt yp
at ures
åħ Ń
Ġs ite
che s
ä¸į åĲĮ
Ġacc ount
åĪ »
ï¼Į åħ¶
ou ble
ä¼ ¤
v iron
Ġresult s
Ġcour se
åĽ½ å®¶
H E
Ġme an
æĬķ èµĦ
ĠL et
d ata
Ġ es
è¯ Ħ
çª ģ
é¢ Ŀ
æīĢ æľī
å¯ Ĩ
ä¼ ¼
ĠâĢ Ķ
} \
ĠO r
äº ļ
b r
ĠN o
ĠC ont
ric t
} {
c rib
Ġserv ices
å± ħ
æĸ¹ å¼ı
_ F
Ġu nt
åį ¡
Ġc al
pl ace
Ġgo ver
åº Ĺ
_ id
å® ĺ
åĿ ĩ
Ġsu ccess
ivid ual
Ġj ob
Ġp ract
ãĢ Ģ
æį ¢
Ġp a
Ġare a
v oid
out h
éĩį è¦ģ
åħ ħ
çŃ Ķ
id d
çī Į
ç½ Ĺ
our ces
åº ľ
æ´» åĬ¨
A l
æĤ ¨
åħ ´
âĢĻ ve
ar ing
end ed
å· ®
lob al
ur y
Ġ Î
Ġpro m
è¯ »
t a
an ces
Ġt ext
iqu e
le g
åĨ ľ
ir c
Ġt reat
ç» Ŀ
è®¾ è®¡
Ġin it
Ġwork ing
æİ§ åĪ¶
ç¤¾ ä¼ļ
Ġcont ent
Ġm us
ãĢĤ åľ¨
U R
m e
r ad
ĠSt ring
ç¾ ¤
o ber
I nt
pl es
Ġre view
um n
å®ī åħ¨
åı ²
ure d
åį ĥ
Ġf ac
éĥ¨ åĪĨ
ĠB l
u ly
åĽ º
ã ĥ
ç¼ ĸ
ific ation
read y
çĽ ĳ
ill s
. l
Ġb ro
b ook
f rac
ĠM ay
o le
c ode
å½± åĵį
çļ ®
E n
åľ Ł
in c
Ġle arn
O T
Ġp ot
or g
ul ation
Ġrequ ire
I M
ä¸¤ ä¸ª
çī Ī
ĠTh at
w ord
ard s
ra in
æĸ¹ éĿ¢
Ġbre ak
Ġh ist
ill ion
å¾ ħ
S et
èī º
ï¼Į å¥¹
oc ument
I nd
in it
æŃ ¦
Ġemp loy
Ġex c
he ad
Ġm aking
æŃ ¢
O bject
. b
Ġe lect
am b
Ġt imes
ag s
ur ity
åĩ ı
åħ «
åĲ ¦
ä¸Ģ äºĽ
g in
u ro
åĽ Ń
H ow
Ġo cc
Ġcons ider
ä¹ İ
æĪĳ çļĦ
Ġwh y
ore d
è¿Ļ ç§į
èĭ ¥
Ġinclud e
O n
ap s
is ing
um e
åħ į
I m
ä¸º äºĨ
Ð °
é¦ Ļ
æĪ ı
åŃ¦ ä¹ł
id ence
çİ ©
åĳ ³
IN G
i ke
Ġm oney
å¤ «
Ġse c
ur ther
Ġan sw
I G
en e
åŃ¦ çĶŁ
Ġth ought
Ġb it
i ver
éĻ į
åı ¦
æĻ º
Ġs ays
Ġli k
åİ ¿
Ġk ind
iet y
_ st
âĢĻ m
å® ³
èĻ½ çĦ¶
o ff
ĠW hen
æ¯ į
id s
ä» ¤
æŁ Ĳ
åı «
æķĻ èĤ²
ne y
Ġf our
ä¸ ¥
ip s
al es
Ġre du
Ġspec ial
Ġchild ren
' m
ä½ľ ä¸º
Ġind ividual
ĠW ith
çĶ »
Ġl ow
Ð ¾
_ D
å¿ µ
Ġc ode
Ġf lo
W h
il es
Ġl arge
o ice
åıĳ çİ°
and s
é ²
æĭ ¿
Ġf ood
. n
n ment
Ġrequ est
Ġto t
Ġa way
Ġrec ord
æ² ³
A B
åĨħ å®¹
Ġme ans
çģ µ
ag n
Ġst ep
Ġb ody
Ġproble m
è´ Ń
f er
Ġpro b
ut ure
åģ ¥
Ġth ing
H e
viron ment
is k
ain t
__ __
Ġd one
åĩº çİ°
Ġsh ort
() .
ut il
Ġph ot
ct or
çĦ¶ åĲİ
æĿ Ģ
pp ed
Ġp aram
ĠThe se
å¼ Ĥ
( self
pp ing
éĻ Ī
lo c
Ġc reat
Ġquest ion
ign ed
ir t
ĠCh rist
Ġstud ents
è´ ¢
Ġcall ed
L O
Ġha ving
or th
ys is
ç»ı æµİ
Ġme as
äº ī
Ġal ong
ĠR ep
ĠHow ever
Ġp ast
Ġp ath
åº ·
åı ¶
Ġadd ress
aj or
Ġc ertain
ĠS ystem
pl ic
çł ´
ect ed
er c
' re
in clude
ä¸Ģ å®ļ
å¤Ħ çĲĨ
ff ic
Ġr ange
Ġme et
i od
ä½ Ļ
Ġlook ing
ĠE n
Ġro om
Ġh ig
ĠM ar
è¿Ļ ä¹Ī
ï¼Į æĪĳä»¬
æĪĸ èĢħ
it er
çĭ ¬
le y
S S
ç¦ ı
è¿Ļ ä¸Ģ
Ġor ig
æ ¿
ic ro
Ġerr or
y l
è Ĵ
âĢ ĵ
Ġm ove
A G
.... ....
( m
éĵ ¶
O M
èŀ į
Ġal ready
E rror
åħ ļ
âĢĻ ll
å¸ Į
Ġse ver
R e
Ġt ell
ä» ĭ
B ut
Ġcomm on
æł ¸
( p
åį ı
ab les
ight s
ĠC an
Ġof ten
å¥ ĩ
é Ĩ
Ġab ove
S e
Ġrese arch
Ġl a
Ġunt il
ï¼Į åı¯
A nd
ä¸ ĥ
å¿ Ĺ
ĠE ng
[ i
g round
Ġto day
con om
æĻ ®
è® ²
um ber
æĹ ı
äºº åĳĺ
m b
éĺ ¿
che d
Ġdet erm
a i
Ġan n
Ġsa f
K ey
ar ning
èĭ ı
Ġto get
Ġpr int
Ġtoget her
a ff
åĨ ²
Ġ/ *
æľī éĻĲ
ç ĵ
ĠL e
ĠA t
Ġsu per
è Ľ
Ġpartic ular
æĻ ļ
U S
ear ch
c er
Ġf ore
Ġvis it
W ith
Ġperson al
ay er
d e
end s
P l
pr int
è¯ ¾
Ġp age
è½ ®
èĥ½ åĬĽ
çĽ¸ åħ³
Ġle ast
çļĦ è¯Ŀ
Ġs ide
Ġneed s
åĲ ¸
ac es
ĠP r
Ġbu y
. j
ä¸ ¾
å¾ ĭ
Ġre ason
åºĶ è¯¥
äºĭ æĥħ
ç« Ł
ribut e
è§ī å¾Ĺ
P E
åı ¥
çľĭ åĪ°
al f
ĠA ss
åıĳ çĶŁ
ĠG od
Ġ id
t ype
re c
l ished
Ġm aterial
Ġan t
Ð µ
Ġp ack
åº ı
åħ µ
id es
Ġwhe ther
s ide
åĲ «
ĠM y
æ ¦
æĭ ħ
æĿ¥ çļĦ
åį «
F ile
è¡ £
Ġh old
çŃ ĸ
ar i
l u
os ed
umm ary
ç ŀ
å¦ Ī
åĿ Ĳ
å¯ Į
c ol
Ġsoc ial
ä»¥ åıĬ
s el
en n
Ġsp ace
æľ ¨
le v
Ġind ust
çĶŁ äº§
Ġben ef
Ġproduct s
j oy
ç» §
Ġp ort
ä¸Ģ æł·
ib ility
Ġd ri
è¿Ļ éĩĮ
æ ¤
g s
å· ´
Ġsign ific
åģ ľ
ä¸ª äºº
ä¸į è¿ĩ
æĵ į
ä¸ĵ ä¸ļ
ĠC ent
å½ ķ
un c
Ġf ocus
ç» ĩ
Ġvar i
åĶ ®
Ġsever al
oh n
orm al
T ext
Ġm en
ur l
in o
. D
ĠD o
ĠM ed
Ġen ough
le an
Ex ception
åĢ Ĵ
æ¿ Ģ
Ġen c
ord er
çĽ ĺ
ver age
Ġf ar
è®¾ å¤ĩ
Ġh ouse
ur ation
æĢ ķ
Ġm ot
. set
Ġtr ad
Ġother s
éĿ Ļ
ar r
Ġd r
æľ Ŀ
oo gle
) $
ent al
an ks
. M
I s
Ġt arget
Ġm ax
w h
Ġe ither
_ B
çĽ´ æİ¥
Ġm akes
Ġrequ ired
æĽ ¾
os p
é º
ä½ł çļĦ
a us
ä¹ Ŀ
ç £
og raph
çĪ ¶
) :
res h
ib r
æ¯Ķ è¾ĥ
ĠP ol
åº §
çł ģ
æŀ Ĳ
Ġ ?
L et
or ld
Ġp ub
Ġinv ol
ä» ĺ
é¡ »
r c
re l
m m
( \
Ġsing le
Ġact ually
ĠC o
lect ed
Ġ version
Ġcom b
Ġp o
è½ ½
Ġdevelop ment
ro om
ut es
( d
pp er
å®ŀ æĸ½
il ar
èĥ Į
U N
é ¼
st ruct
Ġa uthor
Ġv ol
em pt
äº Ĵ
ä¸ Ŀ
å¾ ģ
Ġ ess
ove mber
en c
ĠCom p
> <
Ġrel ations
Ġ< <
Ġst ory
ĠUn iversity
Ġbec ome
æī §
EN T
è Ĩ
è¿ĩ ç¨ĭ
ä¹ĭ éĹ´
ä¹ ħ
Ġwor ks
per ty
åŃ £
ï¼Įä½Ĩ æĺ¯
eg in
re ct
ĠI nt
ç§ »
. _
Ġqu ality
éĵ ģ
Ġen erg
I P
. âĢĿ
çİ¯ å¢ĥ
æ³ ¢
éĤ£ ä¹Ī
çı Ń
Ġint eg
Ġd ue
ĠI N
Ġoff er
å¤ ľ
åĵ ¥
Ġdid n
Ġcommun ity
Ġf ail
Ġeas y
è¿ŀ æİ¥
ä½Ĩ æĺ¯
åĿ ļ
çľĭ çĿĢ
Ġ: =
ri or
f ect
Ġcon nect
æĪĲ ä¸º
_ N
im ate
le ft
---------------- ----------------
å¤§ åŃ¦
æĸĩ åĮĸ
è´ §
A dd
Ġb ring
sp an
Ġ ...
åħ· æľī
Ġt alk
Ġcl aim
T est
ward s
ĠC he
Ġm ajor
Ġcont ain
æ ½
( -
Ġto ol
Ġw in
ĠQ u
I L
[ ]
oo se
çŁ Ń
æĦ ¿
ä¹Ł ä¸į
Ġa ir
e ed
è¡ ¥
Ġb lock
åĸ Ħ
\ n
Ġo bs
èĦ ĳ
Ġcour t
Ġ< /
æĺ ¥
Ġdoes n
.. /
# include
un ity
b b
} ,
C H
m it
_ in
on es
å¥ Ĺ
n ow
Ġm ar
Ġdo ing
æ¥ ¼
Ġe ver
Ġm om
ĠY our
N ew
Ġdist ribut
Ġstr ong
çļ ĩ
y t
Ġpos ition
ens ion
( x
Ġam ount
ĠF r
- l
åħ °
ä¸Ģ èµ·
ĠC al
å»º è®¾
ip le
å· ¦
è Ń
Ġt re
Ġmonth s
f ile
u ation
ç© ¿
Ġm ind
d iv
p le
Ġac ross
cl us
ul es
T ime
t d
O L
Ġem ail
çĶ¨ æĪ·
Ġa ction
ĠL icense
The re
æĥ Ĭ
Ġh tt
Ġ| |
t ies
ĠSt ate
( n
é ½
åĸľ æ¬¢
ĠG et
è° ģ
Ġhum an
ĠĠĠĠĠĠĠĠ ĠĠĠĠĠ
Ġth ough
Ġsignific ant
Ġt able
Ġget ting
æħ ¢
Ġval ues
æľ ĭ
Ġdisc uss
m ost
åį °
ĠIn st
Ġrep resent
å¦Ĥ ä½ķ
Ġopt ions
St ate
è Ĺ
åī ¯
Ġs ource
è® Ń
In fo
å§ Ĳ
Ġass oci
âĢĿ ï¼Į
æĭ Ľ
ä¸Ń å¿ĥ
ç» ĥ
Ġansw er
o in
åĽł æŃ¤
çĶ ļ
Ġf uture
le ments
at ors
Ġcomp let
f ort
èĩª çĦ¶
an u
p x
èī ¯
Ġon ce
Ġmem bers
Ġbel ow
. P
( c
åĪ ĺ
åħ³ ç³»
é¡ ¾
ict ion
Ġl ater
Q u
æĢ ¥
å®ŀ çİ°
et a
Ġres pect
ind ex
ra ft
Ġde al
Ġcol or
Ġcook ies
av or
Ġed uc
ct ober
il ities
ĠA N
Ġex ist
Ġenerg y
ĠC ar
og n
A ll
Ġproper ty
Ġsu gg
A pp
æľī äºĽ
Ġchar acter
ec ut
èŃ ¦
å® ¡
Ġsh are
Ġsugg est
åı ³
Ġs ent
Ġcount ry
Ġc ou
D e
Ġab s
Ġkn own
im al
Ġen joy
ç¥ ¨
Ġph ys
end er
çº ª
Ġp arent
Ġbe gin
ĠG u
ï¼Į æīĢä»¥
åľ° æĸ¹
ir l
ï¼Į ä»İ
Ġch all
us er
Ġwom en
å² ģ
ro id
u x
Ġl ive
O P
ic ation
æľĢ åĲİ
ak en
ir m
è ĵ
Ġd ig
ä¾ §
//// ////
c le
pr il
ï¼Į å¯¹
ï¼Į è®©
( b
Ġne cess
Ġar ray
Ġre d
åī §
Ġoff ic
ru ction
Ġen s
R equ
' ve
Ġact iv
Ġ __
Ġh ours
Ġcont act
æľĭ åıĭ
Ġcom es
Ð ¸
Ġso ftware
ĠN ot
åį ļ
äºº æ°ĳ
Ġpot ential
éķ ĩ
Ġper iod
O r
ä¸Ģ ä¸ĭ
o ad
Ġtot al
Ġc ur
il t
ãĢ Ĳ
è¯ ī
U LL
æĿ ¾
ĠB y
pt ember
ç ĳ
ce mber
ort s
åŃĺ åľ¨
å¤ ı
è° ¢
Ġqu ick
Ġp ress
ãĢ ĳ
] [
Ġo pport
is on
Ġcomp ut
ç»ĵ æŀĦ
æŀ ¶
Ġst re
R ead
ĠO ne
éĴ Ł
ä¸ ´
in ary
Ġse arch
Ġo ption
at form
ï¼Į è¿ĺ
æĦŁ è§ī
ä¸Ģ èĪ¬
éľ ²
r t
ĠD es
Ġb log
ĠUn ited
Ġpat ients
ep end
æ± ī
Ġex am
çķ ¥
im um
itt ed
Ġcon c
Ġterm s
ä¸ľ è¥¿
Ġo p
as ing
ri x
r m
- g
( (
Ġg en
Ġl and
Ġn ight
p ace
E M
Ġimpro ve
Ġass ert
Ġy et
åĵ Ī
æł ĳ
it es
ug ust
Ġpre vious
çº ³
ĠA dd
é¢ ĳ
P h
il i
ol l
Ġe y
Ñ Ĥ
æ¶ ²
Ġpr ice
Ġv ideo
Ġin put
Ġf urther
ç» ľ
åŁ ¹
r s
Ġim age
ç ĩ
Ġob tain
æį Ł
Ġgover nment
ãĢĤ æĪĳ
- in
et ers
Ġ Ã
m y
Ġresp ons
Ġfe atures
op s
Ġl ink
t ime
å·¥ ç¨ĭ
Ġhapp en
è½ ¯
æ¯ ķ
æ¥ ļ
ro du
Ġc opy
i res
èĦ ļ
Ġdes crib
n ers
Ġc rit
æĶ »
ä¸Ģ ç§į
art ment
err or
Ġrelations hip
' :
Ġen vironment
æľīéĻĲ åħ¬åı¸
un g
Ġwe b
ĠD is
Ġth row
at ural
anu ary
åıª æĺ¯
Ġse ason
ĠĠĠĠĠĠĠĠ ĠĠ
åģ ĩ
ç»Ħ ç»ĩ
å¯ Ł
ound s
Ġstr ateg
! !
Ġdef ault
ra ck
led ge
u ed
Ġprovid ed
éģ ĩ
th ough
- w
é¡ º
Ġres ponse
ç´ ¢
n ection
od es
ĠG ener
Ġyou ng
ht ml
ãĢĤ è¿Ļ
çĶ ³
ĠU s
æ¸¸ æĪı
Ġc red
æıĲ é«ĺ
èĤ ī
éĿ ł
. w
äº ®
çĶ¨ äºİ
Ġbe aut
è¯´ éģĵ
Ġc ult
ç ¯
Ġs ym
Ġc ame
at ter
N ot
Ġstart ed
m od
It em
er o
äº «
æĤ £
ab or
c ing
ur ance
ï¼Į æīĢè¿°
æŃ Į
_ g
our n
g ress
O S
anc ial
Ġm essage
Ġb ase
com p
t ings
å¸ Ŀ
ä¸Ģ çĽ´
äºĨ è§£
_ h
ç¨ ³
Ġam ong
an ies
åį ł
èĭ ¦
S o
ä»» ä½ķ
z e
Ġse en
çľŁ çļĦ
å ³
åŃ¦ æł¡
è ĸ
è¯ į
åĩº äºĨ
éĽ ¨
ou d
ä½ł ä»¬
Ġgener al
ĠM ore
Ġre comm
Ġvar ious
un ch
- h
Ġr ate
çĽ® åīį
Ġf ace
ect or
on y
æķ £
ĠIn tern
Ġsu bject
Ġnew s
pl ate
Ġc amp
è®¤ ä¸º
Ġc ut
Ġe conom
it ut
Ġinst all
æĹ ħ
A d
Ġcon fig
$ $
Ġag o
æĶ¿ åºľ
N o
Ġpoint s
Ġsim ilar
Ġt ax
å¸Į æľĽ
Ġs w
m at
ĠAmeric an
ess ional
E X
ĠJ ohn
é¡ ¶
Ġcle an
Ġhe art
indow s
S u
ä»Ĭ å¤©
it em
âĢ ¢
i ans
Ġsimp le
ĠM e
è¡Į ä¸ļ
_ name
Ġth ird
Ġiss ues
Ġe arly
Ġh ot
W hen
ç¾İ åĽ½
P ath
um ents
Ġh ope
æī ¹
Ġind ic
anag er
Ġp red
' ll
, æĪĳ
Ġp ick
éĺ µ
ok en
_ w
å® Ī
Ġl arg
. F
éĢ Ģ
éĽ ª
rou ps
ç¬¬ ä¸ī
Ġr ad
Ġperform ance
her s
åĬŁ èĥ½
Ġcomp et
Ġpur ch
P ost
äº ¿
Ġwho le
Ġmed ia
con fig
æĿĲ æĸĻ
æĿ ¨
Ġanal ysis
Ġmus ic
b ox
çĸ ĳ
= '
N ode
åŁº æľ¬
å¥ ĸ
éĻ Ħ
um b
D es
åĩ Ģ
çİ ī
æľº æŀĦ
. org
Ġapplic ation
Ġrem ain
Ġcom ment
å° Ħ
è®¾ ç½®
çĶ± äºİ
æĸ Ĺ
Ġne g
ä¸ĭ æĿ¥
æ³¨ æĦı
ic ult
Ġwrit ing
Ġcle ar
ition al
Ind ex
çĹ Ľ
ç² ī
èı ľ
Ġw rite
s u
Ġper fect
htt p
Ġto ok
ann el
======== ========
Ġ( !
Ġc ity
in ks
C C
#### ####
st er
Ġs at
Ġw on
å° ģ
è¡¨ ç¤º
ĠR eg
S ize
è´ µ
> </
è¿ ½
æ² ī
Ġevery thing
èį ī
ww w
E vent
is es
Ġde b
() ,
ç»ĵ æŀľ
ĠF l
ill ed
ful ly
Ġe ar
ä¸ ½
å®Į æĪĲ
Ġ" "
r ide
æ¹ ĸ
æī ĺ
åĪĨ æŀĲ
ä¸į è¦ģ
ä½ľ çĶ¨
Ġ- >
st ance
æ´ Ĺ
Ġw ent
ç¤ ¼
ĠI m
P aram
ĠA g
æĭ į
Ġhig her
Ġtra ck
éħ ¸
d o
l t
å¼ Ł
us ing
er al
æĿ¥ è¯´
it ing
Ġst ay
è´¨ éĩı
pec ially
O D
ig ure
Con fig
n ces
iv al
Ġquest ions
s ub
Ġsome one
Ġser ies
ix ed
ist ic
ĠO ur
èİ· å¾Ĺ
Ġh ost
c ome
re w
å¨ ģ
ĠP art
Ġro le
ĠĠĠĠĠĠĠĠ ĠĠĠĠ
Ġchang es
éĹ »
èµĦ äº§
åįķ ä½į
è ¸
å® ģ
Ġm illion
d ing
ov ed
çĸ «
erv ed
ud e
uro pe
y d
Ġd om
éĽ ·
èģ ļ
çļĦ å¤§
Ġiss ue
æ¢ ¦
Ġindust ry
æĴ Ń
Ġcan not
f rom
å ª
åŁİ å¸Ĥ
p ose
Ġide a
Ġneed ed
ĠA b
Ġst ore
Ġcont ext
Cont ext
Ġr isk
éĻ Ĩ
è· ĳ
Ġc ard
Ġbel ieve
Ġd ate
E qu
Ġm or
er a
and om
Ġhist ory
t est
ä¸Ģ æ¬¡
Ġpartic ip
Ġl oss
Ġhow ever
. add
Ġa ge
Ġprovid es
ĠP ost
Ġmin utes
æ¯ Ĵ
Ġmanag ement
Ġv ia
eb ru
U p
å¿ħ é¡»
ĠM in
if ul
éĴ ¢
Ġw alk
éĤ£ ä¸ª
Ġg ames
åĩĨ å¤ĩ
Ġt aking
I R
Ġc lose
å® £
æĬ Ĺ
Ġtreat ment
Ġany thing
çĶ ²
ĉĉĉĉ ĉ
ell ing
èĥ ľ
ob ile
T R
yn c
le ge
ebru ary
ï¼Į ä¸º
\ \
ç½ĳ ç»ľ
L og
ĠSt ates
ph a
or age
Ġcond itions
Ġtra ining
æ¯ Ľ
Ġimp act
Ġout put
Ġst d
Ġs um
h ing
è¿Ľ åħ¥
ic les
d a
l ist
re p
- st
èĮ ¶
' )
Ġde g
ĠR ev
. st
lic k
ĠE d
Ġm ach
çĶļ èĩ³
ur ch
ä¹ĭ åīį
g ed
ĠA ct
èº« ä½ĵ
ä¹ ¡
Ġf ive
ï¼Į å°Ĩ
æĵį ä½ľ
Ġind ex
A t
å® «
Ġf low
ĠS ee
æİ ī
Ġart icle
uff er
] (
Ġm iss
åĽ½ éĻħ
Ġb i
æĽ ²
olog ical
æĭ ¥
. R
Ġd at
Ġnet work
Ġd ouble
Ġup on
ĠG r
Ġf all
ri ed
h ib
Ġac cept
S c
âĢĿ çļĦ
Ġcontin ue
ast ic
ateg ory
çĽ ĸ
æĢ Ģ
Ġincre ase
Ġp ie
ï¼Į å½ĵ
re ate
ç»§ ç»Ń
% %
n a
se c
ĠM arch
Requ est
å¾Ĺ åĪ°
ĠA fter
Ð ½
Ġdet ails
e le
ce ed
Ġimp lement
Ġb ar
Ġcl os
ĠC ount
A b
b egin
b ar
Ġcomp lete
è° Ī
p ack
iz ing
ä»· æł¼
Ġcomp anies
Ġse em
Ġpa per
Ġper cent
Ġent ire
Ġadd ed
Ġm ass
Ġa ud
Ġw ond
å½ Ĵ
Ġc ases
Ġc irc
Ġpol it
b ol
çī¹ åĪ«
e es
P I
Ġc aus
ĠN ovember
è§£ åĨ³
ĠS et
Ġtechn ology
b all
çĽ® æłĩ
ï¼Į å¦Ĥæŀľ
Ġlik ely
Cl ass
Ġreg ard
Ġsystem s
Ġ ver
Ġp rior
æķ ¢
åĲĦ ç§į
æłĩ åĩĨ
çĻ »
Ġdiff icult
ch o
å¦Ĥ æŃ¤
Ġp ain
U L
A tt
i ol
y th
ĠD r
æ ĩ
ä¸Ģ æŃ¥
he l
Ġb ad
D ef
æĹł æ³ķ
Ġlo ad
Ġb o
æ²» çĸĹ
å¼ ¹
g ing
Ġa ch
sel ves
Ġd am
ĠJ une
Com p
Ġc oun
ç¨ İ
ç¬ ¦
il s
Ġh alf
Ġpr im
Ġd er
åŁº ç¡
F ield
Ġne ar
um er
ï¼Į åı¯ä»¥
Ġst yle
Ġmat ter
åĤ ¨
m ail
Ġb row
æ± ½
Ġfriend s
é ±
Ġr ather
id ed
äº§ çĶŁ
Ġu nd
an ced
ç§ Ģ
i ate
ag ing
Ġwe ight
¤ Ĳ
Ġproble ms
Ġd ocument
ä¸ °
O f
av ing
er ver
Ġw ait
åºĶ çĶ¨
Ġapp ly
æĽ´ å¤ļ
æ· ·
p i
Ġl ength
ig ation
Ġm atch
O ver
b l
Ġto ld
Ġev ents
æ´ ¾
æķĪ æŀľ
il it
åŁºç¡ Ģ
g o
al t
Ġh om
å° ¼
å®Į åħ¨
Ġd en
çī Ľ
htt ps
å© ļ
\ x
Ġwor ds
ãĢĤ ä»ĸ
Ġs ens
åĬ ³
st atic
ac c
Ġbuild ing
çļĦ å°ı
ç¼ º
ach ing
å½ ©
æ² Ļ
é± ¼
Ġag re
åİ Ĥ
Ġtry ing
ï¼Į ä»ĸä»¬
Ġacc ording
éģ ¿
el t
ç¼ ĵ
çŃ ĳ
æĹ ¢
ab led
Ġpre t
åıª æľī
Ġw ays
Ġl ower
L oc
Ġcell s
res ult
éĢ ı
æ° ¸
F rom
å¿ Ļ
Ġbl ack
lo od
ar ray
ad a
M y
ay out
å¹³ åı°
ace book
Ġt aken
ä¿Ŀ æĬ¤
åģ¥ åº·
Ġp lease
åĢ Ł
at est
ï¼Į çĦ¶åĲİ
Ġtra vel
è§ ¦
op er
åĮ» éĻ¢
æļ Ĺ
min ist
ĠP er
ens ive
åĮĹ äº¬
èĹ ı
Ġtyp es
ĠSt ud
E L
i ef
Ġle arning
_ H
ĠJ uly
æĢ ª
å¸® åĬ©
, åľ¨
o on
Ġcre ated
åį ĸ
æ» ĳ
Ġ q
å®ī è£ħ
æĿ Ĥ
or ks
_ r
M ap
S ub
at ory
Ñ Ģ
ĠA pril
Ġd est
Ġa w
æĶ¯ æĮģ
Ġfr ont
ĠO ctober
åħ¶ ä¸Ń
oo lean
un k
ĠC our
Ġcol l
$ ,
ĠD ep
ra ce
ass ert
åĽº å®ļ
ç» į
Ġal most
æ¬ §
è¿ĩ åİ»
j ust
çĨ Ł
Ġexper ien
Ġsimp ly
ĠC ity
c ast
O ut
éĶ ®
åĢ º
ac hed
æŁ ĵ
i am
Ġqu ite
s ummary
ĠC or
) (
å¹´ çļĦ
ç¬ Ķ
op h
åĪ ¤
) /
ç» ¿
éĩĩ çĶ¨
an a
_t ype
Ġg lobal
se qu
Ġmult iple
tern al
Ġexpect ed
ä¸ļ åĬ¡
B e
or ing
_ L
çĪ ·
Ġem b
Ġb ed
Ġrece ived
O V
o res
å®¢ æĪ·
Ġw atch
å¢ŀ åĬł
. e
ä¸Ģ çĤ¹
Ġdev ice
Ġs ection
r ong
å¥¹ çļĦ
Ġes pecially
Ar ray
èĢģ å¸Ī
ĠE urope
åº Ń
ä½ Ľ
v is
E nt
T M
åħ¶ å®ŀ
Ġor g
a ur
Ġext ra
éĴ Ī
Ġ+ =
å «
ï¼Į åĽłä¸º
ä»£ è¡¨
åĺ ´
Ġp ict
Ġshow s
æķ ĳ
Ġoff ers
Ġst e
ĠAr t
éļ ľ
åĵģ çīĮ
ĠC ons
olut ions
wit ter
Ġp ers
m on
m ission
_ IN
ĠSe ptember
è®¡ ç®Ĺ
åī Ĥ
ä¸į çŁ¥éģĵ
ä¹ ±
ĠHe alth
Ġcomp on
ç§ĳ æĬĢ
å®ŀ éĻħ
ĠDe cember
ĠS m
Ġstand ard
I V
Ġet c
I F
é ¹
Ġt w
åº Ĭ
é¡ ¿
Ġs olution
èµĦ æºĲ
å®¹ æĺĵ
æĮ ¥
Ġdis play
ch an
Ġest ab
yn am
Ġorig inal
Ġcor rect
éĩ Ĭ
ĠR ec
ag ed
ĠW orld
C R
Ġcomp lex
å¼Ģ åıĳ
om et
éĤ£ äºĽ
erv ices
_ RE
åł Ĥ
b oard
Ġ ãĢĤ
èĦ ±
Ġcom pl
è¯ Ĺ
ä» į
et y
Ġknow ledge
H and
Ġrel ated
R eg
l ight
è ľ
åŃ Ķ
uf act
R ef
pl it
Ġun ique
ç²¾ ç¥ŀ
P L
äº¤ æĺĵ
Ġaddition al
ä»· åĢ¼
éĿ¢ çļĦ
R ec
åħ³ äºİ
Ġn il
ott om
Ġb ool
ou ch
et ic
å¹ ¸
ĠM an
E d
éĺ ¶
se e
L e
åĲ ¯
å¨ ĺ
Ġnecess ary
Ġb ox
Ġare as
Ġf avor
Ġprob ably
ibr ary
. T
Ġaut om
èĤ ¯
é ¤Ĳ
ĠS ome
è¯ ¯
ï¼Į å¤§
- y
ĠA ugust
Ñ ģ
Ġcont ract
åº ĵ
ä»¥ ä¸Ĭ
che ck
è· Ŀ
r ame
å½¢ æĪĲ
ĠJ anuary
il ter
ist ance
æİ Į
Ġsec urity
æĺ¯ åĲ¦
Ġappro ach
V al
lo at
è§Ħ å®ļ
Ġexp ress
ĠL ist
p m
åĨ °
le ep
ĠS chool
Ġevery one
æ¦ Ĥ
C E
ĠN ULL
w here
ãĢĤ èĢĮ
pt ions
Ġpol icy
å· ¨
Ġev idence
æĺ¯ ä¸Ģä¸ª
ï¼Į åıĪ
_ {\
Ġdown load
et urn
P S
C L
åİĨ åı²
oc ol
n o
é¥ Ń
Ġprof essional
è¯ ¢
Ġlim it
o ke
Ġim m
Ġcustom ers
Ġn atural
m d
ĠN ow
ç§ĳ åŃ¦
çŁ¥ è¯Ĩ
In ter
Ġread ing
Ġfor ward
Ġeng ine
ĠR ead
Ġnot hing
æĪĲ åĬŁ
ä½į ç½®
Ġis n
æ¸ Ĳ
Ġpos itive
éŃ Ķ
èµ µ
ï¼ĮèĢĮ ä¸Ķ
å Ĺ
ĠĠĠĠĠĠĠĠĠĠĠĠĠĠĠĠ ĠĠĠĠĠĠĠĠĠĠĠ
æİ ¢
Ġf it
ver se
Ġcal cul
Ġe p
D is
Ġc ause
res p
Ġwor d
Ġl iving
Ġval id
Ã ¤
ĠY ork
åŁº éĩĳ
roll er
å» ¶
ç»ı èĲ¥
éļ Ĳ
A A
å® Ĺ
æĺ¯ åľ¨
re st
ĠO ut
ĠA cc
Ġus ers
æ· ¡
Ġj ud
Ġfe ature
åħ· ä½ĵ
ç®Ģ åįķ
au gh
Ġ Ï
Ġwh ite
åħ ¸
Ġst op
idd le
Ġgrow th
è®¡ åĪĴ
Ġex act
ï¼ī ï¼Į
Ġse par
Ġpl atform
Ġst at
ail y
Ġlevel s
åį Ī
Ġit em
æĿ¡ ä»¶
ĠF in
f ield
t es
åĪ Ģ
Ġinclud es
_ R
Ġch oose
Tr ans
q l
ic on
Ġfin ancial
f l
ç©º éĹ´
åĶ Ĳ
å° ļ
U ser
ä¸į æĸŃ
s y
ove red
Ġens ure
ap ter
am ed
Ġrec ogn
çĶ °
Ġs ix
ĠO F
Ġc as
F orm
Ġrun ning
Ġev al
ĠNew s
åĪ© çĶ¨
åİŁ åĽł
åī ĳ
ä¼ Ļ
åĪ ¸
è¡ Ĺ
g en
Ġt itle
è¿ İ
Ġinst ead
Ġd iv
ĠM c
ç® ±
çĿ ¡
æľ «
ac ed
é½ Ĳ
S p
e ks
æĽ´ åĬł
åĸ Ŀ
re ak
m ing
C ode
Ġinst ance
Ġbeaut iful
ï¼Į è¦ģ
com ing
èĻ ĳ
Ġâ Ī
Ġsh own
( &
é¦ Ĩ
Ġm ark
Ġwant ed
Ġyour self
Ġdis e
Ġbeh av
Ġask ed
ĠG e
_ V
Ġt akes
Ġg irl
åĲĪ ä½ľ
Ġg round
Ġrece ive
ĠO ff
éª ¨
Ġgr ad
/ s
N A
p oint
m ap
ï¼Į åį´
Ġint rodu
è¿Ļæł· çļĦ
Ġm ap
ĠO R
Ġmom ent
çĬ¶ æĢģ
Ġso on
éĿ ©
Ġco ver
air s
n ov
ol id
Res ult
M essage
ĠW ill
ĠP res
Ġins ide
i ation
ĠT ra
ĠP ar
Ġ ill
er ve
âĢ ĺ
qu e
ĠU p
çŃ ¾
Ġse lect
Ġpart y
Ġsh all
Ġeff ic
â ĳ
h old
Ġse ems
S ervice
çĥ Ł
ç¿ »
åĿ ı
å ´
Ġf ul
Ġsc he
ĠP e
ĠA m
ĠN ational
Ġess ential
Ġf oot
g r
O ne
è¯´ æĺİ
x y
æĿ Ĩ
ers ion
en u
ç» ¼
è¿Ĳ åĬ¨
irt ual
å¥ ¥
èĻ ļ
åį ±
Ġg roups
åľ £
æ¸ ¯
Ġn ormal
éĩĮ çļĦ
-b ased
ä¼ ĳ
é¢ ľ
æĸ° çļĦ
Ġus ually
ĠThe n
s igned
un t
ĠB r
Ġit ems
äºº ä»¬
arg s
æĥ³ è¦ģ
Ġc y
ĠH ere
Ġcom ing
Ġde ath
Ġinit ial
Ġdec ision
Ġassoci ated
æĸ¹ åĲĳ
åľ Ĩ
_d ata
ĠS ec
. B
è´Ł è´£
ĠN one
éŁ ©
æĿ¥ äºĨ
g es
U E
ĠD ef
Ġlong er
Ġh ref
Ġinclud ed
at ur
Ġf ast
Ġback ground
$ \
yth on
Ġout side
ĠS outh
è®¸ å¤ļ
Ġright s
li ent
è¶ £
Ġs ense
æĹ §
Ġpre p
C ount
ç« ŀ
çªģ çĦ¶
, èĢĮ
Ġpret ty
Ġ( (
éĽĨ åĽ¢
ĠH is
çģ ¯
. W
éĩ İ
pt y
æ¤ į
èĪ ª
" ]
ç¡ ¬
Ġd raw
ob ject
ä»¥ ä¸ĭ
ak er
Ġpop ular
b f
an el
çī Ļ
[ "
l im
Ġp m
d own
AT E
Ġreg ular
Ġcond ition
Ġwrit ten
èİ «
ĠT HE
ur b
riv acy
l in
éĨ Ĵ
æ¶ ¦
æİ Ī
ĠJ ust
cre ate
éĥ¨ éĹ¨
ĠTr ans
**************** ****************
çĹ ĩ
æŃ£ åľ¨
æĬ ĵ
ï¼ İ
Ġe lement
ĠA ust
st ate
n own
Ġm ember
éĺ ´
ourn al
Ġstruct ure
ch ar
æıĲ åįĩ
å£° éŁ³
Ġoff ice
Ġst atus
Ġconc ern
ĠS un
i pe
Ġfe ed
ub e
w ise
ĠP ublic
Ġb al
Ġcl ient
ĠR ed
> >
Ġo il
ä»ĭ ç»į
åĽ °
ç¡® å®ļ
çĶµ è¯Ŀ
Ġse qu
Ġ ç¬¬
I I
ide red
æģ ¶
g y
Ġrec ent
tr ans
l abel
ĠO f
Ġchall eng
Ġpre vent
ĠGener al
Ġpro pos
ä¸ĩ åħĥ
ar c
æĺ¾ ç¤º
é¥ ®
T E
èĢ ³
æĿ Ł
é¢Ĩ åŁŁ
$ .
ä½ ³
æĬ¥ åĳĬ
é» ĺ
Ð¾ Ð
æĭ¥ æľī
å»º çŃĳ
Ġst aff
æı ¡
Ġ **
u i
ĠT est
Ġeduc ation
åħ¨ åĽ½
Ġmeas ure
O ur
ĠN orth
Ġprodu ction
ĠIn c
Ġf ire
Ġbeh ind
å¯¼ èĩ´
åľ° åĮº
ç§ ĭ
è£ħ ç½®
é² ľ
Ġmethod s
çĥ Ī
èĮĥ åĽ´
åĩł ä¸ª
Ġpract ice
ĠF ree
ire ction
k en
åĪ º
Ġs qu
åıĺ åĮĸ
Ġus es
Ġloc ation
Ġmain tain
ch ange
ï¼Į å¦Ĥ
ä¸į å¾Ĺ
éļı çĿĢ
èĽ ĭ
li ed
éĢ Ĳ
wit ch
u k
Ġmed ical
æĮī çħ§
M odel
åľ Ī
éľĢ æ±Ĥ
Ġf requ
Ġact ivity
ï ½
æ´ Ľ
æ §
äº§ ä¸ļ
éĶĢ åĶ®
C K
Ġcl ick
M S
c d
Ġacc om
ĠA f
Ġn ames
os ition
ail ed
Ġb oard
æľī æķĪ
. html
ab ase
Ġ åľ¨
åĲ Ľ
Ġph one
Ġeffect s
åĨ³ å®ļ
us ed
o e
Ġdef ined
ç» ©
Ġ ï¼Ī
ĠF ebruary
Ġappe ar
Ġeffect ive
Ġn ode
Ġwe eks
èĵ Ŀ
. L
com es
æī§ è¡Į
Ġwor th
Ġo pp
_ ST
çº ¸
é¥ °
ain ed
å¸ ģ
Ġle ave
Ġcons idered
Ġsc reen
- to
æĳ ĩ
en ces
Ġc ross
M A
ev ice
æ¶Ī è´¹
æ´ ²
in fo
è´£ ä»»
Ġcred it
Ġtr ust
ac hes
éĻ¤ äºĨ
p art
is f
è´ ¥
è¡Į ä¸º
èµ ¶
av es
éļ Ķ
ang le
è½ ´
[ @
f unction
N S
Ġve h
Col or
val id
åį ·
ä¸į åĪ°
å½ĵ çĦ¶
Ġav oid
ist ics
f unc
Ġor d
= \
æľī åħ³
åı¯ æĺ¯
O W
å¯ »
Ġhe ld
im ent
à ¤
Ġde ep
Ġup d
ĠP a
è Ķ
ãĢĤ âĢľ
en ing
ry pt
o es
å¥ ¶
AN T
Ġdesign ed
Ġs ound
Ġcons ist
l ink
P r
we et
æĬ ĺ
Im age
Ġ ]
æģ ©
li er
em p
åĨ ł
ä¼ °
Ġcustom er
ind ing
ç« ¥
p ri
è¡¨ çİ°
ol ve
æľº ä¼ļ
è¿Ļ æĺ¯
C he
at al
ç¼ ©
il le
è´ ¦
Ġin j
d is
Ġcont ribut
sh ip
ew ork
em ic
Ġst ates
Ġb lood
ĠF rom
iz es
èį £
ä¸º ä»Ģä¹Ī
Ġfil es
æ± ł
Ġallow s
ä¸į åı¯
ç§ ĺ
Ġab ility
åĩº çļĦ
ãĢ Į
ĠI S
ä¸Ĭ æµ·
æĸĩ ä»¶
Ġsk ills
q rt
ĠG oogle
çĿ Ľ
ĠD on
_ G
Ġw indow
èĤ ¤
ï¼Į æ¯ı
Ġh on
åĲİ çļĦ
Ġh it
åİ ļ
l en
å± ĭ
T able
Ġs end
an ch
h ood
M anager
ist ry
çĶ³ è¯·
Ġ æĪĳ
am ent
ĠD ata
u ge
Ġstud ies
Ġtem per
, ä½Ĩ
m iss
æķ´ ä¸ª
Ġfil m
ĠN et
H el
æīĭ æľº
æĥ³ åĪ°
Ġits elf
) \
ï¼Į åĨį
che n
ĠĠĠĠĠĠĠĠ ĠĠĠĠĠĠ
. app
ĠS oc
Ġprot ect
Ġa verage
Ġpub lished
( i
Ġmod els
æĸ¹ æ¡Ī
Ġsa ve
Ġbr and
åıĤ åĬł
Î ±
m et
Ġro ad
ä¼ļ è®®
Ġ( $
åĳĬ è¯ī
Ġm ention
æĮ ĳ
Ġcurrent ly
P C
æĹ ģ
éĽ ¶
ä¿Ŀ æĮģ
am a
Ġany one
æ¨¡ å¼ı
Ġrecomm end
å· Ŀ
Ġmarket ing
çĪ ¸
Ġpat tern
Ã ¡
æīį èĥ½
è¿ĩ æĿ¥
å³ °
é£İ éĻ©
æĻº èĥ½
Ġcon duct
d f
u ate
ĠP M
Ġd ru
Ġw all
Ġr out
li ke
b it
Ġsu bs
a res
_s ize
U M
åİ ħ
èĥ ¡
le ased
åŃ Ļ
Ġspe ed
Ġup date
Ġch oice
éĵ¶ è¡Į
if ier
ph p
( this
Ġwond er
Ġcent er
ç§ ¦
ur g
å¯ Ĵ
éĽ ħ
ï¼Į éĥ½
Ġins urance
èµĦ éĩĳ
z on
ĠCour t
çĶµ åŃĲ
åĪĨ éĴŁ
Ġcom ments
Ġide as
p ublic
Th at
as ons
I B
Ġactiv ities
âĢĻ d
ell ow
Ġatt ack
epend ent
æł· çļĦ
uild er
ĠM on
Ġopport unity
_ i
åĩ ¡
el se
æ±½ è½¦
ç ¦ģ
éº »
re et
es e
Ġinf lu
åģ ı
æĬ ±
è¿ ·
in put
ap i
Ġs il
ip ment
ï¼Į å®ĥ
z z
opy right
A Y
ĠJ ava
è· ³
è¾¾ åĪ°
å® ľ
Ġdiffere nce
ä¹ĭ ä¸Ģ
Ġex ecut
Ġres ources
ä¸ĭ çļĦ
æĤ£ èĢħ
æ¯ «
Ġreport ed
à ¸
çĪ Ĩ
- n
Ġs n
ĠP ark
T H
èĪ ŀ
é ¬
è® ¨
ri ef
æ°´ å¹³
ä¿ ĥ
ĠCent er
Ġw rong
Ġp ric
å° ¤
am ples
èĪ ¹
Ġfact ors
ef ore
Ġtri al
ä¼ ¸
ĠP at
Ġman ufact
om s
ĠE l
æĪĳä»¬ çļĦ
// /
M od
pt r
. x
çĽ Ł
æģ Ĳ
ĠH igh
Ġde cl
Ġon es
ç»ı è¿ĩ
R ep
s ize
æ¯Ķ èµĽ
/ d
ar ies
åª Ĵ
iz er
åº Ĩ
Ġdirect ly
Ġg ra
Ġthrough out
Pro perty
çĸ ¾
Ġbook s
em plate
Ġsa w
æľī ä¸Ģ
ers hip
at ives
Ġread y
å¿ĥ éĩĮ
åħĪ çĶŁ
port s
Ġsk in
ĠB ar
ir it
os ing
ç ĺ
Ġhtt p
m itted
- C
å°± ä¼ļ
èĳ £
Ġk ids
~ ~
E O
s k
æĶ¶ åħ¥
Ġhapp y
ed eral
ir th
ĠD ay
act ive
Ġreg ion
g ment
al ing
éĢł æĪĲ
Ġv iol
åĬ ª
al pha
ä½ľ åĵģ
b or
" .
Ġleg al
çľ¼ çĿĽ
u y
w ith
åħ³ æ³¨
b ody
i us
æĢ§ çļĦ
ä¿Ŀ è¯ģ
ĠWh ile
ĠS k
å¼ ±
åĶ ¿
def ault
å® ĩ
Ġeas ily
èīº æľ¯
è¯ º
æī ¬
Ġs ales
m ore
ĠV al
h a
C all
i j
Ġlook s
Ġinvol ved
è¾ Ĩ
' d
Ġatt empt
ç´ ¯
Ġnum bers
. is
Ġc and
so ft
ve y
: "
Ġl ives
å±ŀ äºİ
ä» ª
ill ing
a ctions
åĲ ´
E lement
Ġ å¹´
Ġt im
ä¼ ´
åĪĨ åĪ«
Ġim med
lic ation
ç Ĵ
æ ¾
éĵ ¾
Ġam az
Ġqu ant
ä» Ļ
ĠIn ter
å² Ľ
å¦ ¹
cre t
ĠS ervice
Ġhe av
, ä¸į
Ġcom fort
Ġthem selves
Ġex cept
æľī äºº
Ġc am
d om
Ġs low
resp ond
Ġ row
ï¼Į ä½¿
ĠM r
Ġg raph
m as
Ġass ess
g or
ar ter
Ġbu ilt
Ġfunction s
ç½ ª
Ġd im
æĿ ¯
éĺ »
è® ¿
h am
AR T
../ ../
Ġst ri
è´ ´
P R
éĩĳ èŀį
Ġplay ers
Ġfun d
è¿Ľ ä¸ĢæŃ¥
éľ ĩ
ĠL aw
Ġsur face
rid ge
pro t
æı ı
Ġg ives
Ġm ix
Ġe lements
åĲ ī
Ġs ort
Ġcol lect
ä»» åĬ¡
, \
U t
Ġbenef its
Ġt ask
pon ent
Ġpre c
çĿ £
Ġw ar
( int
Ġd riv
ac ity
is ions
Ġcou ple
a ign
er ies
Ġphys ical
ĠCount y
ãĢĤ å¦Ĥæŀľ
p ath
l ation
ð Ł
èī² çļĦ
å¤ļ å°ĳ
Ġent er
Ġs us
ir ing
Ġpart s
ĠA M
éķ ľ
Ġdig ital
Ġb ank
åĨ Į
ĠI D
ĠF irst
Ġcomm it
ot o
Ġpro te
Ġs ell
Ġre lease
çĽ Ľ
ly ing
æĳ Ħ
Ġcomp ared
Ġtool s
Ġch o
in ition
åŃ¦ éĻ¢
Ġh or
Ġquick ly
éĽ Ħ
ĠCl ass
pos ition
ç»ĵ åĲĪ
ä»¥ åĲİ
åįģ åĪĨ
çĤ İ
le ar
åĬĽ éĩı
çº ·
çĥ §
ï¼Į æľ¬
Ġunderstand ing
ĠC ON
å¢ Ļ
ĠA re
ĠAmeric a
Ġ ;
( a
Ġr ound
Ġl atest
- up
el ta
e q
B C
it ch
Ġrem ember
ere nces
åĽ½ åĨħ
å¼Ģ å±ķ
Ġj ava
Ġrec ently
ç»¼ åĲĪ
è° ĵ
çļĦ æĥħåĨµ
_ W
T ER
r ast
æĲ Ń
ĠD av
äº Ī
ç¦» å¼Ģ
n y
éģ Ĺ
çļĦ äºĭ
Ġpl ant
ec ause
Ġst ream
æķĻ åŃ¦
amb da
Ġdri ve
ab y
å¿ į
Ġm other
Ġgo al
ĠS ch
Ġpro ced
Ġb ound
in ate
å¹ ķ
Ġar ch
å»º è®®
Ġdem on
å°ı æĹ¶
Ġme chan
Ġsit es
ĠW est
Ġcon cept
Res ponse
çº ¯
u int
Ġstre ng
Ġincre ased
ul a
Ġcost s
éĺ ħ
m t
çĽ¸ ä¿¡
u el
Ġcomput er
Ġprogram s
å® ½
Ġl ate
-y ear
å¾ Ħ
ens es
éĹ Ń
se mb
Ġs ong
* /
Ġsaf e
æł¹ æľ¬
Ġext rem
ang er
ä¼ł ç»Ł
Ġqu e
m ax
er ial
est s
en ge
St ream
ç§ Ł
ug in
Ġst ock
im age
ä¼¼ ä¹İ
Ġc ool
æĪĲ æľ¬
Ġu int
Ġl ines
Ġl ost
ul ations
Ġst ra
è¿ĩç¨ĭ ä¸Ń
å¹¶ ä¸į
P oint
æ£Ģ æµĭ
åħ¨ éĥ¨
ĠH ouse
Ġcol lection
du c
Ġmach ine
Ġm icro
/ or
Ġser ver
å¡ Ķ
it able
Ġsub st
Ġcomm and
ç¨ĭ åºı
ĠA c
Ġbas ic
n es
ot al
æ³ķ å¾ĭ
é¡ µ
Ġre li
s g
Com m
I O
æ¡ ¥
æµ ª
S ystem
Ġc ert
ograph y
æ£Ģ æŁ¥
çī¹ å¾ģ
åıĹ åĪ°
- M
U P
ç§ ģ
å¸ Ń
å®ŀæĸ½ ä¾ĭ
Ġindividual s
........ ........
ĠCh ar
co ver
æļ ĸ
Ġ util
ï¼Į åį³
åĬŀ æ³ķ
ï¼Į çľĭ
ic a
Ġgo es
ç¼ ĺ
Ġoffic ial
ex p
Ġ ä¸Ģ
Ġatt ention
G ener
äº¤ éĢļ
æľī çļĦ
Ġun it
Ġnot e
äº ¦
ĠB ro
Ġuse ful
Ġ è¿Ļ
å¹ ħ
æ± ĩ
cont ent
____ ____
ar ily
form at
ĠD irect
å»º ç«ĭ
gor ith
Ġs y
ĠB usiness
èĩª åĬ¨
çª Ĺ
n s
Ġg e
Ġn ice
Ġplay ing
as c
ĠS ub
Ġexp ression
åİ» äºĨ
/ c
Ġmy self
Ġse x
Ġn ature
å¿ ĺ
åĬª åĬĽ
Ġlead ing
Ġact ive
Ġstud ent
åŃĲ çļĦ
Ġprot ected
ĠR E
æĶ¿ çŃĸ
r ate
Ġin sp
act ory
ĠBl ack
Ġwom an
ï¼Į æĹł
æĪĲ äºĨ
Ġform at
Ġconst ant
ĠM arket
. Get
å¥³ äºº
eb ug
å£ ģ
Ġwork ed
st d
Ġqu al
ãĢ į
tr ue
O DE
æ± ¡
v est
èĤ¡ ä»½
Ġre place
ĠF acebook
S P
Ġch arg
æ¶ ī
æļ ´
Ġinterest ing
ru pt
i i
() )
æĹ¶ ä»£
å¿ ½
Ġy es
ï¼Į æľĢ
h aps
} (
Ġn ational
Ġs al
ĠS ervices
d b
æ´ ĭ
S C
ell ent
Ġm ode
Ġpur pose
é¬ ¼
Ġfact or
] )
èĤ¯ å®ļ
ĠRev iew
/ m
le vel
æķ Į
Ġf re
Ġdise ase
ĠM anag
å¡ ŀ
Ġs olutions
Ġproject s
åĪĽ æĸ°
èĢ Ĳ
an cy
ĠSu pp
Ġnot ice
Ġsat isf
ĠR em
æĬ ½
ĠEng lish
çľŁ æŃ£
Ġsit uation
Ġproper ties
Ġvar iety
éĢŁ åº¦
el ine
r is
St art
è¯ ¸
å·¦ åı³
St atus
Ġmaterial s
ol es
æľª æĿ¥
Ġplay er
Ġcount ries
Ġcl in
her n
Ġflo at
Ġcontin u
i ance
it ute
ä¼ Ĭ
ff ect
æĦı æĢĿ
S cript
Ġal tern
çĬ ¯
( new
Ġaff ect
ç¯ ĩ
pect ed
im ately
çĲĨ è§£
ĠF ound
Ġim ages
id get
é¸ ¡
ĠTe chn
eg er
Ġcl ients
å° Ĭ
Ġha ir
Ġacc ur
æĻ® éĢļ
çĶµ å½±
ash ing
ram ework
æĹ¥ æľ¬
å± Ĭ
Ġpr inc
r ated
ç±» åŀĭ
Ġhel ps
om en
Tr ue
Ġcon nection
_ v
æ£ ®
D ate
Ġim pl
ĠM us
Ġcol umn
o om
æľº åĻ¨
Ġan im
Ġb all
ou b
Ġhe ight
lev ant
ag ue
i ber
çļĦ äºĭæĥħ
Ġpress ure
èĢĥ èĻĳ
Ġm ag
Ġad minist
od ing
å® ĭ
ad es
åıį åºĶ
L ine
act ers
Ġc atch
è¶Ĭ æĿ¥
èº« ä¸Ĭ
Ġst ress
T T
N ow
Ġhand s
id ing
ĠH ome
yp es
Ġmem ory
è¯ ļ
U s
è® ¢
) *
ri al
Ġenc our
Ġb us
æĮ Ĥ
è°ĥ æķ´
Ġstate ment
Ġto wards
Ġsom et
Ġto wn
ç»ı éªĮ
F l
Ġre ve
èĪ Ĵ
Ġlim ited
Ġw idth
Ġs un
åħ Ħ
çĮ ®
æ¯Ķ å¦Ĥ
Ġabs olut
Ġre v
è¶ĬæĿ¥ è¶Ĭ
A cc
æĮģ ç»Ń
ç§¯ æŀģ
o oth
ev ent
math cal
ĠPres ident
Ex p
æī ©
l ib
Y PE
osp ital
è¶ħ è¿ĩ
æŃ£ å¸¸
çĽ® çļĦ
Ġappro pri
Ġcomplet ely
Ġthink ing
se ction
A ct
ãĢĤ ä½Ĩ
è¯ ¦
P O
. r
Ġch ance
éĶ ģ
ff er
OR T
$ {
åĮº åŁŁ
éĥ½ ä¸į
Ġdemon str
Ġcons um
Ġser ious
Post ed
a a
it ude
Ġm is
\ end
ĠL og
ç³ ĸ
A fter
Ġsaf ety
Ġw ide
Ġdo or
S ource
ot es
Ġhigh ly
Ġk it
, ä¹Ł
Ġdep end
ĠU se
ar row
Ã Ĳ
æķħ äºĭ
am ily
åħ³ éĶ®
g n
åĶ ¯
ro s
Ġparent s
Ġget s
C D
id a
r l
ĠN e
he t
ï¼Į å°ı
æ° §
å· §
ĠS T
Ġm ess
Ġey es
å¾ Ĳ
æ´ ģ
pack age
old er
æĳ Ĩ
t op
Ġfor mer
Ġhe ar
âĢĿ ãĢĤ
Ġf air
ol ar
æİ¥ åıĹ
b ut
} )
ĠAf ric
ĠAss oci
èĥ ¶
d es
æ° ı
Ġocc ur
ĠL a
Ġstart ing
å¼ ĥ
å¢ŀ éķ¿
Ġorgan ization
ag ram
Ġdevelop ed
al ed
éĹ ª
ib ly
ĠB ook
ĠH ar
ish ing
G roup
ĠPro gram
P er
rap y
Ġr at
è® ¯
rou ght
Ġl ack
Ġent ry
ĠG roup
è¾ ĳ
Ġd aily
æŁ Ķ
Ġmor ning
ï¼Į æĽ´
Ġr andom
Ġd ark
Ġl iter
op en
Ġmod ern
Ġintern ational
g est
Ġcor respond
att le
Ġdef end
os is
Ab out
Ġresp ond
Ġprovid ing
Ġex erc
éĩĮ éĿ¢
èģĶ ç³»
sy ch
é© ¾
è¯ Ĭ
Ġhand le
å¦ ĩ
Ġs leep
éĥ½ æľī
æĺİ æĺ¾
åĩ Į
_ set
ial og
æ¶ ¨
å¯¹ æĸ¹
é¢Ĩ å¯¼
ĠU K
Ġ vers
Ġfor ce
Ġcare er
rit er
Ġbas is
ï¼Įä¸į è¿ĩ
_ pro
ĠW ar
for ce
) {
Ġl en
lo cal
Ġloc ated
Ġgreat er
Ġg reen
p re
ĠT V
Ġsee k
b on
å¤ ®
çĶŁ åĳ½
ä»¥ ä¸º
æ¶Ī æģ¯
init ely
F A
æ¸ħ æ¥ļ
éĢ Ķ
åİĭ åĬĽ
Ġbec ame
/ b
row n
å± ı
it ation
ĠO ver
Ġtrans fer
Ġb ud
f low
rid ay
l a
In put
åº Ħ
Ġres ource
Ġass ist
ĠAust ral
} ^
s um
å¸¦ çĿĢ
ĠD et
Ġc ele
åıĳ è¡Į
å®¶ åºŃ
Ġpurch ase
ĠM at
è ª
æİ ª
Ġdeterm ine
t able
Ġcont ains
ith ub
con text
n et
ars er
Ġl abel
Ġhtt ps
ç¥ ĸ
he st
ç´ «
A V
ĠR uss
Ġpro gress
Ġt ouch
Ġl if
ç¨³ å®ļ
Ġmult i
Ġc apt
Ġf elt
ous ly
è´ Ŀ
D F
Ġin fo
Ġintern al
æľŁ éĹ´
éģ į
Ġdescrib ed
Ġspe ak
Ġrequire ments
S he
R el
ob j
Ġpre m
IT Y
Ġac qu
Ġach ieve
i ant
æ§ ½
st ract
ar a
Ġpolit ical
C P
Ġbro ad
æĶ¹ åıĺ
ES S
Ġt en
ĠInd ia
Ġdec ided
çļĦ å¿ĥ
å¥½ äºĨ
Ġdistribut ion
Ġre ach
if orn
è¿ Ŀ
O UT
ĠW ork
Ġmeet ing
wo od
Ġag ree
> (
ä¾ĭ å¦Ĥ
Ġexact ly
Ġrem ove
end if
Ġincre asing
? "
Ġte ac
æ¢ ģ
Ġe arn
ĠH el
Ġpat ient
ĠB est
ç½ĳ ç«Ļ
ĠChe ck
ĠH er
_ DE
å·¥ ä¸ļ
Ġt our
p ite
Ġm obile
Ġapplic ations
u id
èĲ §
b and
Ġin form
ĠB rit
ter m
H ead
åĩı å°ĳ
Ġpl ans
ic ks
Ġamaz ing
ĠA ir
Ġbe gan
idd en
ron ic
åı¦ å¤ĸ
ĠM ich
åıĤ ä¸İ
ĠP lease
F T
åĨ ¬
S D
ens ity
æĺİ çĻ½
Ġsur pr
clus ion
: (
ap an
ä½ľ èĢħ
çľĭ çľĭ
Ġst ru
Ġg ave
åĩ Ŀ
Ġs ample
Ġredu ce
ĠWe b
çļĦ éĹ®é¢ĺ
Ġadv ant
k nown
l s
äºİ æĺ¯
Ġwas n
Ġar r
Ġg as
èĴ Ļ
un ities
as ks
æĴ ĳ
Ġfield s
_ E
åıĳ å¸ĥ
ç£ ¨
AM E
ä¸Ģä¸ª äºº
/ p
ĠT ime
Ġro ll
ab s
ĠG erm
Ġset ting
Ġass um
icro soft
requ est
Ġp ull
çľ ī
le ctions
Ġact ual
C lient
ĠS w
ä¸ ģ
Equ al
çļĦ æĹ¶éĹ´
ed ia
ang ed
e ch
Q L
Ġs em
é ŀ
. ex
ĠIntern ational
éĥ½ ä¼ļ
åĿ Ģ
at ively
Ġm id
æĦı è¯Ĩ
Ġmean ing
èĨ ľ
åıª èĥ½
out put
éĩį çĤ¹
Ġdeg ree
ĠĠĠĠĠĠĠĠĠĠĠĠĠĠĠĠ Ġ
\ "
ur t
æŃ¤ æĹ¶
B lock
am s
i os
in ner
Ġen h
Ġn av
Ġest im
Ġf a
pec ial
Ġcreat ing
å¢ ¨
ĠS an
- S
ä»ĸä»¬ çļĦ
æĪ ª
ĠT ype
ĠA ng
Ġsomet imes
Ġsuccess ful
Ġh y
O ff
c her
iforn ia
cl ient
æĹ ĭ
Ġparam eters
Ġro ot
x x
ä¸ ¹
Ġ ir
Ġful ly
ç³» åĪĹ
Ġkn ew
Ġident ify
ĠIn s
Che ck
å½ĵ æĹ¶
Ġf ight
Ġallow ed
But ton
N umber
Ġne igh
ï¼Į çİ°åľ¨
ĠA ut
ĠCh ina
ĠR ef
Ġthere fore
AT ION
æĺ¯ ä¸į
en ame
Ġchar ge
B A
æĩ Ĥ
ar ant
U I
çı ł
æĸ° åŀĭ
ER S
\ begin
ond on
æĭ Ł
Ġr ates
Ġst age
D o
Ġprim ary
ĠAl so
çİ° ä»£
o pping
Ġg iving
Ġm agn
åĿļ æĮģ
d ev
Ġexper t
Ġw ood
//////// ////////
ul ated
äº ¡
çİ° åľº
c il
ent y
Ġst orage
çĶ· äºº
B ox
Ġfavor ite
ï¼Į å°±æĺ¯
Ġsay ing
Ġa ware
Ġem erg
a el
æ¢ ħ
Ġr ules
Ġ( )
] {
Ġm ut
çĸ« æĥħ
ä¼ ¦
math bb
Ġf resh
i very
ER R
ĠSt e
AL L
ï¼ĮéĤ£ ä¹Ī
æ¼ «
è·Ŀ ç¦»
enc ies
äºĮ åįģ
Ġd ed
Ġref erence
ĠO ther
æ¹ ¿
Ġtri ed
K E
åº Ł
Ġcan cer
é© ±
Ã Ĺ
è ¹
Ġt al
äºĨ ä¸Ģä¸ª
Ġcamp aign
åĪ« äºº
Ġsum mer
Ġpop ulation
è ļ
S earch
iz ations
åĨħ éĥ¨
éĩı çļĦ
ir us
Ġp et
Ġstep s
çĦ¶ èĢĮ
Ġaut o
ĠC oun
ep s
Ġstrateg y
ï¼Įåħ¶ ä¸Ń
ç§» åĬ¨
ĠDep artment
ol or
Ġst uff
Ġchang ed
Ġhe ard
ĠC opyright
Ġs ale
l or
ĠK ing
æĢ Ĵ
Ġnum er
ust er
å®ŀ çĶ¨
ot ion
Ġde ad
çģ Ń
é² ģ
_t o
åĬ ±
çĭ Ĥ
Ġf ix
Ġs pect
Ġ ä»ĸ
E nd
Ġequ ipment
Ġanal y
Ġl ed
åıĳ æĺİ
æĻ ĵ
set s
Ġconst ruct
æı Ĵ
Ġw ish
I Z
ig ma
app ing
Ġp le
è½¯ ä»¶
Ġp ark
am ma
Ġop in
, è¿Ļ
au ght
in ated
æ¨ ª
Ġm ount
ĠDe velop
Â °
â Ī
. util
ĠP re
ä¸į ä»ħ
ï¼Į åĲĮæĹ¶
ĠAN D
P T
Ġdistribut ed
ï¼Į ä¾¿
Ġpart ners
åıĬ æĹ¶
Ã Ń
çĩ ĥ
Ġt ree
Ġl ock
Ġemploy ees
s qrt
éĿ¢ å¯¹
âĢĿ ,
çļĦ åľ°æĸ¹
Ġrequ ires
il er
æĹħ æ¸¸
éĢ Ĵ
ĠO pen
åıĸ å¾Ĺ
æŀ ª
Ġsc ale
çŃĶ æ¡Ī
Ġpred ict
æ³ °
Ġpie ce
æĺ¯ä¸Ģ ç§į
ä½į äºİ
g a
Ġpl aces
ro te
Y our
åĩº åİ»
å½ »
ĠM od
ĠD ist
ro y
ad o
å° ĺ
Ġcult ure
H ere
Ġde cre
Ġa im
æĿ °
r an
# if
çĤ ¼
. )
ri ver
æĽ ¿
éĿ¢ ç§¯
Ġas pect
Ġhim self
Ġcar ry
P art
ä¸į å°ĳ
_l ist
Ġ[ ]
èµĦ æĸĻ
æĥ ¯
Ġinvest ig
Ġoper ation
ra z
Ġcon v
own load
ĠA tt
arg in
p c
å¿« éĢŁ
AB LE
çĶµ è§Ĩ
Ġche m
Ġh our
é¼ ĵ
Ġse lected
çĥ ¦
Ġd oc
ens ions
Ġtemper ature
. N
ä¼ ¯
Ġa f
Ġf ine
Ġinter face
Ġreg ist
Î ¿
åĩł ä¹İ
ĠPol icy
g l
ï¼Į æĬĬ
s m
åĩº çīĪ
ĠE very
.l ength
ms g
_ re
éģ¿ åħį
ä¸ī ä¸ª
èĤ ¥
ï¼Į çĶ¨
du le
- B
f ord
, å¹¶
åĪ ·
Ġg old
é¦ĸ åħĪ
Ġinter view
qu ery
ä¹ĭ ä¸Ń
ç»Ī äºİ
Ġref er
èĻ İ
Ġs on
è¢ ĭ
Ð° Ð
Ġre levant
g ar
æľī çĤ¹
Ġre pl
å½¢ å¼ı
Ġb and
ä¸įåĲĮ çļĦ
Ġro ck
ä¸į éĶĻ
r im
so le
ĠG o
Ġmov ing
Ġexist ing
Ġre pe
ä¸į å¥½
ãĢĭ ï¼Į
Ġh uge
è± Ĩ
ri ve
Ġad just
Ġb ottom
Ġbehav ior
el come
ï¼Į æ²¡æľī
Ġj o
æī¾ åĪ°
è¯´ çļĦ
ard en
ens or
ic ip
ĠK e
i as
ä¸° å¯Į
I LE
åĮ» çĸĹ
Ġth us
ma zon
å§Ķ åĳĺ
å¹´ è½»
Ġcertain ly
æĺ¯ ä»Ģä¹Ī
Ġs witch
Ġover all
h ost
è®° èĢħ
æĽ °
Ġtrans form
Ġd irection
or ge
æĬ µ
å®¶ çļĦ
M ethod
æ¬ ²
ty p
çĭ Ĺ
Ġparticular ly
Ġhe at
ä¸¤ äºº
è¿ ¹
od ay
Ġs old
ffic ient
ĠD ec
åĪ¶ éĢł
ä¸Ĭ äºĨ
P re
Ġeconom ic
Over ride
åı¦ ä¸Ģ
ĠR eturn
ress ed
ĠS ince
åľ¨ äºİ
i ately
Ġarg ument
ĠM ost
éĺ¶ æ®µ
( r
Ġfin ally
Ġno vel
ynam ic
ä¿¡ åı·
il ies
it ect
Ġopt im
Ġchar acters
Ġt er
c p
Ġcomp ar
Ġdist ance
èº« è¾¹
-t ime
Ġpa id
Ex t
åħ± åĲĮ
x t
Ġ ~
Ġhealth y
Ġs ession
ĠManag ement
ri p
æµ ĵ
è¿ Ķ
åŁ¹ è®Ń
åĭ ĩ
éĢ ĥ
Ġexc ellent
ol y
æ»¡ è¶³
Ġad ult
ï¼Įå¹¶ ä¸Ķ
C A
In st
Ġf ather
åĶ ±
ä»Ĭ å¹´
Ġim ag
ay ers
ames pace
èĦ ī
æķĻ å¸Ī
al d
åĲ¬ åĪ°
ateg ories
Ġp ages
Ġdem and
çļĦ é«ĺ
Ġinterest ed
Ġlook ed
Ġal one
ï¼Į ä¸İ
Cont act
è° ·
Ġregard ing
æķ ı
A X
çº ¹
ĠF e
åĪ¶ åº¦
åĪ¶ ä½ľ
è®¤ è¯Ĩ
æ´ ŀ
ĠO bject
# endif
å¦Ī å¦Ī
ĠAn y
-t ype
Ġappropri ate
åĲĪ åĲĮ
te e
å° ¾
Cont ent
C S
Ġbl ue
åĬł åħ¥
( l
( [
ä¸» ä¹ī
( const
å§ ĵ
ĠR el
Ġappro x
Ã ³
Ġintern et
Ġpre f
èģĮ ä¸ļ
ed ding
B ase
opt ions
Ġplan ning
s l
ä¸Ĭ è¿°
Ġin nov
Ġfr ame
ribut es
Ġturn ed
id ents
ĠT witter
èĤ¡ ä¸ľ
åªĴ ä½ĵ
Ġshow ed
éķ¿ æľŁ
æ¡ £
åĲĮ åŃ¦
ru it
o ch
åı ¬
Ġre asons
Ġother wise
in st
Ġf irm
D R
ĠRes earch
æ® ĭ
c ount
u it
anc ing
Ġwho se
è´¹ çĶ¨
Ġmov ie
æ¸© åº¦
Ġfil ter
ĠE v
iqu es
- pro
Ġad vert
ä» ¿
æĥ ł
å¿ Ĩ
ĠT op
Ġst ar
äº¿ åħĥ
ild ren
Ġr ule
Ġst ories
é© ¶
ä¼ĺ åĬ¿
Ġsur v
pect ive
Ġbe y
Ġperform ed
ĉĉĉĉ ĉĉ
ren ch
ä¼ļ æľī
è¡ ¡
v ille
Ġtrad itional
å¿ĥ çļĦ
ĠSo ftware
Ġv ict
Ġmay be
il ing
m ar
ãĢĤ "
Ġc ategory
M ay
æµĭ è¯ķ
çĶŁ çī©
Ġbey ond
Ġpol ice
è¯´ è¯Ŀ
ĠL oc
M ore
Ġconst ruction
åĪ° åºķ
c el
ä¸¥ éĩį
, ä¸Ģ
m u
In stance
i pping
åĬŀ åħ¬
Ġa x
Ġbegin ning
k a
å¤ļ ä¸ª
Hand ler
ĠJ es
A ction
m ark
Ġpre fer
è§Ĩ é¢ĳ
Ġcon cent
ear n
ï¼Įè¿Ļ ä¸ª
b um
Ġdev ices
ul ate
ar se
æ² Ī
Ġb rought
ä¿Ŀ éĻ©
æ¯ı ä¸ª
Ġs av
Ġf em
Î ¹
Ġcons ent
çľŁ æĺ¯
Qu ery
Ġre leased
ag on
èħ ¿
.app end
Ġcand id
Ġd ream
å®ŀ åĬĽ
ĠD em
åĬł å¼º
C lick
_ get
ic o
iv il
Ġex pos
éĢĤ åĲĪ
l am
N ext
æķ ¬
å¥ ĭ
é«ĺ çļĦ
ä¿Ŀ éļľ
åħ¨ çĲĥ
Ġdel iver
ĠV iew
ä¹ ĺ
ur d
èį Ĳ
å¤ļ çļĦ
c m
æī «
Ġdef initely
Ġdo g
Ġdam age
åıª è¦ģ
I ST
ER T
æ² ¿
å·¥ åħ·
ĠP ort
B ack
è¡Į åĬ¨
ĠS en
Ġtrans port
st art
Ġbel ie
ä¹Ł æľī
ĠCal ifornia
ĠN OT
ç¨ĭ åº¦
ol ic
"> <
éŃ Ĥ
Ġgu ide
Ġb oolean
Ġtra in
Ġm er
èĩ £
ord s
ç«Ł çĦ¶
D A
ear s
erv ation
ĠDes ign
en ed
Ġplay ed
ĠD el
Ġcrit ical
Ġgo als
Ġsh ape
Ġinvest ment
ĠSt reet
Ġpresent ed
Ġb irth
èŀ º
ç»ĵ æĿŁ
c ial
Ġcommun ication
oun ced
çŁ ¿
Ġal though
å¹ ¼
ist ory
ric s
Ġbenef it
Ġv irtual
Ġd ro
Ġadv ice
Ġneg ative
Ġ ign
Ġveh icle
ĠE ven
Ġp ow
æ¯ķ ç«Ł
æ¢ °
atic ally
æ® Ĭ
, å°±
Ġfeel ing
å¡ ĳ
Ġlarg er
ç¢ İ
ĠComp any
å°¤ åħ¶
_p ath
ĠPro f
çĤ¹ å¤´
ä¸ĭ åİ»
åĢ į
è§Ħ åĪĴ
Ġimport ance
ool s
ra ction
es h
Ġbut ton
äºº ç±»
ĠA p
æ¡ Į
æĳ ¸
oo st
ac ing
æĿ¥ èĩª
æĢĿ æĥ³
Ġfail ed
il ed
Ġpict ure
è¿ ª
Ġtri p
Ġsc ience
éŁ³ ä¹Ĳ
w idth
Ġan g
éĹ ²
- F
T oken
## #
w orks
å¿ĥ ä¸Ń
èĳ£ äºĭ
us ion
ĠI d
åıĤ èĢĥ
æ¶ Ĥ
çĽ¸ å¯¹
éĿ¢ åīį
Ġ= ==
G L
ot hes
T op
por ate
æĸĩ ç«ł
} _
è¡¨ éĿ¢
Ġequ al
n cy
, æĺ¯
ĠS im
AN D
Ġset s
æľ ±
Ġgrow ing
ä¹ĭéĹ´ çļĦ
ic ate
P A
Ġsp end
åıĺ å¾Ĺ
æ· »
in y
und red
. sh
æĹ Ĺ
Ġpost s
ï¼Į åĽłæŃ¤
E C
O K
Ġ* )
å¥½ åĥı
Ġimmed iately
Ġstra ight
å¯¹ è±¡
G B
Ġapp lied
ond ay
Sh are
ä¸į äºĨ
ast e
Ġfollow s
O ptions
è¿Ĳ è¡Į
ç» ª
af e
Ġg ain
ĠJ apan
d ir
ç»ı å¸¸
ash ion
olog ies
ä¸į ä½ı
Ġcons ult
ï½ ŀ
Ġfind ing
Ġn amed
èĩ³ å°ĳ
ou l
- r
åŃĺ åĤ¨
ĠM em
Ġthe ory
ç¬¦ åĲĪ
V is
ãĢģ ãĢĬ
_f ile
æĮ ¯
ĠPl an
æ³ ½
Ġsh ared
ra int
Ġw arm
æ³ ¡
Ġstreng th
i ency
M e
æĤ ī
äº¤ æµģ
ign ment
ĠIn formation
èµ ŀ
F irst
Ġhist or
Ġobtain ed
æŃ£ ç¡®
Ġm iddle
çĳ ŀ
æ± ¤
ow s
Ġ\ [
æ¹ ¾
ilit ary
Ġ< -
ĠW ell
ĠL ondon
æĳ ©
IN T
B uffer
Ġv s
Ġfollow ed
ĠE duc
Ġprodu ce
U B
ol f
ï¼Į åĪĻ
ï¼Į è¿ĺæľī
Ġsu st
æĺ ł
åĽ¢ éĺŁ
Ġgr ant
æĿĥ åĪ©
Ġreturn s
Ġsc ient
N et
Ġgener ally
s es
Ġpric es
st ream
Ġbusiness es
our ney
Ġtr ade
æŁ ±
ĠG over
Ġn p
è®Ń ç»ĥ
Ġd ry
Ġcomm erc
Ġeff ort
- A
ĠFound ation
al y
C an
ĠT H
ãĢĤ ä½Ĩæĺ¯
ĠF orm
ate ver
con s
Ġd oub
Ã ¶
è¯Ń è¨Ģ
Ġflo or
ĠG reen
Ġth ous
as ure
a e
çĦ ¦
Ġth reat
Ġsc ore
Ġb order
Ġapp rec
Ø §
ĠF riday
Ġc ash
å®ī æİĴ
as y
ç» ķ
è ¦
Ġpass ed
D B
Ġdi agn
augh ter
es tern
Ġu lt
åĨħ çļĦ
ĠB oard
ä¸ĵ å®¶
on ly
ä½ĵ çļĦ
ä½ĵ éªĮ
Ġmax imum
ä½ĵ ç³»
æĸ¹ ä¾¿
çŀ ¬
Ġpack age
¹ ģ
Ġcon vers
ĠCol lege
è´Ń ä¹°
Ġorig in
åĲİ æĿ¥
åħ¨ éĿ¢
a per
èĲ ¨
ic ated
å¦ »
Ġe at
Ġsol id
Ġopport unities
he nt
Ġear lier
Ġmat rix
Ġal gorith
æµ ®
ç»Ŀ å¯¹
Ġparam eter
Ġc ru
Ġchalleng es
çļĦ æīĭ
ind er
Ġ> =
M L
Ġhig hest
ad ata
Ġro t
ve re
() ;
M at
O C
ĠM or
The y
- \
æ³ Ľ
( g
èĦ Ĥ
èĥ ŀ
Ġj oin
ä» ģ
} ^{
æĻ ¶
ĠG reat
æ² Ł
éĥ ĳ
Ġh ous
om b
ĠPro ject
è· Į
è®© äºº
éª ĳ
åĳ Ī
atur day
Ġgu id
} .
Ġse lection
E mail
èº« ä»½
æīĵ å¼Ģ
éª ¤
ĠB en
ĠCan ada
Ġwant s
C al
Ġbrow ser
Ġexp and
semb ly
con nect
Ġcol lege
çĲĨ è®º
v ider
Ġfe et
æĶ¿ æ²»
ä¼ Ł
we b
B uilder
Ġcap ital
Ġm ill
Ġreview s
Ġt ick
èĢĥ è¯ķ
ĠTh anks
éĶ ħ
y ing
Ġ ut
Ġ ::
Ġar riv
Ġsupp ly
in n
( v
Ġf igure
% ,
æĪ ´
åĩ ī
Ġant i
æł· åŃĲ
######## ########
AR R
z a
Ġl ab
Ġsp ent
åĽŀ çŃĶ
ct x
è¾ ħ
Ġsm art
Ġobs erved
Ġa ctions
L ast
r ont
çĶŁ çļĦ
M ode
Ġphot os
Ġw rote
èģ Ĭ
Ġsu ff
ĠE X
AG E
ĠâĢ ¢
Ġc at
oc r
Ġtest ing
ĠC ook
ific ate
ĠA nt
D S
çĪ¶ æ¯į
am ing
ĠG ood
Ġreport s
Ġre nt
æļ Ĥ
Ġc ore
E E
ĠĠĠĠĠĠĠĠĠĠĠĠĠĠĠĠ ĠĠĠĠĠĠĠĠĠĠĠĠĠĠĠ
Ġra ise
Ġ( -
Ġsp irit
æĦı ä¹ī
IT H
ĠJ ack
. to
åºĶ çļĦ
èĪ į
ĠDav id
Ġsequ ence
P lease
aint iff
j son
æģ ¢
Ġmod ule
Ġind ependent
M P
ĠC are
èµ ı
co pe
Ġn ut
h o
Ġdes cription
ä»¥ æĿ¥
Ġmot ion
ĠW indows
ĠChrist mas
çļ® èĤ¤
Ġex ception
Ġtre nd
Ġey e
ĠF ile
ov ing
éĴĪ å¯¹
Ġrest aur
i ers
ot ed
æĮ º
he ight
Ġeas ier
Ġd ie
Ġtr uth
in ct
Ġ vert
P age
Ġb rain
Ġf at
Ġcompon ents
ĠWh ite
åı¥ è¯Ŀ
hen s
éĻį ä½İ
, ä»ĸ
Ch ar
or row
ĠA R
Ġset tings
A ss
ĠOn line
Ġoper ations
ç ¹ģ
è± ª
èı Į
_ ex
Ġd rop
åĩ Ń
Ġpres ence
åģļ å¥½
çģ °
ĠEx p
Ġarg s
E m
u ps
ic ations
ĠG l
é¢ Ĺ
åĴ ¨
Ġinc ome
. re
ĠL ife
( h
con tain
æĢ§ èĥ½
up date
p ret
ar p
ĠE m
ï¼Į è¯´
Ġd iet
Ġchall enge
æĪĲ ç«ĭ
( S
, æľī
Ġcent ral
Ġt ag
å§ ĳ
å®ĥ ä»¬
cre en
ĠM ake
_ add
Ġstru gg
. assert
è¿ ħ
ell ig
Ġpo or
Ġref lect
Ġd ivid
c an
Ġcoun ter
æ¨¡ åĿĹ
Ġch annel
Ġ Â·
æ¯ı å¤©
ĠN S
Su pp
l ies
è£ Ĥ
c are
u a
um an
Ġlet ter
( _
ĠH ot
åĸ ·
Ġh yp
ou nce
_in fo
Ġpay ment
Ġrel ig
ĠAN Y
è§Ħ æ¨¡
Ġ er
Ġrest rict
å®£ ä¼ł
add ing
ç»Ļ æĪĳ
Ġve ctor
ãĢĤ ä¸Ģ
åį« çĶŁ
Ġbud get
é¾ Ħ
Ġext ends
èĢ Ĺ
Ġreturn ed
Ġf ixed
Ġp en
æŁ ³
Ġfor ms
Ġrespons ible
åĨį æ¬¡
Ġcas ino
Ġl oved
se lect
Ġinst itut
Ġpres ident
AC T
çĸ¾ çĹħ
ï¼Į è¯·
ä¸ĭ éĿ¢
è¯ģ åĪ¸
Ġp air
Cont roller
B l
ex as
ph one
O per
Ġs rc
ĠSu per
Ġcompon ent
Ġa ward
åĽł ç´ł
èµ° äºĨ
ä¹ Į
ashing ton
ĠEurope an
T e
åĽŀ æĿ¥
æĬ ¬
L oad
æķ° åŃĹ
r d
vent ion
å¼ķ èµ·
ï¼Į éĢļè¿ĩ
Ġthan k
Ġ" $
ĠAn n
ĠJes us
æĸ½ å·¥
por ary
Ġclass es
ï¼Į è¢«
ym bol
ar th
Ġh op
Ġpl us
D C
Ġtalk ing
æ½ ľ
Ġsp read
Ġfam ilies
Ġgl ass
Wh y
ç«ŀ äºī
æĻ ¨
Ġ ing
æĶ¾ åľ¨
å¼ Ħ
th at
Ġelect ric
ĠThere fore
Ġco ord
R em
åĵ Ń
èħ ¾
" "
Ġcommerc ial
åķĨ ä¸ļ
ic ine
çĽ Ĳ
ĠWh y
UL T
Ġser ve
Ġro b
åĬĽ çļĦ
å°± åľ¨
è´ ·
ph i
æĺ¯ ä¸ª
ing er
èĸ Ħ
om ic
æľī ä»Ģä¹Ī
Ġclaim s
ĠM ac
ĠInd ian
å®ŀ éªĮ
åĳ µ
ri pt
X X
é½ ¿
Ġd ating
_ k
ãģ ®
z er
èĩª çĶ±
yd ro
per ties
ĠChrist ian
Ġem pty
åĨ Ĵ
D on
æĲ ľ
.s ize
Ġl ayer
f s
ç»Ħ æĪĲ
Ġb ath
ĠA mazon
ide os
Ġh undred
I A
æģ¢ å¤į
éĻ ·
æĮĩ å¯¼
Ġra ce
Ġne arly
Ġw ild
b a
EX T
Ġw ife
x ff
s cript
Add ress
Ġz ero
wh ich
æ¯ķ ä¸ļ
g ithub
ï¼Į è¯¥
ed s
ĠM et
å© Ĩ
Ġh arm
. </
èģĶ ç½ĳ
uth ors
Ġestab lish
åĴ¨ è¯¢
oth ing
çī¹ çĤ¹
, ä½ł
ot a
Ġcl ub
Ġp ush
Ġinc or
åı ¹
æ½ ®
S ON
Ġprot ection
çĶ¨ çļĦ
w ide
Ġlearn ed
æĽ ¼
åĩº ä¸Ģ
Ġd oll
Ġoff ered
i ated
è¡Į æĶ¿
il k
Ġth read
Ġspec ies
Ġp an
Ġteam s
Ġprof ession
éĵ º
P H
N U
n um
ific ations
åħ ģ
ä»¥ åīį
ä¸Ń å¤®
ra b
F L
l ig
èĥ ¸
lo ok
ab ilities
om a
æĽ¾ ç»ı
æħ §
Ġvol ume
Con st
ock et
. log
ĠD E
Ġmov ed
çĪ¶ äº²
Ġpro p
Ġv oice
ĠO b
æİ¨ èįĲ
' '
Ð »
Ġwonder ful
Res ource
åĳĺ å·¥
Ġb aby
Ġand roid
Ġsmall er
Att ribute
æĶ¯ ä»ĺ
ang es
OV ID
Ġe cho
Ġvari able
èĢħ çļĦ
æĶ¯ æĴĳ
c s
wh ile
et te
ang ing
Ġcl osed
ĠP C
B O
éĶ ĭ
æĹ ¦
å¾Ī å¿«
ruct ure
al ign
Ġso ft
Ġpower ful
åħ ½
æĬ ¢
åĵª éĩĮ
_ A
ify ing
We b
ĠE ast
land s
Ġd u
col or
ĠÂ £
æķ° éĩı
ï¼Į åĮħæĭ¬
Ġo s
Ġfa ith
Ġph ase
è§£ éĩĬ
t itle
Ġmon itor
ĠF OR
Ġsc ript
N one
ck et
è´ ¸
rib e
ï¼Į èĻ½çĦ¶
Ġkit chen
Î ½
. y
ĠC ode
åĵ ¦
H T
Ġdru g
Ġqu ery
Ġpart ies
ãĢĤ æīĢä»¥
ä¸» ä»»
çĶ ľ
æ³ ¥
Ġdeterm ined
} _{
è· µ
p at
Ġcele br
ç«Ļ åľ¨
çĶ ĺ
éĩįè¦ģ çļĦ
çľĭ äºĨ
ĠP al
åī ©
çĮ «
ĠUS A
åĺ ī
æĭ ľ
å° º
Ġprocess es
R L
im g
å®ŀ åľ¨
å¯ ¸
Ġl inks
imp le
on us
å¿ĥ çĲĨ
åŁ¹ åħ»
ä¼ĺ ç§Ģ
or ial
Ġsc en
Ġed ge
å° Ŀ
Ġagre ement
éĩį æĸ°
U G
est ion
Ġeffic ient
cul ate
åĮĸ çļĦ
ud io
æĮ ¡
åģ ¿
Ġmention ed
p id
ĠU nder
ro ot
ic ens
åĳ Ģ
- D
it ness
ï¼Į ä¸Ģä¸ª
c os
ĠC all
con f
Ġsupport ed
æĬĢ èĥ½
åħħ åĪĨ
ĠB ank
ĠK ey
Ġspec ified
, æĪĳä»¬
Ġsl ight
Ġprote in
ä¹ Ļ
å¡ «
rel ated
Ġgr and
æ³¨ åĨĮ
Ġprocess ing
ag o
Ġsignificant ly
Ġestab lished
ĠI I
cl es
æľī äºĨ
and le
ä»£ çłģ
Ġs en
Ġn ation
Ĩ Ĵ
å¾ ª
. H
Ġexpl ain
ãĢĤ å¥¹
U D
Ġp aint
ĠTr ue
AC K
éħį ç½®
i pl
- P
un n
åĴ ±
ç¡® ä¿Ŀ
ãĢĤ æĪĳä»¬
Ġs ources
ĠT able
Ġ{ \
ĠPa ul
opt ion
ĠB el
in i
ĠCon f
b o
Ġ( "
åĬł å·¥
F O
æľ Ĺ
ig er
ĠV is
Ġdr ink
Ġf arm
ç©º æ°Ķ
ĠSc ience
æĥ ľ
Ġtest s
ä¹Ł ä¼ļ
Ġcall s
è¾ Ľ
) ï¼Į
ï¼Į çĶļèĩ³
Ġl ibrary
Ġf ederal
ï¼Į è¿ĺæĺ¯
Ġconnect ed
it ors
F e
æİª æĸ½
éĺħ è¯»
ri er
em y
ĠG old
Ġob vious
æł¸ å¿ĥ
V ersion
Ġlarg est
è¾ĵ åħ¥
Ġf ill
ä» ĵ
å°± åı¯ä»¥
äºĨä¸Ģ ä¸ĭ
< T
èĤ Į
æī İ
Ġ æľ¬
im er
Ġare n
èİ ±
Comm and
æĸ° éĹ»
ãĢĤ æŃ¤
è´ «
Ġsh aring
Ġcould n
æģ Ĵ
Ġtr uly
Ġ eth
it iz
Ġh us
Ġdef ine
E W
ĠM ag
æĿ ľ
Ġprevious ly
Ġf lex
Ġprodu ced
at tr
Ġjob s
è Ŀ
ĠC r
Ġ url
Ġf ont
çļĦ éĤ£
ĠR equ
æķ´ ä½ĵ
Ġdat abase
Ġbu ffer
æľĢ ç»Ī
æ ©
èĩª èº«
æī £
æĪĲ ç»©
C O
ä¹ Ķ
éħĴ åºĹ
Ġo k
ĠAn al
ĠM ark
å¤ ¹
éķ¿ çļĦ
Ġthan ks
äºĨ èµ·æĿ¥
åĬ³ åĬ¨
IN E
Ġschool s
Ġdel ivery
Ġc ast
Ġbe comes
ĠM any
Ġg ift
Î µ
off set
ä¹ł æĥ¯
æī ¶
åĩ ¤
ï¼Įä»İ èĢĮ
å° ĸ
ĠSun day
ĠD ate
å°± ä¸į
- e
æĦı è§ģ
", "
Ġm ist
l n
çĭ¬ ç«ĭ
çĸ ¼
è¾ Ī
ĠN ame
è®© æĪĳ
ill a
è¯ģ æĺİ
æĦŁ åĪ°
h ol
çĭ ł
Ġexperien ces
we ight
Ġsp ot
o z
B S
Ġgu arant
å¦ Ļ
L ink
Wh ile
çļ Ĩ
Ġp ool
è¾ĵ åĩº
Ġset t
åħ¬ å¼Ģ
ç¾ ½
Ġobject s
ĠP ower
N ull
è¯¾ ç¨ĭ
Ġatt ract
å¹¸ ç¦ı
æıı è¿°
Ġcaus ed
Com ponent
Ġt ips
b ase
ĠWill iam
åķĨ åĵģ
æĭ ¼
Ġhappen ed
Ġown er
Ġsym bol
ĠOff ice
éĩĳ å±ŀ
et ch
èµĦ æľ¬
åĪĽ éĢł
Ġm aster
âĢ ī
Ġview s
ç£ ģ
p arent
Ġcoll abor
Ġper haps
se arch
éº ¦
ï¼Į ä¸Ķ
T C
Ġsoc iety
å¹´ åº¦
Ñ ĥ
Ġman age
Ġsp orts
arr ant
åĢ ¾
C reate
ä¸į çŁ¥
Ġn orm
Ġ$ {
ç»ı åİĨ
Ġp sych
Ġcap acity
åĬ¨ ä½ľ
èĭ Ĺ
Ġc old
Ġsur round
j s
ĠIntern et
æ» ļ
AS S
è¦ Ĩ
å®ļ çļĦ
Ġvis ual
_ x
y les
åľ¨ ä¸Ģèµ·
ĠEng ine
è ²
å² Ĺ
I X
ĠB ecause
empt y
Up date
D et
Th anks
Ġphot o
Ġw ind
++ )
The se
èĤ¡ ç¥¨
Def ault
Ġh ar
A re
h ow
- sh
åķ ¦
re y
åįķ åħĥ
h i
Ġb ul
R A
O p
Cont rol
Ġgener ated
Ġpart ner
l ambda
al le
B ar
k g
Ġmin imum
Ġj ourney
å¸¦ æĿ¥
om an
æĺ ¨
Ġse cret
è®° å½ķ
clus ive
ĠT O
Ġv ac
FF FF
ar io
éģ Ń
ON E
Ġ èĢĮ
åı Ķ
, ä½Ĩæĺ¯
èµ ¢
Ġw at
ĠCon st
F actory
Ġ$ $
ï¼ĮèĢĮ æĺ¯
Ġg ar
æ¬ £
n ode
row s
Ġextrem ely
æŃ¥ éª¤
å¾ Ĵ
Ġsign al
Ġf ig
ĠM ain
F unction
Ġadvant age
pos es
( String
Ġt rou
un der
Ġhelp ed
çģ ¾
ĠPe ople
Out put
æľº æ¢°
åģ ·
åĩ ¯
Ġdri ver
In it
çī¹ æ®Ĭ
éĻ ª
Ġcomplet ed
ĠB ig
ing le
cl aim
Ar g
ç¬¬ åĽĽ
Ġcam era
ï¼Įåı¯ æĺ¯
éĹ ¹
ot ing
] \
è´¢ åĬ¡
è ķ
stand ing
ĠAl though
i pp
è´ ¯
ĠI T
ap ers
åĩ ½
± ä¹Ĳ
æĶ¶ çĽĬ
Ġun its
æģ ĭ
Ġh olid
æĦ¿ æĦı
ult ure
æ¯Ķ ä¾ĭ
Ġpropos ed
ĠTr ump
Ġ$ (
ï¼Įåıª æĺ¯
åĬ ²
re es
Ġr ank
å¦Ĥ ä¸ĭ
ann ed
å§ Ĩ
Ġgu ess
èī ¾
Ġtechn iques
èħ °
} {\
éļ Ĩ
ra el
åħ¬åı¸ çļĦ
c ell
ĠL eg
pos it
L S
r um
. v
ä¹ ĥ
æĲ ŀ
bs p
æħ ķ
èİ· åıĸ
ä¸Ģ å£°
Ġsh op
é£Ł åĵģ
åĲĮ æł·
ĠE ach
ĠJ e
Ġpol ic
ç¡® å®ŀ
Ġa head
Ġexerc ise
ç¨ į
æıĲ åĩº
Ã ¼
O pen
Ġad apt
Ġt end
Ġ[ @
Ġreg ister
ç¤¾ åĮº
çĬ ¹
è°ĥ æŁ¥
ĠS ur
_ SE
%% %%
ĠMed ia
ent ry
im b
Ġlo an
Ġprof ile
Ï Ħ
Ġtop ic
Y es
Ġm iles
Ġpro ceed
( T
Ġen able
Ġbal ance
Ġrelationship s
çĴ ĥ
Ġf ab
ĠĠĠĠĠĠĠĠĠĠĠĠĠĠĠĠĠĠĠĠĠĠĠĠĠĠĠĠĠĠĠĠ ĠĠĠĠĠĠĠĠĠĠĠĠĠĠĠĠĠĠĠĠĠĠĠĠĠĠĠĠĠĠĠĠ
ï¼Įè¿Ļ äºĽ
Ġaff ord
Ġmove ment
äºº éĥ½
_ \
æ³ ª
M C
Ġ< =
is ation
Ġem ot
ag er
( C
çķ ª
cre te
ãĢĤ å½ĵ
æĢ» æĺ¯
Ġwork ers
Ġcirc um
Ġder iv
ven ue
ĠEduc ation
Ġpro s
ĠW he
ĠC reate
Ġg one
Ġlot s
ĠW ord
åĲĪ çĲĨ
ĠW ashington
Ġcle arly
è§ Ī
ic ed
çĮ ª
Ġex hib
çĽ¸ å½ĵ
M ax
ĠC O
è£ ģ
ç»Ĩ èĥŀ
Ġclin ical
Ġann ounced
å¾ ¡
.A dd
act or
h ouse
Ġtechn ical
print f
åĪ° çļĦ
éĹ® éģĵ
or ney
ines e
Ġ ur
ec ute
ï¼Į äºº
ãĢģ âĢľ
ä¿ĥ è¿Ľ
Ġn one
æĿ¥ çľĭ
ĠF ore
\ in
RO M
AT A
æĶ¹ éĿ©
Ġmanufact ure
åĲį åŃĹ
a id
ĠRep ublic
r ag
æ³ ī
Ġf urn
Ġtra ffic
m en
w ell
Ġsh oot
- term
Ġfail ure
æľĢ è¿ĳ
Ġproper ly
åİ ī
åĪļ åĪļ
Ġrespect ively
em ents
ĠC A
å¯ ¿
è¶ ĭ
åŁº äºİ
UR L
/ f
ï¼Įä»¥ åıĬ
çı į
Ġapp oint
od er
ĠC ustom
å®ĥ çļĦ
l is
St yle
æ´ ¥
Ġsepar ate
æİ¥ è§¦
. E
og en
Ph one
g roup
Ġoff set
é¼ »
ru ctions
ass word
éĢļ å¸¸
t n
äºĭ ä»¶
Ġbig gest
ex pected
Ġdom ain
ĠD an
Ġexper im
Ġeff orts
a uthor
H A
åĪ© æ¶¦
B D
f g
åºĶ å½ĵ
èĦ¸ ä¸Ĭ
res ponse
ig en
èģĶ åĲĪ
che ma
èħ Ĳ
Ġexperien ced
èħ Ķ
F IG
å¿ħ è¦ģ
ed nes
b ig
çİ© å®¶
äºĭ ä¸ļ
Ġe ight
çľŁ å®ŀ
æħ¢ æħ¢
éĩį å¤§
or ter
head er
Ġv an
çŃī çŃī
ç² Ĵ
ve ctor
un ning
Ġl icense
urs day
- of
ç¢ °
te red
çŀ¬ éĹ´
ä¼ į
Ġ ðŁ
ĠDevelop ment
ed d
æĶ» åĩ»
use um
ues day
æ® ¿
ç½ ļ
åĪĨ äº«
Ġb illion
n ull
ĠB ack
ä¸º ä¸»
åĮ» çĶŁ
================ ================
æľĢ å¤§
pro perty
å¹ »
ot ic
èı ²
ä¹¦ è®°
.d ata
IZ E
è¯ ĳ
Ġun less
å¹´ æĿ¥
i pped
èĤ ©
List ener
ï¼Į ä¸Ĭ
Ġcook ie
( e
åįģ äºĮ
åģ ¶
ect ions
ĠTh us
ot ype
Ġcon vert
L C
é ī
ç®Ĺ æĺ¯
ĠAssoci ation
Ġhot el
çļĦ åıĳå±ķ
Ġold er
. G
åĸ Ĭ
å®ŀçĶ¨ æĸ°åŀĭ
éĶĻ è¯¯
æķĪ çİĩ
Ġrecord s
Ġcontin ued
Ġopin ion
Ġpl aced
. in
å¹¶ æ²¡æľī
Ent ity
EN D
Ġon to
loc ation
ĠM al
âĢ ²
ĠS aturday
ph as
ĠH all
a o
ä½ı äºĨ
æ» ¤
roll ed
Ġke pt
Ġhelp ing
æĻļ ä¸Ĭ
urre ncy
ĠCol or
Ġun signed
åĭ Ĵ
Ġch urch
äºº æīį
H ome
ĠPro duct
Form at
ĠT exas
ĠA v
ä¸Ģ åĪĩ
Ġal bum
iven ess
Ġse ven
Ġsee ing
å¥ ı
" /
im pl
pe ed
ä¸ĭ äºĨ
Ġco ff
r or
m es
Ġm ilitary
ĠP ython
å¨ ľ
Ġhapp ens
ä¸» åĬ¨
ess or
Ġvari ables
Ġsec ure
çĶŁ æĢģ
Ġadd ing
Ġc ards
- L
Ġhus band
éĤ£ éĩĮ
il on
ĠJ ames
å£ ³
ĠC ong
Ġcomb ination
f it
miss ions
bs ites
- T
èª ī
Ġsh ot
æº ¶
Ġm ort
Loc ation
Ġpe ace
u ated
ĠM onday
om in
ä¾ µ
Ġocc as
Ġgener ate
" ).
è¡£ æľį
P ack
% ï¼Į
ãĢĭ ãĢģãĢĬ
Ġequ ation
Ġrem ains
ç§ Ĵ
ĠR ich
Ġsur g
ĠV ol
çĤ ¸
oy al
èµ· äºĨ
èĳ Ĺ
P M
_ ch
Ġs amples
Ġthought s
Ġoff ering
et t
St ep
. /
åİŁ æĿ¥
-- -
( k
è½¦ è¾Ĩ
Ġappe ars
ç¾ Ĭ
_C ON
it ure
t x
çļĦä¸Ģ ç§į
æĺ¯ ä¸įæĺ¯
un signed
æŃ£ å¼ı
Ġsust ain
A ut
W idth
S ome
Ġdriv ing
ĠAr ch
èĻ «
Ġco verage
åĿĲ åľ¨
Ġpur poses
Ġpro of
Ġal leg
Ġcon sequ
ä¸ĸ çºª
çĵ ¦
Ġweek end
åĨľ ä¸ļ
èĩ³ äºİ
ĠF ind
çļĦ ä¸Ģä¸ª
Ġd anger
è¿ĺ è¦ģ
ï¼Į çĶ±
çļĦ å·¥ä½ľ
g rad
Ġha ven
Ġh ospital
Ġpict ures
ann els
éħį åĲĪ
i able
S ee
æ¡ Ĩ
ç¥ Ŀ
åĦ¿ åŃĲ
Ġshow ing
å¤ º
k er
An y
et ime
Ġc op
Ġide al
Ġorgan izations
æİ¨ åĬ¨
ç»Ļ ä½ł
çİ Ħ
ednes day
ä¹ĭ å¤ĸ
ä¿ Ĺ
Ð º
ten ance
St r
p age
Ġhelp ful
æĭħ å¿ĥ
ãĢĤ ä½ł
ä¹Ł æ²¡æľī
ant ic
Ġb urn
Ġdec isions
Ġ( *
{ {
è®¾ æĸ½
å¦Ĥ ä»Ĭ
ic ious
è½ ¨
os en
F rame
æ¬¢ è¿İ
D ec
ĠSt art
Ġb atter
ĠRe al
Ġredu ced
å¾Ī å¥½
ab in
ĠCoun cil
ç»Ħ åĲĪ
åıĳ æĮ¥
Se lect
èĦ ı
æīĢ è°ĵ
ĠF rench
éī ´
ĠC ap
Ġgover n
er ation
- re
I ES
Ġdec or
Ġover ride
èĥ Ĩ
Ġexpl ore
U RE
åľ° åĿĢ
ä¸Ĭ å¸Ĥ
åıĤ æķ°
å°ı è¯´
ak ers
è®¾ æľī
æ¯į äº²
æĴ ŀ
T ag
ut y
ï¼Į æĪĸ
å°ı çļĦ
ĠC OVID
b eta
Ġfunction al
Ġrem oved
O ther
Ġb orn
ä½ĵ èĤ²
ç¾¤ ä¼Ĺ
éĢļ çŁ¥
ex port
N ovember
åĭ Ĳ
_ value
Ġmajor ity
( w
+ \
Val id
Ġaltern ative
( M
Ġn or
o very
Ġf ant
S A
çĵ ¶
å¿ ł
Ġst ated
Ġexam ples
åĦ¿ ç«¥
Ġwe ather
ĠSoc ial
ĠP H
å·¥ èīº
æľºåĻ¨ äºº
Ġre ality
Ġheav y
Ġ> >
æı ´
ï¼Įè¿Ļ æł·
c ite
ĠO nce
Ġc overed
ĠAustral ia
é£Ł çī©
Ġident ified
Ġstrateg ies
math bf
st on
. id
Ġprep ared
Ġbro ther
Ġto ward
æİ¨ è¿Ľ
Ġopen ing
åħ¬ éĩĮ
æĿ¥ åĪ°
ri age
Ġproced ure
ĠFl or
Ġsh ift
ĠEx t
f e
ĠT R
Ġdef inition
Ġf ear
n amespace
Ġb oy
. name
ä¸Ģå®ļ è¦ģ
Ġrel ative
P P
Ġpol y
ĠComm ission
L abel
Ġfin ish
åĪ¤ æĸŃ
æĪĺ æĸĹ
Ġd ress
å¥ Ī
L ayout
el ines
iction ary
åħ´ è¶£
Ġs weet
Ġsm ooth
Ġsym pt
Ġach ie
Ġmiss ing
ï¼ī ãĢĤ
Ġinflu ence
re hens
å¥ Ķ
ĠE qu
Ġst ored
Ġdevelop ing
æ´ ª
o or
at in
ĠSt r
çī© è´¨
Ġimplement ation
çİ »
æĹ¶ æľŁ
ig ital
ĠĠĠĠĠĠĠĠĠĠĠĠĠĠĠĠ ĠĠ
Ġwh atever
ct ors
Ġl ose
E CT
ãĢĤ åĽłæŃ¤
Ġb ill
ï¼Į æīį
Ġst ation
Ġsom ew
ĠL ong
Ġm ental
un ately
ĠR ob
ri an
åŃ ¤
æĪĳ åĽ½
åĩºæĿ¥ çļĦ
ĠH ol
_ ID
ĠG NU
Ġwould n
ä¼ļ è®¡
èģ ĺ
è§Ħ èĮĥ
u ations
Ġest ate
am in
Ġlead ers
< <
Ġmanag er
æĭ ³
Ġthem e
ob s
æ¶ī åıĬ
ĠW ater
ĠC D
OR D
ĠE nd
å¤ļ æķ°
K e
ĠY es
ĠR oad
è° ĭ
. pro
åĲį ç§°
-------------------------------- --------------------------------
Ġart icles
Ġann ual
pec ific
Ġsol ve
é©± åĬ¨
Ġqu arter
Ġdist rict
/ t
Ġpract ices
ĠF ig
å±ħ çĦ¶
ĠN ote
ĠM art
Ġh ab
Ġdefend ant
/ g
sp ace
_ j
è¿ Ł
is ode
erson al
as et
Ġvisit ors
ç« ¹
éĥ½ åľ¨
å¤į æĿĤ
å® ¿
os h
ĠBrit ish
_ sh
ĠP ay
Ġthrow s
os es
ç¬¬ä¸Ģ æ¬¡
Ġbe g
æ°ĳ æĹı
é¸ Ł
< ?
C o
Ġpl ants
l ong
Ġoper ator
ro ad
F ilter
Ġdet ail
Ġatt end
ve c
is c
oun ter
æľī çĿĢ
çļĦ å¥³
ï¼Įè¿Ļ æĺ¯
æĵ ¦
Ġtem plate
ĠB uild
" }
ĠS al
ĠCh urch
E ST
k y
Ġpre par
Ġes c
éĩĳ é¢Ŀ
ç¾İ åħĥ
Ġmot or
åĿ ¦
ĠW ITH
anc el
Ġinj ury
S ign
ï¼Į æ²¡
Ï ģ
æ¼ ı
Ġf ans
Ġserv ed
å¤© ä¸ĭ
å¤© çļĦ
b lock
åĵĪ åĵĪ
Ġcommun ities
Ġac ad
ĠT om
Col umn
. class
Ġpie ces
æģ ¨
. J
L ength
æĺİ ç¡®
- the
Ġfin ished
ç»ı çĲĨ
éĥ½ æ²¡æľī
ĠEx per
ĠâĪ Ĵ
Ġme ant
F C
_ un
se y
ĠT ext
Ġf ol
åĪ ĳ
p u
Ġch ain
Ġext ract
çº µ
Ġwe ar
åĬł ä¸Ĭ
æĪĺ çķ¥
Ġmed ium
æ¡ ĥ
åĲ ¹
äºĴ èģĶç½ĳ
Ġgu ys
ĠO h
^{ -
æĥħ ç»ª
]( #
b i
st e
P ress
åľŁ åľ°
' .
Ġex ists
ĠM icrosoft
A ccess
( *
Ġear th
Ġn uc
å¤Ħ äºİ
ĠS l
ä¸ª æľĪ
( R
å¹¿ åĳĬ
å®ŀ è·µ
è¾ °
æŃ£ æĺ¯
en v
ĠB as
Ġpost ed
Ġwait ing
ic it
å² ¸
ad ow
er ry
Ġupd ated
ĠM iss
ien ces
ed om
Ġdiscuss ion
S erver
ĠÂ §
if orm
é£İ æł¼
ĠInst itute
ï¼Įä¹Ł æĺ¯
ARR ANT
ãĢĤ ä»İ
ĠS am
, æīĢä»¥
ï¼Į æĥ³
ĠY ear
tt p
Ġsp ring
ĠL ord
Equ als
Ġeconom y
åħ ¼
çļĦ æĸ¹æ³ķ
Ġfor g
P U
ĠPh il
ç½ ²
â ĸ
Ġerr ors
åĪĽ ä¸ļ
Ġb ra
ä¹ ³
U rl
- old
M T
Ġabsolut ely
ĠÂ »
Ġarch itect
è¿ «
/ w
ad y
è¿ĩ äºĨ
ĠCom ments
çĽ¸ åĲĮ
æĤ ²
çĽ® åħī
rom e
çļĦ ä¸į
ï¼Į èĥ½
Des cription
åĢ¼ å¾Ĺ
ãĢĤ æľ¬
Ġsc ene
ĠO per
ç± į
Ġc up
å£ ®
Ġcon ven
Ġchang ing
val ues
ĠW ARRANT
éģĵ è·¯
Ġdis cover
ber g
Ġinc red
Ġmen u
es ome
æĭ Ķ
ol ved
è² Į
ĠB et
end ar
Ġanim als
Ġlead s
', '
Ġess ay
ef t
åħĥ ç´ł
çİ° è±¡
ĠA D
ï¼Į éļı
ĠI P
ï¼Į åħ¨
ill er
os ite
_ a
éĻĲ åĪ¶
ĠP RO
çĩ ķ
Ġtr ig
Ġar m
åĽŀ åĪ°
äºĭ å®ŀ
y a
ĠS O
ä¼ ı
M in
åı£ æ°Ķ
B ook
Ġsqu are
ĠR et
an o
å§Ķåĳĺ ä¼ļ
ä» Ķ
Ġc ry
art s
^ {\
ĠDirect or
k in
ĠSt and
æ¼ Ĥ
Ġcoff ee
èį ¡
Ġl uck
Ġadv ance
Ġgu y
Ġra re
Ġmeas ures
el ess
Ġst ick
Ġy ield
ĠE lect
c a
Ġj ournal
æµ ©
çĽ Ī
Ġaud ience
Ġtyp ically
æĪ¿ éĹ´
Ġcomfort able
. create
ĠIs rael
Ent ry
ĠL ove
â Ķ
Ġhe aring
\ [
è¡¨ è¾¾
Ġdiffere nces
Ġb rief
ĠF igure
M et
Ġcreat ive
.n et
çİ° éĩĳ
Ġ ãĢĬ
Ġm ission
the ta
Ġlead er
ĠMich ael
çļĦ ä¸ľè¥¿
ec ess
ĠPl ay
è¿Ļ æ¬¡
æĻ ĭ
æ¨¡ åŀĭ
Ġtrans l
çº ¤
åİŁ åĪĻ
ĠM ary
Ġfore ign
éĥ İ
è· ¨
â Ħ
èħ ¹
let s
d oc
æĸĩ æĺİ
ĠTh om
Ġb ag
ft y
all s
äº ķ
èĭ± åĽ½
æľī æīĢ
M enu
yt ics
çļĦ æĸ¹å¼ı
ä¸Ĭ åİ»
åĽ° éļ¾
æĿ¥ æºĲ
å°± è¦ģ
çļĦ å¥½
å® ¾
éĽĨ ä¸Ń
Ġwrit er
c ore
çī¹ èī²
å½ ¼
_ e
å¤ļ äºĨ
éĤ ®
ĠP ress
Ġdirect or
è¿ħ éĢŁ
Ġill ust
P tr
ĠB ay
Ġknow s
Ġfun ds
æŁ ľ
Ġcour ses
go ing
Ġw arrant
åħį è´¹
æĭ Ĵ
ĠC amp
Ġhom es
ess ions
p y
åĪļ æīį
F in
He ight
ĠB log
l ast
Ġconfig uration
ĠA PI
æ» ´
ap ache
ult i
Ġmet al
æĹ¢ çĦ¶
Ġ[ ...
Ġp anel
sc ribe
åįı è®®
Ġsent ence
ul ed
by te
M D
ĠPr ice
Ġgener ation
éģĩ åĪ°
Ġs ector
Ġj oint
è¿Ĳ èĲ¥
Ġstand ards
L ike
Ġagre ed
ï ¿
Ġ" \
ç¡® è®¤
t imes
ĠL ead
ĠF ood
M em
ĠV alue
ig ration
/ j
åħħ æ»¡
ĠS ection
do or
Ġcorrespond ing
ĠAd v
è¯´ äºĨ
Ġwe ak
çļĦ ä¸»
èĬ ¯
& #
ï¼Į å¾Ī
ç¬ĳ çĿĢ
Ġac id
è· ĥ
Ġaw ait
Ġfl at
Ġdec ide
Ġsus p
çľĭ è§ģ
åĵª äºĽ
ern el
word s
æīĵ éĢł
åĲ Ĳ
n bsp
Ġcl imate
ĠRep ort
åĭ ¤
åĲ¸ å¼ķ
ĠR ober
clud ed
Ġrun s
å¿ §
æĹ¶ çļĦ
rem ove
è¿ŀ ç»Ń
Ġpolic ies
Ġspecific ally
math rm
Ġcol ors
at abase
Ġs and
Ġg un
Ĥ ¬
und le
å° ¸
ent ity
ï¼Į ä¼ļ
_t ime
åı¯èĥ½ ä¼ļ
å¦ ĸ
an ner
/ L
- ch
Ġb ow
çŃ ¹
Ġcent ury
ad er
æ± Ĺ
Ġla unch
Ġt or
Ġfl u
ĠJ ew
è§Ĥ å¯Ł
Ġf av
æİĮ æı¡
ic ial
Ġ[ [
éŀ ĭ
è¯¦ ç»Ĩ
èį ·
æľº åħ³
Ġrel ax
Ġkeep ing
å®ļ ä½į
E ng
çĽĳ çĿ£
r ical
çĿĢ ä¸Ģ
ĠU N
ç«ĭ åį³
æĹł è®º
éĵ ľ
Ġf an
ĠE mp
ent er
ï¼Įåıª è¦ģ
ä¾Ŀ çĦ¶
ual ity
C ON
åľ¨ è¿ĻéĩĮ
Ġlaw s
ag ement
p ost
Ġinst r
ĠL o
Ġex change
ĠApp le
O B
Head er
ip es
åĬŀ çĲĨ
å®¶ éĩĮ
f ast
ĠT wo
_ key
_p aram
Ġm o
Ġident ity
ĠSh ow
Ġcontain ing
ant a
Ġun c
Ġdo ctor
èĩ Ĥ
ä¸į çĶ¨
lic t
Ġoper ating
or a
as p
âĢĿ .
is ms
ĠTe am
ĠU ser
d raw
ç² Ĺ
åł Ĩ
Ġl abor
ä¸Ń åįİ
æīĢæľī çļĦ
Ġent ertain
ou ter
ad ing
å¤§ ä¼ļ
Ġadv anced
un time
Ġr ich
c urrent
W ork
Ġag ent
ç² ®
ä¸¥ æł¼
Le vel
Ġte aching
ĠF urther
in ue
Ġto ken
P os
O b
æĪĲ éķ¿
_T YPE
Ġex ternal
Ġsubst ant
ĠCl ub
èĢĮ è¨Ģ
åĴ± ä»¬
Ġparticip ants
un te
ĠSec urity
C ase
ĠS y
å¼Ģ åı£
- R
åīį çļĦ
om y
ä¸į æĥ³
ĠL ook
Ġpr ime
çļĦ å£°éŁ³
åħĦ å¼Ł
ĠM ax
H ER
az ine
Ġapplic able
ore m
Ġdoc uments
ner gy
urs or
ev en
t ure
ĠO N
ĠAcc ording
Ġstart s
Ġ[ '
im ation
Ġsche dule
TM L
P ol
Ġm ole
å¹³ åĿĩ
b uild
Ġwe bsites
O ST
éĢĲ æ¸Ĳ
ref ix
èĤ º
ç»Ħ ä»¶
Ġthe rapy
çİ° å®ŀ
çİ» çĴĥ
é©¾ é©¶
ï¼Į å¯¹äºİ
éĺ Ģ
åĮħ åĲ«
åį± éĻ©
Ġlist ed
Ġnumer ous
ĠG en
Pro cess
æį ·
ç»Ł ä¸Ģ
ĠAfric a
Ġs ch
çļĦ éĩįè¦ģ
Ġfl ag
Ġd aughter
Ġsc hed
( data
ĠRes ult
IN D
æĭ Ĩ
ab et
t hen
( struct
Ġob j
R eturn
if ts
ä¿ Ħ
Ġinter pret
or ry
Ġb ond
ud d
sec ut
ĠF ire
çī© çļĦ
- se
and er
ĠA uthor
Ġfun c
åıĮ æĸ¹
Ġf ashion
z en
åľ° çļĦ
éª Ĺ
Ġrat io
Ġenvironment al
Ġgirl s
èĭ± è¯Ń
v as
æ Ĩ
æĹ¥ å¸¸
é¦Ļ æ¸¯
èĪ °
Ġline ar
Ġra ised
Ġfocus ed
F alse
S L
Ġ icon
å°½ ç®¡
AP I
éĩĩ åıĸ
Ġhon est
ãĢĤ ä¸įè¿ĩ
å§ ľ
æ·± åħ¥
å² ©
, ä»¥
æĽ ¹
ĠCh inese
Ġr ing
, '
å¥¹ ä»¬
F ollow
as er
od ies
ick en
æĸ ĳ
C urrent
ĠM ont
çĭ ¼
Ġf ish
Ġsy nt
ĠComm it
Ġ"" "
æĪĲ åĳĺ
çĶµ è·¯
Ġ æľĪ
IL ITY
åľ° ä¸Ĭ
st yle
IC E
Ġman ner
ç¬ĳ éģĵ
ç¢ ³
ĠH am
ãĢĢ ãĢĢ
ition ally
Ġsu fficient
ain er
Ġ$ $\
ĠSt ar
Ġprov ider
çĵ ľ
all ed
ĠSu pport
ed y
Ð ²
_ ERR
ĠA lex
å®Į åĸĦ
) =
J ust
ĠĠĠĠĠĠĠĠĠĠĠĠĠĠĠĠ ĠĠĠĠĠ
Ġre ached
Th ank
èĥ ĥ
ï¼Į å¥½
Ġt asks
ov es
æ°¸ è¿ľ
Ġleg is
- a
ä¸Ģ å¹´
æľ¬ åıĳæĺİ
! "
Ġa uthors
è·Ł çĿĢ
çĲĥ éĺŁ
Ġwh om
Pro vider
Ar t
ä¸ ¢
_d ir
Ġalgorith m
ç»´ æĬ¤
F ig
åħ¬ åħ±
å¼Ģ äºĨ
erm s
i ples
Ġp al
çłĶ åıĳ
å¿« ä¹Ĳ
ĠEng land
- H
D irect
Ñ ı
Ġchem ical
èµ ĸ
ir ation
ĠP age
ĠDist rict
ï¼Į åıį
ĠB re
Ġst ack
Ġ il
Ġin du
ĠM ath
åĪĨ ä¸º
ĠAng el
æ¢ ¯
ri e
Ġr id
åĪĽ å»º
b ra
åĽ¾ çīĩ
w in
ĠTechn ology
LO G
or ation
red ients
å°ĳ å¹´
ĠE N
ĠComm unity
] ]
åĨľ æĿĳ
éļ¾ éģĵ
eg a
çľĭ æĿ¥
Ġv ill
Ġv ideos
W indow
åĳ Ĩ
æįŁ å¤±
New s
_ str
è¿ĺ åľ¨
Ġfeed back
. print
Ġmess ages
åıĬ åħ¶
Ġopen ed
ili ar
å°± èĥ½
Ġ ãĢģ
ĠP et
Ġinteg er
g reg
åľ¨ äºĨ
Ġwill ing
Ġc itiz
ĠSupp ose
Ġdes pite
Ġfe es
form ance
Ġtrans ition
å¾Ģ å¾Ģ
.j s
åľ ³
R C
éĶ ¦
æİ¥ çĿĢ
ç«ĭ åĪ»
Ġret ail
èĥĮ æĻ¯
P osition
g age
Rel ated
æľ¬ èº«
ç¯ ®
- N
åĶ¯ ä¸Ģ
è¿ ģ
éĿĴ å¹´
çĤ ī
Ġ} ,
Ġu pper
Ġfor get
% )
Ġm ail
ĠJ ournal
åī ²
_ index
y ou
ä¸ĭ éĻį
' ).
èĲ¥ åħ»
ad s
icens ed
ï¼Į æŃ¤
it a
c ase
çĬ¶ åĨµ
omet ry
è¾ ī
ĠPro t
æĥ ĳ
çļĦ æĸ°
Ġd ied
loy ment
Ġlist en
V ector
F ind
ä¸ ²
ç» ĺ
Ġint ended
Ġpro ve
æĺ Į
Ġequ ival
é¢ľ èī²
æī °
, ä»İ
Ġdel ay
at o
æķĻ æİĪ
ĠTh ank
âĢĿ ãĢģâĢľ
Ġexper ts
T arget
Ġra pid
æĭ ĵ
N um
è®¡ç®Ĺ æľº
åº¦ çļĦ
ĠAb out
ix el
Ġdivid ed
ach ine
, å¯¹
å¢ŀ å¼º
y e
åĳ¨ åĽ´
Ġbe coming
ĠFlor ida
èĥ½ æºĲ
åį³ åı¯
Ġs yn
æ·± åľ³
Ġsecond s
ĠM ap
è¯Ħ ä»·
æĦŁ åıĹ
å®¶ ä¼Ļ
ĠD i
ĠGover nment
Ġb onus
Ġm ac
è®¤ çľŁ
ä¹Ł æ²¡
Ġrep air
b in
è°ĥ èĬĤ
å®¶ éķ¿
å¼Ģ æĶ¾
M on
ä¹Ł åı¯ä»¥
åŃ ķ
Ġt iss
èĤ ł
Ġbel ong
Ġdep th
å¹ ½
ĠG ame
åģļ åĪ°
st ances
st atus
Ġs umm
O ctober
( {
ĠN ov
ĠSp ring
ĠA S
å¸ ħ
u zz
Ġ ice
èĲ¥ éĶĢ
S ec
ĠSt ep
ĠF alse
Ġmot iv
åľ¨ è¿Ļ
Ġtre ated
ident ial
am pl
Ġbuy ing
ĠC ard
Ġstre et
_st ate
é©¬ ä¸Ĭ
æĦ Ī
re ne
å¼ ¯
ro t
Ġdescrib e
on ym
Ġread ers
Ġj ump
äº« åıĹ
ĠJ an
ĠNet work
ĠC H
rou d
è¿ĩ çļĦ
Ġk id
ï¼Į åĪ°
P e
Ġthous ands
ãĢģ é«ĺ
Ġfrequ ency
å¤ª éĺ³
"> </
ĠL ike
ç¿ ¼
åĩº åı£
res ents
Ġr ise
Ġag ency
Ġass ume
om ain
cl os
ĠC reat
æĸĩ åŃ¦
G E
_ se
us her
Ġli qu
. *
O ption
ï¼Į åĴĮ
Ġb right
co in
å±ķ ç¤º
è¿Ĳ è¾ĵ
çİ Ľ
Ġobs erv
Ġb oost
åĲį çļĦ
Ġs plit
ri a
cript or
åĺ Ľ
Ġpass ion
Ġdoub t
) -
Ġv acc
l ines
Ġenh ance
resh old
ir med
Ġrep ly
Ġcr is
p g
ĠR iver
Ġlead ership
ï¼Į èĩªå·±
Ġreplace ment
Ġins ert
çķ ħ
ur ies
ir gin
æµģ ç¨ĭ
ĠThe ir
Ġinst ant
Ġsur vey
Ġnot es
çļĦ å½±åĵį
.p ush
æĭ ĸ
How ever
. '
Ġseem ed
ĠL ou
or ph
Loc al
Ġslight ly
ĠI ll
Ġth ick
Ġt on
ĠT re
Ġle aving
æĥ³ æ³ķ
æľĢ é«ĺ
Q U
s igma
Ġcom plic
Ġcomb ined
Ġcompet ition
åĩĨ ç¡®
Ġw ire
å¥ ī
Ġle aves
um in
Ġw edding
and a
ĠL ink
C ustom
ï¼Į åħ¬åı¸
Ġs ounds
è´ ¡
Ġm argin
Ġcaus es
ree k
Ġc row
ĠR ock
est ival
è¾ ŀ
ĠOn ly
å¤ļ ç§į
U se
ï¼Į èĭ¥
ä¸Ń éĹ´
æĽ´ æĺ¯
è®© ä»ĸ
ç¼ Ŀ
_c ount
IG HT
ï¼ī ãĢģ
éĽ ¾
f loat
è®° å¾Ĺ
Ġhead er
Ġcontin ues
çĤ¹ åĩ»
? ?
ï¼Į æĢ»
èĥ İ
Ġlet ters
f ol
ï¼ į
Ġby te
ĠSm ith
ĠS pecial
Ġsympt oms
Ġdet ailed
ĠC ert
Ġdep ending
Ġvis ion
åĪ© çĽĬ
ra v
ĠS ign
. [
å¾® å¾®
Ġarg uments
ĠPost s
âĢľ I
ä¸į è¶³
w rite
è¡¨ æĥħ
n ight
è¢ Ń
ĠP oint
Ġc ivil
ĠAr ray
Ġcl oud
å°ı å§Ĳ
èµ ļ
éļ¾ ä»¥
éĢ Ĩ
" ),
Ġcall ing
Off set
Ġdeb t
( name
æľī ä¸Ģä¸ª
æ¶Īè´¹ èĢħ
åĬ¨ åĬĽ
åįı ä¼ļ
d r
ĠCont rol
Ġreason able
T ree
i at
Ġintrodu ced
Ġmin ute
Ġpl ot
ar ks
éĥ ģ
Ġnot ed
çĽ¸ æ¯Ķ
Ġde lete
èµĦ æł¼
) }
ĠE vent
Ġ+ +
ĠN umber
çĽ Ĵ
æľ µ
ĠV ersion
ä½ ©
um s
Ġappe al
æĽ´å¤ļ çļĦ
ent ed
im s
Ġ/ **
od ed
c at
åİ ¨
ĠT ake
è¿Ľè¡Į äºĨ
Ġaspect s
em b
Ġ çļĦ
clud ing
éĻ ¶
éĢ ¼
red it
% ãĢĤ
åĽŀ åİ»
ĠQ ue
Ġsu gar
ä»¤ äºº
åŀ Ĥ
Ġtrad ing
ĠA ccess
æĢģ åº¦
g t
Ġcon ver
åŃ¦ ä¼ļ
Ġdet ect
ä»į çĦ¶
éĥ Ń
F S
ĠReturn s
è§Ħ åĪĻ
Ġmost ly
ï¼Į èĩª
Ġexc ited
W ell
Ġw inter
T S
çļ ±
n u
por ation
Ġautom atically
ar ian
pr ise
ĠĠĠĠĠĠĠĠĠĠĠĠĠĠĠĠ ĠĠĠĠ
åĲ ĵ
Ġmanag ed
^ \
_ reg
âĦ ĥ
Th read
V ER
- G
u able
an i
Ġjud gment
çĶŁ æĪĲ
ĠIn vest
R ev
Ġpick ed
Ġremain ing
St ud
Ġpl aintiff
u pp
-f ree
ĠS il
ecess ary
ell er
æĽ´ æĸ°
Ġrecomm ended
âĢ¦ âĢĿ
Ġwor ry
Ġupd ates
åıĺ æĪĲ
ĠM S
Ġcy cle
èĲ½ å®ŀ
ist ant
å¹¿ æ³Ľ
è§Ĵ åº¦
ro ph
Ġdisc ount
ĠT uesday
ä»¶ äºĭ
n on
ĠC lick
ç§° ä¸º
çĲ ´
Ġsh opping
ĠE nt
ï¼Į æĪĸèĢħ
æĢĿ èĢĥ
Em pty
Ġemploy ee
çĸ ¯
ĠBl ue
leg al
le m
ä¸Ģ çľ¼
A c
Ġse a
equ al
Ġsim pl
Ġmin or
- th
ĠP ack
itut ion
äºº åľ¨
Ġwatch ing
. apache
çĽ´ åĪ°
Ġbel ief
C ons
ĠTh ursday
çİ¯ ä¿Ŀ
O h
Ġconcern s
çħ ¤
æĪĺ äºī
ĠR ad
ĠB i
Ġcont rast
ĠWe ek
ĠF amily
amp ions
Param s
room s
Ġdirect ory
è½» è½»
Ġhold ing
out hern
let ter
Ġr is
, åĽłä¸º
Ġhy per
Ġint ellig
ĠC am
= {
ĠG lobal
ä¸Ĭ éĿ¢
èĴ ¸
ä¼¤ å®³
h s
ç½ ¢
C I
Ġneigh bor
Ġask ing
D ir
ä¸Ģ å¤©
Ġw elcome
o pped
è¡Į çļĦ
Ġext ension
èĢĮ å·²
æľĢ å¤§çļĦ
Ġan c
åĮĸ åŃ¦
Ġposs ibly
are st
ç °
æµ ħ
å° ¿
Ġexp ensive
Ġem phas
Ġc ars
Ġprofession als
Ġb ur
Ġe gg
Ġprom ote
åĬ¨ çī©
if ies
Ġconsist ent
Ġallow ing
æľº åĪ¶
æīĢ åľ¨
æĬķ åħ¥
Ġel im
R I
ĠIn it
Ġapprox imately
Ġown ers
he m
Ġfe e
ateg or
è¸ ı
Ġrad io
Ġresult ing
åŃĲ éĩĮ
Ġsl ot
A g
ãĢĤ åĽłä¸º
S ince
ç¾İ ä¸½
Ġw ine
A RE
ĠUn ion
j o
èİ ī
ĠM ount
= True
ç½ ©
M an
è¯Ħ ä¼°
ic ago
ä¸į æķ¢
Ġsize of
Ut ils
ĠIs land
é¡¿ æĹ¶
S l
ĠJ ud
Ġp ri
ï¼Į è¿ŀ
åħĪ è¿Ľ
çĶµ èĦĳ
ĠV er
- day
o inter
ä¾Ľ åºĶ
çĶµ æ±ł
Ġded icated
r ations
AC E
ĠG L
Ġdis s
ĠEn ter
Ġtr uck
æĤ ł
æĦŁ æĥħ
Ġo dd
ĠPh ys
Ġf illed
rem e
Ġd ram
ĠMus ic
le e
Ġm m
ION S
al a
ĠM ex
Ġte ach
Pro ject
h ab
est ic
ce an
A I
Ġw a
il ename
èĤ Ŀ
Î ¼
å®Ŀ å®Ŀ
æĦı çļĦ
Ġed itor
æĮĳ æĪĺ
A m
on ic
çī ¢
æ¯ ģ
cl ick
åĩ½ æķ°
J une
Ġcr im
Ġg arden
if est
çĪ± æĥħ
ĠB it
äºº çī©
Ġcho ices
het ic
Ġconf erence
åĴ ¬
æĺ¯ æĪĳ
ĠCom put
çĶµ æľº
Ġp un
Ġadvert ising
Ġv ote
Ġsh ut
Ġderiv ative
Ġmarket s
éĴ »
Ġw id
æĽ´ å¥½
re q
é» İ
Ġm ir
ĠOr gan
Ġst ars
Ġfem ale
he mat
ĠN ext
AT H
Inter face
G R
Ġsp ending
De cember
æ·» åĬł
åĲ¯ åĬ¨
P ort
al loc
èĢģ äºº
ï¼Į é«ĺ
Ġgreat est
Ġh ydro
Se ptember
æŀ Ŀ
Ġim plic
Supp ose
Ġfoot ball
Ġrem ote
es c
Ġp hen
pro cess
. io
Ġfact s
Ġm ask
Ġche ap
equ ation
ä»¿ ä½Ľ
ĠW ednesday
çĻ» è®°
åĮ ¹
Ġb ought
Ġcor ner
Ġeven ing
ĠM odel
Ġpass word
ĠE arth
M B
cd ot
æī¿ æĭħ
ä¸ĭ ä¸Ģ
Ġt um
ĠUs ing
Ġpers pective
Ġt it
Ġb ott
ann ot
Ġaccur ate
Ġcompl iance
let ed
å°¤åħ¶ æĺ¯
æĬ «
è®© ä½ł
ĠM ethod
ĠO ld
ere nt
æŀ «
ĠD uring
Ġpl enty
æµ Ļ
ĠD iv
P s
Ġcar ried
ç® Ń
åĵģ è´¨
ĠT oday
Ġlo op
Ġconf idence
éĤ Ģ
is hes
åĪĨ ç±»
å½¢ è±¡
ĠL ight
Ġd ensity
å® ħ
OR M
Ġadminist ration
O RE
Ġass istance
h an
ĠCent ral
rit ing
Ù Ħ
Ġteac her
Un it
æ±¡ æŁĵ
Ġcoun sel
Int eger
Ġsupport s
çĤ ®
H i
Ġocc up
ell s
Ġfac ilities
ä¸į åĨį
Ġeffic iency
Ġaccount s
Ġmod ify
Ġconvers ation
sc ape
< String
vel y
Ġs now
Ġ{ @
[ :
Ġread er
Ġconsider ing
æ¤į çī©
ĠM o
æł ı
æīĭ æľ¯
HE CK
Ġimpro ved
ĠMed ical
åģļ çļĦ
ç¾İ çļĦ
ĠN Y
Ġend ed
åĻ¨ çļĦ
Ġaff ected
å¥³ åĦ¿
ç¼ ´
å¹¶ ä¸įæĺ¯
Ġsign ed
.p ng
rehens ive
Ġf aster
è½» æĿ¾
ok er
Ġc raft
ä¸ī åįģ
out e
ĠIt s
æĤ ¦
é© »
åĲ¦ åĪĻ
Ġacc ident
ĠW ood
ber t
Ġevent ually
åİŁ æľ¬
D ep
ell a
æĬ¥ éģĵ
ĠCar ol
å¾® ä¿¡
Ġreg ul
* )
èĢģ æĿ¿
Ġincre ases
Ġis ol
R ed
çĲĨ å¿µ
Ch ange
p an
ĠT im
ak ed
ĠW omen
em ail
Ġte le
Ġsh ip
_ .
Or der
ans ion
Ġan imal
Ġcircum stances
å¿½ çĦ¶
Ġfam ous
Ġad vent
çº ł
Ġdep artment
Ġmain tenance
Ġv ent
Ġun s
å±ħ æ°ĳ
_ string
T ra
Ġc art
ĠL ast
Ġw ave
ĠR est
Ġdef ense
è§Ĵ èī²
çĪ± çļĦ
is co
anc er
èĢ Ģ
Ġput ting
çĤ Ĵ
å· ¡
ä¾ ¯
b d
èĩª æĪĳ
( P
M arch
å¤§ éĩı
åľ¨ çº¿
co hol
v an
Ġwas te
Ġtre es
ĠAc ad
Ġp ure
Ġrespons ibility
ĠCong ress
åį ĵ
ç¢ į
ãģ Ħ
.p ath
ä¸Ģ è¾¹
ĠCommit tee
c ale
Ġfun ding
ĠB ill
ĠGu ide
Ġpattern s
ĠSe cond
å½» åºķ
ç² ĺ
ĠIn f
ĠB o
J uly
Ġconf irm
Ġint ent
Ġg ene
Ġs we
Pro duct
Ġansw ers
æ°§ åĮĸ
ä¸į èµ·
\ u
ï¼Į å¤ļ
ig in
Ġsub sequ
åį´ æĺ¯
] ;
ĠH ill
å¹³ æĸ¹
çļĦæĥħåĨµ ä¸ĭ
( B
Ġrep resents
Ġform ula
Ġm ent
. value
Ġprot ocol
oss ible
ä¸Ĭ ä¸Ģ
è¯´ æĺ¯
çī µ
Ġprep are
ck s
çĽ¸ äºĴ
å½ĵ åīį
Ġin hib
fort unately
éĢ ¸
çŃ Ĵ
Ġ å¥¹
, å¦Ĥæŀľ
T ypes
èĤ ¿
M E
rast ructure
ï¼Į ä¸¤
Ġp and
ĠJ ul
Ġeffect ively
æµģ åĬ¨
æĹ¥ æľŁ
Ġcomp are
Ġwalk ing
ind s
ĠB uy
ĠJava Script
Ġra w
ä¼ļ åĦ¿
Ġc e
Ġloc ations
å® ı
e ah
é¸ £
k ing
( D
åĥı æĺ¯
ĠM ass
m em
Ġv ary
ic ian
Ġtot ally
Ġs outh
æ®µ æĹ¶éĹ´
A pril
? âĢĿ
ic ians
ï¼Į çŃī
ing u
Ġap art
in ity
ĠWh o
åĲĦ ä¸ª
im it
re ated
å§ĳ å¨ĺ
å± ¥
Ġs elling
Ġp rivacy
Ġinit i
çĹĩ çĬ¶
ä¹ ı
. read
ï¿ ½
æ·· åĲĪ
ĠA ff
ä¼ĺ åĮĸ
è¸ ª
Ġth r
mod ule
åľ° äº§
Ġw itness
Ġrec overy
â Ĺ
æīį æĺ¯
Ġf uel
Ġcomm itted
Ġs ides
äº ı
S pec
S m
v ents
çļĦ å¤ĸ
P ub
h as
ĠC as
Ġport ion
app y
in fty
ï¼ ħ
{ equation
ck now
Ã ĳ
ĠS D
Ġhold s
Ġv it
b ool
Ġcrit er
as m
ĠF und
ĠT or
Ġpract ical
ut s
Ġsu itable
è½ ©
Ġrel atively
param s
ĠF ull
comm and
Ġst im
ĠH ave
alle l
O UR
el er
Ġch air
ĠInd ust
Ġ ì
Ġra in
un it
äºĭ é¡¹
ik i
ãĢĤ åĲĮæĹ¶
z ing
od cast
f aces
P rivacy
A ugust
Ġdiscuss ed
ĠL and
/ **
ĠU RL
Ġfind ings
Ġaud io
Ġaccom pl
åĬŀåħ¬ å®¤
P D
St ore
= $
ĠPro cess
èĤ¡ä»½ æľīéĻĲåħ¬åı¸
Ġbehav i
Param eter
Ġl ay
ograph ic
Ġbeaut y
ä¸» é¢ĺ
Ġholid ay
æĤ¨ çļĦ
Ġexpl ained
ĠA T
Ġre ject
æĤ Ł
RE E
å§ ¿
æľ¬ å®ŀçĶ¨æĸ°åŀĭ
è§ģ åĪ°
æĸĩ åŃĹ
ed ef
åŁº åľ°
æľ¬ æ¬¡
Ġimpl ied
KE Y
em porary
å·ŀ å¸Ĥ
ĠN O
ive red
ï¼Į ä¸ŃåĽ½
èĥ½ éĩı
Ġdist inct
Ġteac hers
part ial
le q
åŁ ĥ
éĺ² æŃ¢
ĉĉĉĉ ĉĉĉĉ
Ġch osen
ub b
åŀ ĥ
Ġc os
ĠB oth
å±± ä¸ľ
Ġbe at
e al
Ġsub mit
ĠAnd roid
é£ ĺ
çĶ· åŃĲ
Ġparam s
éĻĦ è¿ĳ
åĽ½ çļĦ
æĬ ĳ
è¶ĭ åĬ¿
è¿Ĳ çĶ¨
åľ ¾
ĠWh ich
æ¶Ī å¤±
us hed
c i
Ġb inary
Ġe ating
ig inal
ĠL ake
) ãĢģ
è®¨ è®º
Ġinstall ed
ĠW here
, ä¸º
Ġ( '
Ġcult ural
æĺ¯ åĽłä¸º
Ġsu it
Ġclean ing
Ġconduct ed
aw n
çļĩ å¸Ŀ
Ġfriend ly
èµ ĭ
Con nect
Con nection
} /
Ðµ Ð
all ery
ist an
Ġcopy right
å®ļ ä¹ī
Ġcar bon
èĭ± éĽĦ
çļĦ åīį
åĿ ¡
Ġsen ior
Ġexper iment
ĠS earch
åŀĥ åľ¾
éª Ĥ
å°Ĩ åĨĽ
æī Ń
Ġre tain
ed ge
Ġst ores
" ))
_t r
ä¸ĭ åįĪ
_ int
m ethod
è£ħ ä¿®
ĠJ er
f alse
å°ı åŃ¦
Ġrec ipe
Ġve get
æĶ¹ åĸĦ
æ¬§ æ´²
Ġhigh light
Ġby tes
æĤ ¬
ĠM ad
Ï ĥ
çĨŁ æĤī
ï¼Į åĲİ
Ġinst ructions
Ġcompar ison
éģ µ
è° ±
Î ·
P at
in ux
k t
éĤ ¦
æĺ¾ çĦ¶
Ġ ä¸į
ãĢĤ æľī
or b
gr ade
. php
Ġredu ction
æĢ ¨
Ġart ist
ĠS ing
å¯¹ æīĭ
A SE
R S
- and
ask et
çĪ ½
æµģ éĩı
ï¼Į ç»Ļ
Ġfor ces
L ook
Hel per
ort hern
æŃ» äº¡
Ġexpress ed
Ġsp in
ĠL earn
ĠAcc ount
äºº çĶŁ
- (
åħ· å¤ĩ
æ¾ ³
E very
Ġrese arc
çĮ ľ
- on
Ġt ables
y an
ç»Ł è®¡
çļĦ åľ°
Ġprob ability
- out
å¥³ åŃ©
ĠM anager
Ġfil ed
ç¥ŀ ç»ı
Ġse vere
Set tings
Ġre action
åĮ Ģ
Ġs in
n ext
M ed
R ange
ä¼ĳ æģ¯
æľĢ å¥½
åĽŀ å®¶
Ġcontain er
Ġres olution
è¾ £
pl ot
ĠB ase
re al
Ġbre ath
G e
ac cess
çħ§ çīĩ
ä¹ĭ ä¸ĭ
Ġapp arent
å¼Ĥ å¸¸
å¾Ī å¤§
N T
ap es
èĲ¥ ä¸ļ
( j
Ġ ^
èĴ Ĥ
z ed
ĠPro v
ĠO ffic
ĠH istory
å¹² éĥ¨
æĸ ľ
è®° å¿Ĩ
èī¯ å¥½çļĦ
æĺ¯ æľī
Ġdru gs
Ġtechn ologies
æĿĥåĪ© è¦ģæ±Ĥ
å®Į æķ´
Ġn orth
å¾Ī éļ¾
çĽ ¾
Ġdisc overed
c all
æ¦Ĥ å¿µ
C ache
Ġsurg ery
N ote
Ġreve aled
ord ers
å¸¸ è§ģ
Ġinterest s
B est
os it
Ġdest roy
Ġbring s
ĠFr ank
AB ILITY
Mod ule
ell ed
æ²Ł éĢļ
åĬł çĽŁ
Ġste el
ke ys
èĤ ĸ
ra pper
b al
g u
Ġpl ugin
- v
}$ $
Ġres idents
Ġpl ays
s rc
Ġal loc
æ® ĸ
Ġrestaur ant
Ġpre gn
St ack
æ° Ľ
åĪ¶ å®ļ
Ġsc ope
en a
ig ate
éľ ¸
åįģ ä¸Ģ
Ġad opt
Ġapp s
ĠI M
[ $
/ v
, éĤ£
Ġl it
F ree
Ġpl astic
Ġreg ions
ä¿ Ĭ
H S
ç¨ Ģ
ï¼Į æĿİ
çĪ¸ çĪ¸
èİ ²
åĵ ²
R ow
j a
Ġc rypt
éĽ ķ
æĸ¹éĿ¢ çļĦ
Ġroom s
ĠPh ot
ãĢĤ ä¸į
D r
Ġcre ation
èľ ľ
åĶ ĩ
Ġd ynamic
éŃ ı
å¯ º
åĪ Ĭ
Ġch at
Ch ild
Ġpos itions
Ġv irus
k i
Ġ ãĢĲ
å¥½ å¥½
y cl
Ġj son
ild e
äºº å·¥
dis play
ap ed
Ġmeas ured
" ãĢĤ
è½¬ åĬ¨
, è®©
Ġp roud
F acebook
ç»¿ èī²
( value
Ġan x
ĠÐ ¿
The n
Ñ ĭ
æ¶ µ
Ġm sg
Ġd ra
ĠL ine
ï¼Į å¤©
åįĩ çº§
crib e
ĠDem ocr
ĠI mp
æĻº æħ§
_ ptr
Ġ\[ [@
ĠC ond
c ular
c r
ot he
V ert
åĿ Ľ
çļĦ çĶŁæ´»
Config uration
ï¼Įè¿Ļ ç§į
Ġ å°ı
Ġla un
ak s
Ġstand ing
Ġnet works
ĠGr and
åľº æĻ¯
app ed
in ations
å¯» æī¾
$ -
" I
ĠFr ance
d ated
ri ev
Ġstruct ures
åĤ ħ
In s
èĥ ĸ
Ġcons umer
ï¼Įä½ł ä»¬
all ow
C M
æĶ¾ å¼ĥ
ĠF ield
Ġrout e
å¾ª çİ¯
ĠGe orge
Ġappe ared
ï¼Į æĢİä¹Ī
Ġf n
m ut
æĪĲ æŀľ
æľĢ ä½³
ad ian
Ġtop ics
y er
Ġseek ing
åıĳå±ķ çļĦ
åĭ Ł
Ġext ended
Ġsp aces
è¾¹ çļĦ
ĠF ort
çĸ ı
es ter
Ġf if
Read er
ĠH uman
Ġcor porate
J anuary
P ORT
Ġfam iliar
äº ©
æĦŁ æŁĵ
Ġal ign
Ġdes k
/ h
ä¸ Ī
( A
a ud
Ġl ived
O nce
ä¸į åľ¨
Ġauthor ity
Ġw indows
å¹¿ ä¸ľ
æıĲ éĨĴ
ĠGerm any
ĠN on
e cho
M ar
ov al
ï¼Į ä¸»è¦ģ
int erest
Ġf ra
Ġmark ed
Ġshe l
è¶³ å¤Ł
æŀĦ æĪĲ
å¤ļ å¹´
ä¸ī å¹´
M ENT
ĠM er
ib ilities
å½ĵ åľ°
ä¾¿ æĺ¯
IV E
çŁ ©
Ġaff ili
èµ «
å¦ Ĩ
ear ning
åĮħ è£ħ
æĺ¾ å¾Ĺ
ä»Ĭ æĹ¥
Ġâ ĨĴ
! --
Ġregist ered
T ask
åģļ åĩº
is ters
ĠB rown
Ġit er
å®¶ äºº
g amma
\ right
ĠM aster
old s
Ġe lection
hip s
. I
æĹ ¨
Ġord ers
ĠDo es
ĠSoc iety
Ġour selves
åı° æ¹¾
ĠF il
è¿Ľ äºĨ
G ET
N on
åĪ« çļĦ
Ġdep ends
Ġcol lected
Ġsp ort
ĠP rom
ram es
æ¦ ľ
Ġinvol ve
Ġadult s
ï¼Į æŃ£
Ġsit ting
æİ¨ å¹¿
Ġt ab
å¦ ĥ
W here
åĪĨ éħį
ç¡ ķ
åĳ½ ä»¤
Ġas sets
éĤ ª
Ġ ä½ł
Ġent ered
Ġn ative
Ġun f
éĤ »
= None
ĠCh ange
V ari
Ġm ine
çŃĸ çķ¥
ĠComm un
d elta
Ġatt ribute
å ļ
in os
est amp
Ġtest ed
Ġtw ice
qu ad
cont rol
è¿ĺ æ²¡
èµ ¤
å¼º çļĦ
.w rite
Ġinter action
L ong
å¤ĸ çļĦ
Ġassess ment
æī ĳ
ĠE rror
ç© ·
å¥³ æĢ§
ĠP ub
Ġun ivers
Ġdes ire
ing ly
éĥ½ è¦ģ
Ġar rest
éĺ² æİ§
ĠPart y
éĺ³ åħī
Ġsign s
ĠS eries
Ġfr ag
E G
ä» °
æ¯ı ä¸Ģ
çĻ Į
è¿Ľ åİ»
_ EN
Ġaut hent
ch ron
Ġsuccess fully
S H
.. ...
Ġd uration
aw s
è·¯ ä¸Ĭ
V AL
è¿½ æ±Ĥ
Ġex it
ï¼Į èĢģ
æĳĩ å¤´
æĢİ æł·
d t
ur a
ĠS and
Ġp ul
ä¼Ĺ äºº
Ġin ner
ľ é£İ
æĬ ¹
ï¼Į éľĢè¦ģ
å¤« äºº
e h
Ġappro ved
Ġacad emic
Ġsupp osed
Ġfe els
Ġs alt
Ġme re
Ġsuggest ed
Ġres erved
Ġm ixed
Ġn ic
R ight
Ġwe ap
æĮ ¤
ĠHe ad
az z
çĲĥ åĳĺ
V ar
åģļ äºĨ
éĹ¨ åı£
ĠFr anc
çļĦ æĦŁè§ī
ï¼Į å·²ç»ı
Ġt aste
Ġenjoy ed
å» ·
å§ĭ ç»Ī
åŃ Ł
( y
åĲ ¨
ï¼Į å¤§å®¶
Ġrel ation
ere r
SE T
æ¸ ł
Ġc m
èĬ ³
èĭ į
Ġent ity
Ġc ities
æº ª
Ġt ail
Ġex cess
éľ į
Ġ å¤§
Ġ iron
Ġd inner
å°ı ç¼ĸ
ig an
T itle
Ġreal ize
Ġcon sole
ĠH and
i h
ĠC L
ä¹Ł å°±
Ġno ise
Ġtechn ique
Ġtem p
Ġcre am
ãĢĤ ä»ĸä»¬
éĩį è§Ĩ
Ġset up
ĠP rem
e per
ä»İ äºĭ
ĠGerm an
Ġbatter y
ç´§ å¼ł
ol a
âĪ Ĵ
çľ¼ ç¥ŀ
f irst
M ost
æĹ¥ åŃĲ
ä½ľ ä¸ļ
ĠM el
- qu
out s
ĠMarket ing
_ config
en ced
Ġs ummary
ip al
Ġwin ning
Ġph il
F R
åĤ »
è´· æ¬¾
Ġscient ific
Ġin ject
ĠSc ott
Ġw al
è½ °
__ (
å¼ Ĺ
Ġrepresent ation
v m
éĤ£ æł·
æĬķèµĦ èĢħ
| \
art y
th read
S k
. $
est ed
çĻ½ çĻ
æĬ ĸ
Ġm outh
ä¸Ń æĸĩ
Ġst rict
~~ ~~
æĹ¶ åĪ»
ĠT imes
å¹´ ä»£
B r
é«ĺ éĢŁ
_ y
ç½ĳ ä¸Ĭ
\ ]
ir ds
atal og
Ġjo ined
Ġf ramework
çĨ Ĭ
ĠP R
ä¸ĭ è½½
T A
Ġlimit ations
èº ²
ĠS af
ĠL u
ro ke
al ian
p et
Ġad s
åıĳ è¡¨
um mer
Ġal t
ĠE V
åĳ ¼
, è¿ĺ
Ġb oot
ç»Ļ äºĨ
LE CT
æľº çļĦ
Ġbro ken
ĠD en
Ġaw esome
Ġre nder
oc ity
Ġre b
åĩł å¤©
Ġsupport ing
Ġqu iet
ĠHel p
Ġse at
çĹ ķ
Ġform ed
åıĳ åĩº
ain ing
Ġinteg r
() ->
_ init
Ġcall back
ç¨ ¿
Ġcomp ens
âĢľ æĪĳ
Ġres istance
f a
Ġan gle
æĦŁ è°¢
ç±» ä¼¼
Ġvol unte
ĠT ur
èį Ĵ
çĹħ æ¯Ĵ
çĻ½çĻ ľé£İ
è¢ ģ
æ³ķ éĻ¢
T ube
Ġprovid ers
Ġclass ic
å¹¼ åĦ¿
æĦı åĳ³
am m
æıĲ åīį
Ġh idden
åıĳ åĬ¨
ist ent
n c
leg ate
- ex
b our
åħ¬ åĳĬ
ĠLe ague
H z
lev ision
è¯´ çĿĢ
æĦ £
Ã §
ä¿® æĶ¹
D P
omet imes
ĠRep ly
dd en
Ġindic ate
Ġ ri
å¾Ī æľī
Ġro of
ress ive
æĬ ļ
ĠD NA
W rite
é«ĺ åħ´
åĪĨ å¸ĥ
èµĽ åŃ£
D M
Ġcor rel
Ġke ys
æľŁ çļĦ
Ï Ĥ
ĠK ore
æĸ¹ çļĦ
Ġmar riage
èµ Ķ
æĢ§ åĴĮ
D evice
al i
Ġd ir
Ġk illed
Cont ainer
éĺŁ ä¼į
A uthor
Ġr ide
ãĢĭ çļĦ
å® ł
_ ,
éĤ£ ç§į
Ġg ather
ĠO k
return s
ĠW estern
ĠIm age
Ġdo gs
d en
Ġcharg es
Ġto w
Ġfac ility
Ġexc iting
åĹ ¯
æİ¥ åı£
~ \
Ġk ill
Ġbus y
èĬĤ çĽ®
T O
Ġs an
çļĦ æł·åŃĲ
Ġaccom mod
èĦ¸ èī²
Ġdel ivered
å µ
è´ ¤
ĠK now
ĠCh icago
) çļĦ
ç®Ģ ä»ĭ
éĢ »
éģ ¥
æĮ ĸ
å½ĵ ä¸Ń
Ġrecord ed
Ġpl ate
Ġm ale
- line
in ating
Ġt y
ÂłÂł ÂłÂł
Ġelect ronic
Ġbe ach
Ġstate ments
Pro t
æīĵ ç®Ĺ
ĠBe ach
ce ived
Ġlo ans
Ġt ight
Ġk ick
Ġfre edom
co very
Ġdeg rees
ĠAss ert
M M
Ġappear ance
_S IZE
E l
m g
ãĢģ å¤§
k it
å¤± è´¥
å¨ ±ä¹Ĳ
Ġhas h
ï¼Įåıª æľī
. ch
Ġb attle
æĲ º
ĠC EO
ĠD ev
Ġd a
in ates
ä¾Ŀ æĹ§
Ġgl ad
Ġmar ried
ä¸Ĭ ä¸ĭ
Ġbig ger
çľ ł
æĪ Ĵ
Ġtrans action
ĠU t
G u
æĮĩ æłĩ
Ġing redients
Ï Ģ
E ach
ä¸ §
Ġm al
Ġimprove ment
Ġfour th
( N
Ġrece iving
Ġequival ent
Ġv el
Ġso le
å¹¿ å¤§
èĤ ĥ
åįģ äºĶ
= >
s v
ĠAd minist
F ebruary
åĩ ¶
* x
çľ¼ åīį
çĽ Ĺ
-c olor
_ O
m i
- related
Ġj u
Ġst opped
ä¸¤ ç§į
Ġdi am
f ill
ok ing
Ġliqu id
æĲ ¬
ç½ĳ åıĭ
orm s
iz ont
* (
Ġpub lish
m odel
çªģ çł´
åĪĽ ä½ľ
Ġ" /
am ental
åĲĪ éĢĤ
aut o
Ġst one
Ġun iversity
Ġrequest s
ï¼Į ä¸Ń
ä¼° è®¡
çĥ Ĥ
éĥ½ èĥ½
ï¼Ł æĪĳ
è¿Ķ åĽŀ
Ġval uable
mer ce
è¿ĺ æ²¡æľī
Ġd b
ĠG al
Q ue
Ġsu dden
act s
Ġre venue
, è¦ģ
Ġc lock
av en
çĽ ¯
äºº åı£
éĵ Ŀ
éĢļ éģĵ
Ġkind s
Ġl es
ost er
TT P
m osp
Ġsuggest s
Ġ rom
in er
çī¹å¾ģ åľ¨äºİ
En c
App lication
( :
_ error
éĻ µ
Ġtell s
sh ow
b uf
ä¸į å¤ļ
Ġsh ares
EN SE
Ġ' '
- level
Ġexp lo
ĠE nergy
ä¿¡ çĶ¨
åĲ Ĭ
Ġpar se
Ġsc r
l ength
-------- ----
ĠO ptions
Ġconsum ers
ĠÎ ±
E P
Ġaccept ed
ĠN av
* n
Ġabsolut e
Ġatt orney
Ġdis p
Ġp riv
ins ert
å¯ Ħ
Ġemerg ency
s ource
ĠSec ret
Ġspe ech
ĠK it
Ġproced ures
Ġse gment
æ¤ ħ
ost on
in ite
Ġdocument ation
æĿĥ çĽĬ
O G
ĠM A
D elta
Ġbre ast
ĠWITH OUT
éĢĤ åºĶ
Ġveh icles
ĠAfric an
Ġne ut
æĥ ¨
Ġper mission
ãĢĤ åħ¶
Ġ éĤ£
Ġa id
im ary
im ens
äººæ°ĳ å¸ģ
ãģ «
Ġre pro
Ġyou th
C or
G o
H ash
ook ie
å´ ĩ
ĠV irgin
ĠV ideo
Ã ¥
ĠA ction
, åı¯ä»¥
Sh ow
U SE
Ġind eed
ï¼Įåħ¶ å®ŀ
ab els
è¯· æ±Ĥ
" çļĦ
Ġ Ø
qu are
ãĢĤ éĤ£
Ġofficial s
éĨ ī
ter day
l ights
åľ¨ ä¸Ģ
ĠD ownload
urb an
rep rene
ä¸Ģå®ļ çļĦ
å¹´ é¾Ħ
os oph
Ġa cknow
è¯Ĩ åĪ«
æīĢ ç¤º
åĤ ²
Ġc ir
ãĥ ¼
An other
M any
Ġart ists
Hand le
x FF
ä¾Ŀ æį®
Ġwor se
çĪ ¬
Ġext ent
ĠE conom
m essage
Ġinvest igation
ĠĠĠĠĠĠĠĠĠĠĠĠĠĠĠĠ ĠĠĠĠĠĠĠĠĠĠĠĠĠĠĠĠĠĠĠ
a ul
èģĮ å·¥
et her
Acc ording
Call back
éĢĤ çĶ¨
{ eq
Ġend s
iver se
ç¬¬ äºĶ
Ġeval uation
ä¸į è§ģ
i est
é¼ ł
é»Ħ éĩĳ
B I
æĻ ´
éĿ© åĳ½
Ġ ä¸ī
ĠW all
ĠA P
nd ef
Ġcomp rehensive
Ġreli able
Ġsche me
ä»ħ ä»ħ
è£ħ å¤ĩ
ä¼ł æĴŃ
ĠSe lect
* t
Ġplatform s
Ar gs
Ġdoll ars
Ġany where
Ġestim ated
Ġtyp ical
è§Ĥ ä¼Ĺ
Ġprom pt
æĥħåĨµ ä¸ĭ
Ġexpos ure
ä»£ çĲĨ
ï¼Įä»ĸ çļĦ
in stance
re v
ĠO ct
g ers
ĠAt l
åĪº æ¿Ģ
inter face
ï¼Į âĢĿ
Ġoffic er
ire ment
Ġhous ing
ĠP eter
ç¼ĸ è¾ĳ
ä¼ĺ è´¨
çī¹åĪ« æĺ¯
Ġst ret
åĩº çĶŁ
Ġsh ock
................ ................
ç¥ ¥
x ml
Ġgood s
ail ability
èĤ¡ æĿĥ
ir al
èĽ ĩ
Ġl ayout
ĠO S
Ġcharacter istics
Ġm it
Ġconcern ed
Ġ[ "
ĠM ot
æĤ Ħ
ST R
h and
_c ode
æĶ¾ å¿ĥ
åĽĽ ä¸ª
C ar
ĠD igital
Ġmat ters
Ġco ach
æ» ĭ
æĢİä¹Ī æł·
æħ İ
æĥ §
) ãĢĤ
ä¸Ģ èĩ´
Ġgu ests
çļĦ æ°Ķ
çĦ Ĭ
Ġapprec iate
æľŁ å¾ħ
B efore
è§Ĥ çĤ¹
________ ________
. prot
) ^
h op
ribut ion
Ġk ing
Ġm g
Ġus ual
it ems
Ġiss ued
ynam ics
Ġm ilk
ĠB er
çļĦ åİŁåĽł
Ġcandid ate
Ġfrequ ently
ĠTr ust
é«ĺ åº¦
Ġcomp r
ut ton
J son
ref erence
æĥ³ è±¡
em pl
ç¬ĳ äºĨ
æĳ ĺ
S ave
æĬ Ľ
Ġf ellow
m ain
Ġengine ering
Ġrelig ious
Ġsav ed
å§Ĳ å§Ĳ
æĭĴ ç»Ŀ
ï¼Į ä¸ĭ
éĥ¨ çļĦ
IT E
ĠUp date
è´¸ æĺĵ
Ġpay ing
Ġsong s
Ġ( \
r ho
li k
an ish
; ;
æį ķ
. put
æ³ µ
çĶµ åĬ¨
Ġemploy ment
ag raph
Ġhealth care
ĠE U
Ġemot ional
Ġ' /
Ġturn s
éº» çĥ¦
ãĢĤ è¯¥
ĠRober t
ĠAr g
ol umn
ĠP ract
Ġfurn iture
æĬ¥ åĲį
Ġmov ies
éĿ¢ ä¸Ĭ
Ġne arest
å°ı å¿ĥ
æĪĸ è®¸
å¹³ æĹ¶
ï¼Į çĶ±äºİ
Ġgr ade
se ct
çĥ ¤
è´Ł åĢº
åįģ ä¸ī
Ġcitiz ens
ĠEx ception
Ġs ac
Ġmach ines
Com ment
_f l
Ġencour age
Ġ æĿİ
Ġ Ñģ
åħ¬ å®ī
åĽ¾ ä¹¦
u ing
æ¼ Ĩ
ĠThom as
Val ues
or ough
ĠLoc al
ĠAmeric ans
_t est
Ġserv ing
Pl ayer
* d
åĲ¸ æĶ¶
ï¼Į åĲĳ
m o
V D
Ġm and
åĲĮ æĦı
ï¼Į æ¯Ķå¦Ĥ
Ġout comes
* s
Ġinstall ation
åĢº åĪ¸
Ġant ib
r ary
ĠC ost
ä½ĵ çİ°
> &
Ġeduc ational
âĢ¦âĢ¦ âĢĿ
Ġfant astic
Ġentire ly
æ· ĺ
Ġpand emic
ult y
Ġspe aking
Ġr an
Â Ń
Ġm ath
- k
Ġcris is
Ġcru cial
ĠC up
Ġn odes
æĮĩ æĮ¥
åĲİ éĿ¢
ï¼Į æľĢåĲİ
raph ics
r b
Ġhistor ical
Ġ ç¬¬äºĮ
* p
çļĦ ä¸»è¦ģ
r un
ush ing
æģ °
Ġblock s
å¹¶ ä¸Ķ
typ es
u ction
ä¹Ł è®¸
Ġsit uations
Ġposs ibility
En ter
Ġf ruit
) ).
ĠA L
å¤§ äºº
ĠEx ecut
ĠS er
or se
ĠS H
ä¹Ł è¦ģ
Ġcalcul ated
æ£ Ĵ
å¾Īå¤ļ äºº
äºĨ ä¸ª
Ġus age
im ize
d ouble
Ġadminist r
ï¼Į åħĪ
- like
Ġun known
ĠR ight
ial s
çĩ ¥
" ;
By tes
Ġc ere
äºĭ æķħ
og a
ome ga
Ġev olution
. new
æĭ Į
Ġfore st
æŃ» äºĨ
ĠB ob
åħ³ èģĶ
n ormal
ĠL ibrary
ĠCon nect
ä¸į åĩº
. on
, åı¯
ĠJ un
Ġep isode
Ġc aught
_ log
Ġfab ric
Ġc abin
åł ¡
é¡º åĪ©
æ¡ ĳ
og rap
ell ant
.S et
Ġfl ight
th let
ap pe
ĠInst ead
æ¼Ķ åĳĺ
ĠN eed
": "
Ġexpl icit
C ell
ĠOb ama
çĶµ åİĭ
* m
ç»Ļ ä»ĸ
å¾· åĽ½
çī© æµģ
æĲŃ éħį
ĠC R
/ S
Ã ¨
çĽĳ ç®¡
erv es
ĠInst agram
ï¼Įåħ¶ çī¹å¾ģåľ¨äºİ
ĠI r
çļĦ åĲĮæĹ¶
ĠA I
up le
Ġpol l
Ġconf irmed
æĮĩ åĩº
åĤ ¬
æĭ ¨
çº· çº·
è¯´ å®Į
igh ter
ãĢĤ ãĢĤ
W S
< div
ig r
æķ° åŃ¦
æµĻ æ±Ł
B UG
è¿ĺ ä¸į
ä¿ ©
èŀį èµĦ
ĠF ederal
ä¸Ģ æĿ¡
å¼ķ å¯¼
Ġcr ime
pl an
C ore
æĿ Ń
Ġdes ired
t ml
Su pport
Ġgr id
çĲĨ æĥ³
åį³ ä½¿
Ġs ad
ĠĠĠĠĠĠĠĠĠĠĠĠĠĠĠĠ ĠĠĠĠĠĠ
è° ¨
å« Į
du ction
Ġ ip
æ¼Ĥ äº®
ĠW ay
è¦ģ æĺ¯
ul ous
J ohn
æĮĩ æķ°
åŁ ĭ
è¦Ĩ çĽĸ
Le ave
å¤§ å°ı
m ega
abet es
A v
åĢĴ æĺ¯
. out
******************************** ********************************
ĠF ollow
ĠB ur
åĪĨ åŃĲ
Ġpay ments
ok es
ĠB ox
ï¼Į åĲĦ
( X
å¤§ åĪ©
å± Ī
æ°Ķ çļĦ
Ġcrim inal
å¥³ åŃĲ
ä» ĩ
fo ot
Ġlink ed
æĢĿ ç»´
Ġsk ill
è¡¥ åħħ
éĢļ ä¿¡
çī §
Ġthe rm
æĸ ¤
k ins
Ġoccur red
] :
angu ages
_ AD
Y S
Ġdec ades
/ l
Ġch annels
Ġfor ced
ul f
Ġknow ing
ĠVal ley
p ol
ĠS ource
å¿ Į
åĳ³ éģĵ
Id ent
ĠS QL
Ġfor th
ĠPH P
Ġ$ {\
Ġag ents
B uild
æħ °
Ġplan e
Ġam b
ĠL im
ĠS pe
èĽĭ çĻ½
ere n
åĽ¾ åĥı
av as
clos ure
Ñ Į
AS K
Ġris ks
u ous
ĠLou is
comm on
åĩºçīĪ ç¤¾
å¥ ´
T ags
ĠAn other
Ġtrou ble
Ġr ough
èī ³
Ġc ache
F igure
ocol ate
Ġex port
Ġp ump
Ġlo vely
åĩł å¹´
( void
T wo
åħ¬ åĽŃ
ur se
ĠRuss ia
_b ack
èĬ Ĵ
= (
æľĢ å¥½çļĦ
Ġadv is
Ġliter ature
æ¶ Į
n ap
Ġinv al
lo or
OM P
ir ms
Ġper man
Ġpur su
ist or
Ġmass ive
t arget
Ġdesign s
N N
ĠC S
F P
Ġgen es
Ġp adding
Ġsh ipping
è´¡ çĮ®
Ġindust rial
Ġclos er
, å¥¹
Ï ħ
. Is
B it
å¤§ éĥ¨åĪĨ
umm y
æīĭ æ®µ
Ġcontinu ous
b rid
Ġprinc iples
å¹¿ å·ŀ
Ġjud ge
è½¬ æį¢
ist ical
Ġser ial
ï¼Į ä¸ī
æŁ¥ è¯¢
å¹³ è¡¡
ĉĉĉĉ ĉĉĉ
Ġass ign
åī ª
Ġf ell
å¨ ĩ
* b
Ġt ut
Ġmonth ly
æİ¥ æĶ¶
ĠKe ep
è£ħ é¥°
çĵ ·
Exp ression
åķĨ åĬ¡
æİĴ åĲį
ä¸Ģ ç¬ĳ
Ġax is
{ "
ĠRuss ian
F ound
a fter
ãĢĤ ãĢĬ
ĠWhe ther
( L
ge bra
/ (
.f ind
ç§į æ¤į
ĠB efore
ç¢ Ĺ
æĹ© å°±
ĠOr der
Ġs ister
æľ¬ æĿ¥
Ġco vers
ĠH y
Ġsub t
G A
Ġal cohol
Im pl
å®ŀéĻħ ä¸Ĭ
Ġfav our
CT ION
By te
ap h
Ġcontrol s
ĠIns urance
ĠSh ould
Ġbeg ins
ĠW il
ĠW al
Ġt mp
Ġmain ly
Ġaccur acy
è¿ĺ èĥ½
å·¥ä½ľ çļĦ
ĠJ o
Ġan s
M ain
Ġcontain ed
åĮ» åŃ¦
Ch annel
åĲ ķ
æ»¡ æĦı
Ġj ur
G en
Ġd raft
t au
Ġm el
Ġjust ice
ĠS C
æľĢ æĸ°
ĠO ption
åįļ å£«
Ġexpert ise
Ġdep art
Ġz one
Ġpercent age
t ag
ch ain
_N AME
I E
b urg
åį §
å¼º è°ĥ
D ownload
èģ ª
æ¸ ¡
åľ° è¯´
c uss
å°± ä¸ļ
Ġcharg ed
Ġprof it
å¤ĸ éĿ¢
on a
sh ould
Ġann ounce
æĹĭ è½¬
FA ULT
ï¼Į æĤ¨
Ġfac ilit
ĠT own
Ġher self
) arg
èį¯ çī©
Ġis land
Ġneg ot
é¥ ±
éĹ ·
Ġsol ar
Ġgu ard
play er
åħģ è®¸
M ake
v a
ä¸į åı¯èĥ½
Ġcol our
åŃ Ŀ
ĠMay be
ict or
æĪ¿ åŃĲ
n el
. \
. sp
ãĤ ĭ
å¹² åĩĢ
ip eline
æıĲ ç¤º
s he
ï¼Į æķħ
Ġdest ination
id ers
ĠS up
ĠD O
Ġv oc
G oogle
* c
Ġ äºĮ
çļĦ ä½ľçĶ¨
,èĢĮ ä¸Ķ
i pt
ĠB lock
Ġrecogn ized
ãĢĤ ï¼Ī
Ġcont ents
Ġt ough
Al so
âĶ Ģ
Î »
Ġc ategories
* i
Pro perties
Ġindic ates
Ġ å¦Ĥæŀľ
Ġn urs
åİ» å¹´
ï¼Į èĥ½å¤Ł
Ġp in
å½ ¹
åĵ¥ åĵ¥
}$ ,
Ġcriter ia
ä¸¾ åĬŀ
ç¬¬ ä¸Ģä¸ª
ĠD C
è¯´ è¿ĩ
se cond
S ession
ul ner
_l en
Ġreli ef
t emplate
Ġest imate
æĺ¯ è°ģ
On ly
Ġeval uate
åı ł
Ġinter act
l ers
Ġhouse hold
R ect
* f
Ġ ä½Ĩ
Ġanaly ze
æĪĲ éĥ½
è¾ ¨
* y
ro g
Ġmat ches
æµ ´
Ġhundred s
çĤ¹ çļĦ
raz y
èµ¶ ç´§
Ġimag ine
r ance
m ond
æ³ Ħ
Ġe lev
ï¼Į å¼ł
à ¦
Ġto m
ĠF re
Ġindic ated
åı¬ å¼Ģ
ĠMore over
Ġpers ons
Ġas ync
æĲľ ç´¢
Ã ¢
Ġse ed
èµ° åĪ°
. k
è¿Ļ ä½į
( z
us es
ç»ı åħ¸
Ġsc an
Ġcomm ission
Ġsu c
A ST
Ã £
çī© çĲĨ
æĦ ¤
Ġvers ions
çļĦ ç¬¬ä¸Ģ
Ġform ation
- W
Ġbring ing
å¼Ģ åħ³
_ res
put e
.t xt
çİ°åľ¨ çļĦ
å°½ éĩı
Ġâ ī
ĠÏ Ħ
Ġappro aches
ãģ Ĺ
pen ame
çĭ¬ çī¹
æĢ» ç»ĵ
è± «
ĠCont act
Ġcreat es
åįĥ ä¸ĩ
ä¼ļ åľ¨
Ġc rack
B ig
âĢĶâĢĶ âĢĶâĢĶ
IC ENSE
d ict
ĠS E
Ġex ceed
ĠSt at
ä¸ĵ éĹ¨
sw er
Ġwe alth
Ġexist ence
Ġrefer red
ĠE R
Ob j
. V
å¼Ģ å¿ĥ
ac le
Ut il
* r
ä¾ į
äº§åĵģ çļĦ
Ġocc urs
æĲ ħ
Ġl ux
ĠD u
ç½Ĺ æĸ¯
Ġcandid ates
è¿Ľ æĿ¥
Ġj oy
Ġbr ands
Ġf ly
P ay
çł Ĥ
ĠJohn son
ĠHot el
å°º å¯¸
ĠMin ister
åĭ ¾
Ġgrant ed
Acc ount
ĠA ward
ç»ĵ å©ļ
f ont
ä»Ķ ç»Ĩ
Ġcommit ment
Ġoccas ion
èĸ ª
riend ly
é¥® é£Ł
Ed it
N e
é¢Ħ è®¡
| |
çĺ ¦
w ater
Ġinf ection
é«ĺ çº§
Ġre new
ç³»ç»Ł çļĦ
requ ire
Ġre ct
Ġdanger ous
izont al
iff erent
Ġw el
çŃī å¾ħ
iss ions
Ġout door
ãĢĤ å¯¹
åĴ ĸ
'] ['
od d
æķ´ çĲĨ
è¿Ľ æŃ¥
Ġst able
åĩº çİ°åľ¨
åħ¬ ä¸»
Ġinf rastructure
Ġh ook
çľŁæŃ£ çļĦ
/ lic
T witter
ä¼ł æĦŁ
R un
Ġmechan ism
Ġexpl an
ï¼Į å¿ĥ
ul ing
åį ¢
çīĪ æľ¬
ert s
å°± åĥı
Ġd ialog
ĠCom ment
åħ¬ ä¼Ĺ
) ]
r int
Ġneighbor hood
çļĦ æ°´
çĲ ³
Ġchalleng ing
åķ ¥
æ³ķ åĽ½
* a
ï¼Į æıĲé«ĺ
Ġ ..
Ġsw im
ĠFin ally
Ġde als
p ass
åŀ «
é»ĳ èī²
ï¼Į éģĵ
èĤ ļ
Ġimp ossible
åĪ ł
ĠPr int
æµ Ĩ
Ġg ro
U ID
åľ° ä½į
Ġun able
Ġlim its
Col lection
raint s
Ġat mosp
ĠJ im
aw ay
ä¼Ļ ä¼´
å±ŀ æĢ§
j i
H igh
Ġnav igation
ĠRich ard
ĠL oad
ï¼Į è°ģ
æĻ °
add r
H ave
Ġen abled
Ġre put
I RE
çº¢ èī²
è¿ Ī
Ġtiss ue
Ġconcent ration
Rec ord
Ñ ĩ
Ġlaun ched
å¼Ģ åĲ¯
ä¹Ł å¾Ī
Ġli ber
ĠEn vironment
D el
str ong
contain er
Rec ent
Ġmus cle
ï¼Į éĥ½æĺ¯
åİ Į
osp it
åĵ ¼
ult ural
å¤§ äºĨ
Ġpl ug
Ġel ig
tern oon
* g
Ġc ro
äºº å®¶
Ġmonitor ing
æŀľ çĦ¶
Ġguarant ee
æĶ¶ éĽĨ
æĦı å¤ĸ
amb ling
a is
åĨł åĨĽ
* v
. âĢĻ
ä½¿ å¾Ĺ
è´Łè´£ äºº
Ġw arn
Ġ æĹ¥
ĠL os
Ġd uty
ĠN or
é¢Ħ æµĭ
_ en
. z
Ġpresent ation
iz z
od ule
os ph
çĹĽ èĭ¦
çł ĸ
yt es
R T
_ url
å·¨ å¤§çļĦ
Ġp ed
Ġh un
ĠJ ose
Ġmed icine
å¤© æ°Ķ
Ġpr ison
Ġarriv ed
eng er
èĦ Ĩ
Ġn ine
um es
ed it
Ġb es
Ġrespons es
Ġconf lict
{ d
.s ub
r ition
IG N
åħ¶ å®ĥ
Ġv en
Ġhe ro
Ġs izes
Ġen v
ä¸» æĮģ
que ue
Ġresearc hers
rodu ction
a ver
æ¡ Ĥ
G ood
Ġb an
Ġmanufact uring
def ined
ĠTh rough
å¾ĭ å¸Ī
Ġco ast
Ġcalcul ate
ï¼Į çİĭ
Ġcons c
Ġsupp lement
çħ ®
ĠĠĠĠĠĠĠĠĠĠĠĠĠĠĠĠ ĠĠĠĠĠĠĠĠ
Ġsu p
Ġne ck
ĠE p
our se
ĠâĢ ¦
Ġord ered
j u
ãĤ Ĵ
it z
pro ject
ĠĠĠĠĠĠĠĠĠĠĠĠĠĠĠĠ ĠĠĠĠĠĠĠĠĠ
ãģ Ł
avas cript
* h
Ġsp ons
Ġph arm
çľĭ èµ·æĿ¥
Ġout come
Ġrequest ed
* k
.c ore
äºº å£«
in em
n umber
è®¾ç½® æľī
åıĳ éĢģ
æħ Į
Ġdet ection
_ array
ĠJapan ese
reg ion
Ġvis ible
qu ir
çģ Į
æĪĲ çĨŁ
ĠP ass
* w
ï¼Į çĽ´æİ¥
* z
Ġlight s
H ost
éħ ·
B ody
ad min
à ¥
å¿Ĺ æĦ¿
æĴ Ĵ
è´¢ æĶ¿
Ġin n
Ġso il
ip her
_ class
Ġnames pace
n ic
ĠC y
åĲĮ ä¸Ģ
Ġbrow n
Ġfood s
Ġexecut ive
. res
Ġinform ed
Ġb acter
åħ¬ è·¯
ç®¡ éģĵ
? :
}} \
Ġte a
åŃ©åŃĲ çļĦ
Ġparticip ate
Ġen force
Ġcent re
IM E
Ġtell ing
çĶµ æºĲ
åĲĦ ç±»
è¯ķ éªĮ
ä¸¾ è¡Į
ĠCont ent
N C
å®¶ æĹı
Mat rix
Ġachie ved
åıĳè¡Į äºº
* l
Ġreal ized
Ġreport ing
_t ext
* q
èĤ ¾
w as
Ġ{ }
Ġreg ulations
å¥ĩ æĢª
Ġcont ribute
_ read
Ġinvol ves
çħ ³
re ens
Ch anged
Ðµ Ð½
åĨľ æ°ĳ
% çļĦ
Ar ch
l ass
* u
Ġdri vers
Ġb ike
Ref erence
AL SE
ä¸ľ æĸ¹
Ġnecess arily
Ġo x
, -
ï¼Į æł¹æį®
äºĨ åĩł
Ġatt ributes
åı¯ä»¥ åľ¨
çĽ´ æĴŃ
åĶ ¤
ĠM useum
( u
.... ..
ĠAs ia
Ġd ict
ç®Ģ çĽ´
æĺ¯ æĮĩ
It ems
ï¼Į åĬł
Ġwe aring
åĽĽ å·Ŀ
çļĦ åŁºç¡Ģ
éĺ ģ
//////////////// ////////////////
r ig
ĠS ports
çº¤ ç»´
Ġme at
Ġstud ied
Ġcap able
Ġch art
ĠS ar
Ġmod ified
Ġinvest ors
Ġinsp ired
* j
ï¼Į ä¸ºäºĨ
ub y
Ġext ensive
Ġimplement ed
Ġcorrect ly
ï¼Į æīĭ
Ġinstitut ions
um ps
ĠS ite
æĬ ¼
Ġb inding
ĠO p
å» ī
Ġrepe ated
ãĢĤ èĻ½çĦ¶
Ġman ual
Ġcompet itive
u ilt
el ly
ic an
ĠL ive
ion e
Ġ\ "
æĬĢ å·§
ä¹Ł åľ¨
_P RO
Ġcont rolled
ä¸ «
âĳ ł
åı ī
_C H
Ġcl ar
çĤ¹ äºĨ
l ife
å²Ĺ ä½į
ä¸Ģ å®¶
åįģ åĽĽ
å¤§ å¤ļæķ°
æ¬ º
ĠÐ ²
éĶ Ĳ
æĴ ¤
Ġalleg ed
ĠConf erence
I ter
ĠAnal ysis
ä¸» ä½ĵ
Ġb atch
Ġnot iced
ç¬ĳ å®¹
Ġres id
Ġch ief
Wh o
ĠB O
Ġplan et
st ood
(f unction
Ġorgan ic
é¢ ĩ
ĠTra vel
Ġb its
ang o
Ġe c
and on
( F
hel p
Ġinv ent
Ġcrow d
Ġbl ess
W idget
äºĭ åĬ¡
Ġp apers
Ġcomp at
et ry
ĠL ee
V ol
Act ivity
and roid
Ġj ury
å°Ŀ è¯ķ
æĪ¿ å±ĭ
åĲĪ å¹¶
app oint
ĠR un
Ġs oul
è¡ °
G S
å¿į ä¸įä½ı
âĢľ The
Ġacc ord
c ar
ä¸į ä¸Ĭ
åł ª
ĠCent re
G r
( true
ĠAr ts
ãĢĤ è¿ĻäºĽ
Ã³ n
åĪ© äºİ
ire ctions
Ġhappen ing
_m ap
Ġm ur
Ġor ient
æĪĳ æĺ¯
ĠPl us
ĠW in
Ġregist ration
åĨ »
p ub
èŀį åĲĪ
ĠU I
ĠF L
Ġar bit
Ġre ward
ĠT our
T emplate
Ġfor t
Ġperfect ly
å·¥ èµĦ
æī ®
Ġpurch ased
å¤§ æ¦Ĥ
ĠSystem s
è£ ¤
ï¼Į åĽł
ï¼Į åīį
ĠI L
åįģ åħ«
Ġpro port
Ġme al
ãĢĤ å¦Ĥ
æī ĩ
ĠM en
æİ ©
çĲĨ çĶ±
æ¯« æĹł
u an
ĠT ax
çļĦ èº«
ĠB oston
ĠPl ace
æ³ķ è§Ħ
ic ing
Ġl ib
Ġunc ertain
J oin
çĶŁ éķ¿
ur able
t ab
Ġwarrant y
çº¿ ä¸Ĭ
Ġassoci ation
æĭħ ä»»
He alth
åĬ Ŀ
ï¼Į æĸ°
Ġoffic ers
V M
Ġcare fully
il ton
ï¼Į æ¯ķç«Ł
ateg y
oper ator
åĲĥ é¥Ń
_ EX
* o
_ user
Ġcon clusion
æİ¢ ç´¢
ĠC ross
ĠReview s
Ġder ived
Ġgrow n
Ġhard ware
ĠC irc
L eft
Ġup load
cent er
Ġcert ificate
Ġregular ly
æĺ Ĩ
Ġkeep s
Ġform al
æµ ĳ
èĭ ¹
Ġdes c
Ġhum ans
å© ´
Ġrepe at
t ons
Ġsuc ceed
éĩĩ è´Ń
çļĦ æĬĢæľ¯
Ġs ick
Ġco e
çĮ İ
åıĮ æīĭ
Ġmom ents
Ġguid ance
Ġadv oc
æŁ¥ çľĭ
ĠW H
ï¼Į åºĶ
( !
is a
-m ail
Ġde posit
åĽ Ĭ
æħ Ī
åĳĪ çİ°
ow nt
est yle
åįģ å¹´
.A pp
èº º
[ j
ĠG ive
ä»¬ çļĦ
ä¹Ł ä¸įä¼ļ
{ R
Ġfig ures
p ons
s im
Ġcl uster
om es
Ġj ack
äºĨ åĲ§
è¡Ĺ éģĵ
æ£ ī
ĠTh ose
- off
Ġcapt ure
ab b
Ġbelie ved
çŃī çº§
ĠC urrent
åıĳ çļĦ
Ed itor
Ġrepresent ed
Ġt aught
oper ation
åĲĦ é¡¹
ĠArt icle
pon ents
f riend
Ġp or
æ²³ åįĹ
é¢Ħ éĺ²
ĠI F
Ġt ast
atur ally
Ġ\ \
Ġ ä¸įè¿ĩ
åħ¬ å¸ĥ
äºĨ ä¸ĭæĿ¥
Ġpart ial
Ġk m
ĠL i
éĺ Ķ
ï¼Įä¸į è¦ģ
åħļ åĳĺ
ĠF ROM
Ġbr anch
ĠCh ildren
Ġpark ing
Ġafford able
Ġcut ting
ĠE ss
_ X
low er
Ġprogram ming
Ġconsequ ences
is p
vent ional
ĠP op
Ġcons ists
Ġsubject s
othes is
éĢ» è¾ĳ
èĳ ¡
ĠCh ief
ãģ ¦
æĹ¶ å°ļ
ĠApp lication
ut ter
Ġ å¼ł
Ġviol ence
ĠUS B
å¾ ½
Ġrecogn ize
-s ize
ser ver
Ġg ender
å² ³
äºĨä¸Ģ äºĽ
e en
Ġshe ll
æĹ º
Ġinst ruction
ĠE mail
æī¿ è¯º
Ġar ms
ĠWARRANT IES
equ als
i ary
ĠJ ones
Ġfl ags
Ġd ance
Ġtest im
Sub scribe
P RO
å¼º åº¦
Ġinnov ative
è´ ¾
ĠW atch
/ C
s d
éĥ½ æ²¡
Ġconstant ly
Ġwhe el
Ġch apter
oc ial
Ġs ections
( string
c ard
fig ure
se m
ï¼Į è½¬
D ocument
åı¦ ä¸Ģä¸ª
Ġguid elines
Ġcrit ic
ä¸Ģ ä½į
ĠH en
ï¼Į å¸ĮæľĽ
å¤§ åŀĭ
Ġown ed
æģ ¼
Ġpass ing
ãĢĤ å®ĥ
G reat
Ġprem ium
Ġexp ansion
ĠW rite
æ±Ł èĭı
rit ten
Ġfil ms
Ġsh oes
çĥ ¯
å¯Ĩ å°ģ
ï¼ī çļĦ
çķĻ ä¸ĭ
Ġbuild ings
èĢĮ ä¸Ķ
_T R
Ġatt ached
ĠH aw
æĪĲ å°±
Ġb read
Ġbo ys
ãĢĤæŃ¤ å¤ĸ
Ġre plic
Ġexpect ations
å®ĺ æĸ¹
ĠSt ore
c ap
ĠÎ ¼
Ġdim ension
c raft
F ull
ä»İ æĿ¥
åİŁ çĲĨ
Ġshe et
åģľ æŃ¢
æ¯ı æ¬¡
Ġf o
ï¼Į éĻ¤äºĨ
Ġfund amental
we ek
ach ment
ĠMart in
Ġsex ual
å¢ ĵ
æĦıåĳ³ çĿĢ
æĭį æĳĦ
Ġcook ing
å¼ ¥
Ġslow ly
f c
çŁ Ľ
åı¯èĥ½ æĺ¯
Ġs essions
çĸ ²
æİ¥ ä¸ĭæĿ¥
æµ ¸
å¤ª å¤ļ
ar ation
é ³
or al
ul s
æµĭ éĩı
Ġf old
onym ous
ĠÐ ½
è®¿ éĹ®
ãĢĭ ï¼Ī
Ġch icken
P N
çĻ¾ å§ĵ
ĠS elf
å°ı åĮº
Ġdecre ase
at re
éĿ¢ ä¸´
Ġm ock
Ġinteg rated
Ñģ ÑĤ
av ed
Ġinstr ument
åºĶè¯¥ æĺ¯
AR D
ä¸Ģ éĺµ
Ġte ch
fol io
Ġg lo
En abled
è¾ ½
Ġun iform
it led
! âĢĿ
ex tern
ĠP ART
_ERR OR
ãĢĤ åı¯
Ġdig it
å¤Ħ çļĦ
Ġd ump
ä¸Ģ åĲį
Ġdo ors
åł µ
ĠB ible
ur i
_st art
ãĢĤ è¿Ļä¸ª
r ase
M ark
ĠGe org
Ġconsider ation
ĠTra ining
Ġn om
ath y
ä¸Ń åŃ¦
RE S
æĹł æķ°
éĥ¨ éĺŁ
ĠS ize
As ync
st ore
çĥĪ çļĦ
ian a
s in
åº ŀ
. a
æĽ´ å¥½çļĦ
l ate
Ġte eth
.print ln
æīĢè¿° çļĦ
y es
æ¸ħ æĻ°
Ġcou pl
as ic
Ġ river
N ames
èĩª ä¸»
cer ning
çĭ ±
Ġg al
æŃ¦ åĻ¨
} (\
_n um
ĠCan adian
ç¤º æĦı
ä¼ģä¸ļ çļĦ
ĠA rab
ĠP ath
Ġro les
Ġl unch
çł´ åĿı
Ġsurround ing
çĽ Ĩ
ï¼Ł ä½ł
åĪĻ æĺ¯
Ġrout ine
Oper ation
å®¤ åĨħ
çŃ ĭ
ç»Ĩ èĬĤ
ĠAngel es
Ġy ellow
w est
A pi
at i
- E
ï¼Į æ¯Ķ
ĠEngine ering
èĨ Ģ
ĠMex ico
ĠG ar
æ± ģ
Ġwall s
ĠComm on
ĠCol l
k es
ĠE st
ä¸į ç®¡
æŃ¦ æ±ī
åĮº åĪ«
ãĢĤ çİ°åľ¨
Ġ/ >
Ġnorm ally
éĩį åºĨ
ĠL ess
å¼º åĮĸ
Ġnuc lear
ĠP rivacy
æ²» çĲĨ
. text
ĠP S
Ġl atter
Ġgu est
è¢ ĸ
it is
Ġact s
å±ķ å¼Ģ
Ġoper ate
ĠP DF
Ġmiss ed
æĺİ å¤©
å« ģ
ĠFin ancial
erm an
. In
Ġpotential ly
Ġp it
Ġinteg ration
w ing
æİ¥ è¿ĳ
Ġind epend
Dis play
Ġaccess ible
å¯¹ åºĶçļĦ
æĪĲ çļĦ
ield s
ĠH ard
çļĦä¸Ģ äºĽ
Ġexperim ents
ĠD eb
åĺ ¿
Ġwid ely
ist ed
o op
ĠF unction
# '
ĠSc ot
Ġprior ity
Ġaf ternoon
ĠC lean
åįĹ äº¬
ategor ized
Ġfac ing
Ġ ``
Se cond
å¤© çĦ¶
æ· ĭ
Ġpl anned
Ġa st
Ġrepl aced
c or
ä¸Ģ çīĩ
ç»Ļ äºĪ
h av
enc ing
è´ º
éĥ½ åı¯ä»¥
ick et
Ġelect ron
Ġequ ations
è´ ¼
C lose
Ġf ro
Ġun ion
ĠC BD
Ġf ib
An al
Ġbath room
ä» ²
Ġcontinu ing
ãĢĤ æį®
_ per
it ar
; &#
Ġcur ve
Ġcirc uit
èĦ ¾
Ġ" ,
Ġattack s
æŁĲ äºĽ
Ġv eter
ĠW orks
il arly
æľ¬ äºº
Ġdis miss
ce ive
]{ }
è¯ ±
Ġi Phone
æĺ ı
ä¸Ĭ åįĩ
åİī å®³
x i
Ġsubstant ial
Ġdi verse
Ġ å½ĵ
ĠG ames
èĭ¹ æŀľ
ĠO il
ap se
åĲ ŀ
ĠC ir
ĠDef ault
Ġclos ely
éĨ ĩ
ä¾Ŀ æ³ķ
ç© Ĩ
or gan
Ġcon crete
è° Ĳ
ĠL ow
_ UN
Ġel if
Ù ħ
ru g
åĨ³ çŃĸ
çľ ¸
æĥħ æĦŁ
æ¸ł éģĵ
b rief
/lic enses
P arser
V er
ĠP enn
Ġt ou
Ġab use
æľī å¤ļ
Ġ æĺ¯
Ġinnov ation
Ġ( [
ç©¶ ç«Ł
ĠS erver
at he
ç¥ Ń
clud es
. __
Ġte levision
ĠFurther more
Ġpen al
è°¢ è°¢
Ã£ o
LO CK
ious ly
çŀ §
I AL
hold er
Ġconven ient
ĠW alk
}$ .
Ġobject ive
hold ers
Ġadd s
æĤ Ķ
èĢ ¶
ĠYou ng
ax is
éĥ¨ ä»¶
-> _
è´§ å¸ģ
å¨ ĥ
Ġbo at
_ of
T rack
ac ific
ad v
ä¸Ĭ åįĪ
Ġult imately
F loat
ä¸´ åºĬ
Ġfeel ings
g b
æĳ Ĭ
i ac
ĠB E
ore t
æĻ ĥ
Ġhor se
Ġfound ation
: \
f oo
ĠV ector
, å°Ĩ
Ġprom ise
Ġsc al
V ideo
as hed
Ġinc ident
ĠC ast
ãĢĤ å¯¹äºİ
èī °
Ġconcept s
ĠPar is
è§£ æŀĲ
ĠAre a
Ġn a
æĪ¿ åľ°äº§
r ink
ter y
const ruct
Pl ay
Ġs au
st al
( G
t ed
ï¼Į äºİæĺ¯
Ġdise ases
\ _
Ġj e
{ }
Ġconnect ions
Ġinst ruct
ä¸Ģ ä½ĵ
çĶ¨ æĿ¥
Ġsecond ary
.d e
Ġad j
Ġinter ior
Ġtrans formation
ĠCh ris
ï¼Į éķ¿
' |
æĪĳ è¯´
å²ģ çļĦ
æķ ²
Ġposs ess
_ con
( err
Ġfol ks
åĳ¨ æľŁ
.n ext
F E
Ġopp osite
ĠB al
b ur
w s
re nt
æ¯ı ä¸Ģä¸ª
Ġdel icious
é¼ĵ åĬ±
Ġrequire ment
/ M
S im
å·® å¼Ĥ
Ġl ift
Ġt ub
l ot
ãģ ª
Ġ\ <
sh ot
ĠT ry
ĠM D
est ions
è®º æĸĩ
ĠVirgin ia
ç» µ
Ġne ither
æĪĲ åĪĨ
_n ode
åĩºçİ° äºĨ
Ġwor st
al igned
ĠS uch
Ġsc ores
W riter
Ġth in
äºĨ ä»ĸ
ĠRes ources
Ġamount s
ĠC ase
âĢľ ä½ł
Hel p
å¥ ĳ
Ġab stract
S QL
Ġm ouse
èĩ³ ä»Ĭ
Ġen roll
Ex ecut
W ill
Wh ich
åŃ¦ æľ¯
re ement
çĬ¯ ç½ª
ĠP ersonal
éĥ ¡
Ð ¼
B B
re land
_b y
èĢĥ çĶŁ
Ġthem es
ç¼ ¸
éĩį çļĦ
éĹ®é¢ĺ çļĦ
äºº ä½ĵ
ä¸İ æīĢè¿°
ĠM ult
) +
ãĢĤ çĶ±äºİ
æľī å¾Īå¤ļ
Ġbe ar
St orage
Ġper mit
f rame
ï¼Į ä¾ĭå¦Ĥ
Ġsens itive
Ġv irt
od s
t age
Ġaware ness
Ġturn ing
pl ore
Ġreg ional
Ġdis h
AP P
åľ° çĲĥ
Ġworld wide
äº§çĶŁ çļĦ
Ġon going
og ether
ç±» çļĦ
Ġhand ling
ä¿® å¤į
å®³ æĢķ
Ġv ulner
Ġsurpr ise
h us
æľĽ çĿĢ
âĳ ¡
è¾ ĸ
d et
è¯Ħ è®º
æĢ§ æł¼
ep th
ĠYou Tube
åĬ¨ çļĦ
åĩ ¸
ĠAdd itionally
æ¶Ī éĺ²
ĠL earning
r as
ĠM a
Ġeng age
T L
ĠR oom
Ġag encies
å·¥ä½ľ äººåĳĺ
ĠWord Press
æ¢¦ æĥ³
AV E
Ġcl othes
ĠL td
Ġs ys
Ġne uro
un ctions
ĠH ospital
Ġbed room
åıį æĺł
èģĶ çĽŁ
Ġmet ab
Ġr ig
che dule
ĠLe vel
cl ip
ential s
i ot
çĻ½ èī²
Ġcommon ly
ĠR o
äºĨ åĲĹ
st one
åįı è°ĥ
çļĦ åĨħå®¹
Ġm ice
Ġvisit ing
æĪª èĩ³
it ivity
Ġunder lying
W orld
ĠCal culate
èĩª è¡Į
éŃ ħ
ĠP o
Ġdeal ing
AN G
acc ount
èĲ Ħ
é¢ ¤
k m
å¸¦ æĿ¥çļĦ
Ġp il
ĠJ oe
æ¸ħ æ´ģ
ãĢĤ çĦ¶èĢĮ
let on
Ġcr usher
l ay
Ġtrend s
çĶŁæ´» ä¸Ń
ç»´ æĮģ
A IL
Ġv ast
Ġb odies
æ¶ Ľ
Ġinter actions
âĢľ We
Ġstand s
æ£ ĭ
ä¹Ł èĥ½
C F
ĠM ike
Ġfair ly
Ġw arning
ie ce
è½¬ ç§»
ab il
æ² ĥ
èĩ Ń
Ġlist s
åİ ¦
V I
Ġre cept
Ġr ating
Ġex clusive
æ¸ħ æ´Ĺ
Ġincred ible
ĠW ild
ç®Ģåįķ çļĦ
ä¼¼ çļĦ
ä¸Ģæł· çļĦ
æľī ä¸ª
B log
S M
å¤´ çļĦ
ãĢģ ä¸Ń
UL AR
è¡¨ æĺİ
éĶ »
åįĬ å¹´
å¾Ī å¤§çļĦ
é¢ Ī
æĢİä¹Ī åĬŀ
Ġanx iety
rib le
Ġsk y
' ],
ï¼Įä¸Ģ èĪ¬
Ġn arrow
Ġwhere as
b reak
T otal
è¿ĺ ä¼ļ
c f
æģĲ æĢķ
ĠC ur
Ġl osing
Ġmov es
ĠP ot
ĠB ow
. con
ĠP ut
U ST
but ton
Ġlik ed
ĠR ights
Ġimpro ving
} =
Ġrem ark
ess ages
Ġyes terday
, y
ĠSup reme
ĠPro perty
as tern
Pre vious
m ic
Ġl ip
ä½¿çĶ¨ çļĦ
RE SS
ĠStud ents
Ġlist ening
ĠAcad emy
Ġoption al
Ġv ital
Ġ âĢĿ
é¦ ¨
D ialog
as ters
ĠG D
_ OP
Ġg rew
Ġinval id
çŀ ª
Ġarr ang
èĳ¡ èĲĦ
æľī æ²¡æľī
Ġquant um
ãģ ¯
ĠJe ff
P ublic
æī© å¤§
èĥ ģ
P arent
è¶³ çĲĥ
n n
ĠInd ex
T V
åįģ åħŃ
Ġserv es
Ġcont roller
ial ize
Ġh urt
ack s
ol ving
ç¢ ĳ
Ġ! ==
Ġt ip
ol ver
Ġl augh
Ġconsum ption
Ġh ate
çĽĳ æµĭ
n ab
ç²¾ å½©
åķ ¡
ĠCarol ina
L a
ĠU k
ä½Ļ é¢Ŀ
Ġdemonstr ated
Ġqu ote
å°ĳ å¥³
Ġcirc le
ĠJ SON
Ġintrodu ction
ĠM ur
çĿĢ çļĦ
ï¼ģ æĪĳ
æıĲä¾Ľ äºĨ
par se
Ġtax es
id x
Ġprim arily
æĶ¹ éĢł
ra id
t mp
ãĢĭ ãĢĬ
æĢ ľ
æĹģ è¾¹
% .
åĿ ĳ
çľĭ åĪ°äºĨ
Ð ´
_f or
Ġe ase
ä¸ Ļ
Ġth reshold
è®¤ è¯ģ
éĢĤ å½ĵ
Ġs pl
æľĪ ä»½
ut ch
u ce
Ġdirect ed
æ¯ ħ
Pr int
çĽ¸åħ³ çļĦ
pl us
ann a
Ġs ou
= False
Ġt error
ä¼łæĦŁ åĻ¨
Ġs ending
ĠSt ock
ĠAdd ress
( key
æ¤ Ĵ
as ant
çİ¯ èĬĤ
ä¸°å¯Į çļĦ
{ align
if er
å°ı ç»Ħ
æł¡ åĽŃ
g ener
çº ½
P op
Ġass igned
P anel
Ġbirth day
Ġimmed iate
it ative
ĠI ss
Ġredu cing
Ä ģ
èµ ł
ef ined
(f alse
.t ype
\ left
S erial
_t able
ï¼Į åĪ«
ãģ ¨
åĨħ å¿ĥ
ul er
åĩº æīĭ
ĠStand ard
. Text
ãĢĤ è¦ģ
E rr
Ġl ayers
æ¡ ¶
Ġintellig ence
Ġtra ined
Ġapply ing
Al though
ĠI de
r ick
æŁ ı
ĠW at
è¿ĺ åı¯ä»¥
_l ength
Ġin line
Ġbas ically
Ġed it
( ctx
çļĦ ç¥ŀ
Ġpolit ics
è¯´ ä»Ģä¹Ī
c ur
ç§ĳ çłĶ
Con f
L Y
ä¸į åıĬ
act iv
æĺ Ĥ
æĥ³ çĿĢ
ap ing
M sg
ĠM id
Î º
D own
ĠSt ory
åŃ¦ ç§ĳ
d i
è¿ĩ æ»¤
n am
Hel lo
lis her
ï¼Į æĿ¥
C ategory
ãģ §
ĠIt alian
ict ed
Ġflow ers
æł¹æį® æĿĥåĪ©è¦ģæ±Ĥ
Ġbl ank
H as
Ġl ies
Ġin ches
. Error
ĠN ever
å¤ļ æ¬¡
D IT
éĻ Į
il ly
Ġst yles
Ġperform ing
çĥŃ æĥħ
Ġsil ver
Ġs ight
Ġp p
B R
ï¼Į çľ¼
end or
_s ub
ä¸¤ä¸ª äºº
, b
éľ² åĩº
des cription
ç¢ §
ä¼Ĺ å¤ļ
ç»ĥ ä¹ł
æŃ¤ æ¬¡
éĤĢ è¯·
H ttp
æĺ¨ å¤©
V C
è¾ħ åĬ©
ĠP aram
åĴ ³
Rev iew
Ġstrong ly
lement ary
Ù Ĩ
æ¡Ī ä»¶
r ange
O U
å¯¼ æ¼Ķ
Ġth orough
å¿ĥ æĥħ
ĠM essage
ĠM ic
æ£® æŀĹ
ĠS P
ĠÂ ±
let ion
Ġexp enses
are n
Ġ' \
or ne
_ out
æ¸Ĳ æ¸Ĳ
AR Y
Ġcontribut ion
ä¼ļ åĳĺ
ĠÃ Ĺ
ost ic
ãĢģ ä¸į
ĠAut o
Ġsustain able
Ġarchitect ure
Ġ ë
Ġcho osing
èļ Ģ
ay lor
Ġtrans mission
ï¼Į çľĭçĿĢ
it o
å¼º å¤§çļĦ
ç¼ ł
ric es
Ġext end
W ARE
ä¸» å¸Ń
eps ilon
ĠMed icine
un a
Ġbreak fast
Ġinvol ving
è¾ ©
w d
em on
er red
çļĦ ä½įç½®
Ġ ç¬¬ä¸Ģ
Ġorigin ally
Ġhous es
çŃĶ åºĶ
Ġcount y
ĠL ab
å®¡ è®¡
âĢ Ĳ
in f
ber ry
åĴĸ åķ¡
RE F
åĸ Ĥ
F ont
æľ¬ ä¹¦
typ edef
t k
Ġbut ter
ãģ Ļ
. To
ĠL I
Ġless ons
ĠInt eger
Ġl ie
s i
å°Ĩ ä¼ļ
Ġte en
il a
äºº æķ°
le ases
åĪĨ ç¦»
Ġmagn etic
ĠC ath
Ġsm ile
Ġspirit ual
åħ³ å¿ĥ
col umn
ĠAg ain
us r
ĠP A
á ĥ
ĠSp irit
ĠF ed
è¯ģ ä¹¦
å¸¦ åĬ¨
éģĵ çĲĨ
reg ister
åĪ° è¾¾
éŁ µ
Ġill ness
z y
ĠL LC
ĠAustral ian
Ġmill ions
æĺ¯ è¦ģ
æı Ń
D D
èĪ Į
åľ° çĤ¹
OD O
B L
æĸ ©
Ġanal ys
M r
#if ndef
æĺİ çļĦ
çĸ Ĩ
Ġphot ograph
N ESS
ev al
ãĢĤèĢĮ ä¸Ķ
ç®Ĺ æ³ķ
Ġm i
ĠM iddle
Ġad m
å§ »
å±ı å¹ķ
ĠT ri
æĢĢ çĸĳ
Ġpet ition
åį° è±¡
æĭ ¾
Ġpres ents
> ,
N O
in ator
ĠH TML
) ->
ä¹Ł å°±æĺ¯
å¼º å¤§
åĬł çĥŃ
$ this
Ġregard less
Ġtal ent
Ġperson ally
AT US
an al
ol ly
è¡¨ æ¼Ķ
çĭ Ĳ
Ġt ill
_c ast
ĠWe bsite
R ad
LE D
å®£ å¸ĥ
ĠSm all
Ġcollabor ation
ĠF our
Ġexperim ental
ï¼Į æīĵ
os c
åį³ å°Ĩ
ra pe
å¸ ķ
Ġign ore
Ġcheck ing
Ġprote ins
_RE G
èĥľ åĪ©
Ġb anks
Ġpe ak
ok ed
cl oud
ĠI ran
Ġh ole
ĠI II
Ġmin imal
ĠS at
éĵģ è·¯
ç©º è°ĥ
Ġfind s
å¹³æĸ¹ ç±³
Ġ urban
Ġdraw ing
ï¼Į åĲ¦åĪĻ
Ġqual ified
åº Ļ
Ġd ates
Ġ ä¸Ń
Â ®
edd ed
Ġprefer red
Ġn arr
M I
ĠO pt
ç³ ķ
ç½ Ĳ
ĠIs lam
Que ue
éĶ Ī
ĠCl oud
Ġver ify
- com
the re
ä¸įå¾Ĺ ä¸į
èĪĴ éĢĤ
o ices
on al
Q UE
èĶ ¬
ĠS ep
ble m
èº« åĲİ
åīį éĿ¢
ch i
ĠSp ace
Ad vert
Ġcon cerning
T oday
ag ues
èĦĳ è¢ĭ
ĠSh are
Ġvill age
èģĶ èµĽ
Ġhab it
Ġstat istics
æķĮ äºº
æ¯ı å¹´
Ġre verse
U nder
ĠS ales
çĽ¯ çĿĢ
æĮ £
èĥ Ģ
_st atus
ĠT reat
. end
æĶ¶ åĪ°
imens ional
ĠCl in
ĠE ll
åŀĭ çļĦ
åĿĩ åĮĢ
ä¸į å¤ª
` ,
im ages
Ġyoung er
çº¿ çļĦ
ĠA ug
Ġrec over
Ġb one
ik es
æ¸© æļĸ
Ġ çİĭ
im m
ist ing
Ġcaus ing
_ on
éģ ®
å¤ ķ
Ġden ied
ag en
Ġstrateg ic
å§Ķ ä¼ļ
ĠWilliam s
J ob
%%%% %%%%
åĬ «
Ġany way
å¤´ åıĳ
åĵª ä¸ª
ĠT w
m ake
ç²ī ä¸Ŀ
ĠA ri
D raw
Ġeng agement
ãĢĤ åħ¶ä¸Ń
Ġwhen ever
PO SE
Ġsomew hat
æ²¡ æĥ³åĪ°
éĿĴ æĺ¥
Ġmeasure ment
Ġunder stood
/ (-
Ġcol le
ï¼Į çĽ®åīį
, ä»ĸä»¬
â Ĥ¬
Ġra il
( result
Ġinj uries
Ġto x
r ich
Ġc odes
Ġcon version
åİŁ æĸĻ
Ġal ter
æľįåĬ¡ åĻ¨
åīį å¾Ģ
OR Y
ĠP L
å® Ļ
Ġche ese
B N
å® ´
Ġfe at
Ġsub mitted
{ x
ç´ł è´¨
_C L
Ġf ault
ĠF air
ï¼Į çĻ½
ãĢĤ è¿Ļç§į
æĺ¯ çĶ±
è¶ħ çº§
Ġdiv ision
pp ers
f d
Ġanc ient
ĠSp anish
èī² å½©
çªģ åĩº
æĺİ æĺŁ
ä¼ĺ éĢī
è£ Ļ
åĲĮ æ¯Ķ
Ġm aps
Ġas set
Ġdet ected
im a
æłĩ å¿Ĺ
éľ ľ
roll ing
Ġsearch ing
Ġdr ag
p a
ans as
Ġpl ain
k o
ä½ł æĺ¯
ä¹ī åĬ¡
at omic
Param eters
Ġfight ing
os a
æ¡Ī ä¾ĭ
æľī æľº
Ġtr ick
æ·¡ æ·¡
æ¬ ł
* ,
éļı åĲİ
åĵģ ç§į
, å¤§
Â· Â·
Ġcop ies
ĠN ight
ĠStud ies
Ġt iny
çĪ ¹
ï¼Įä¸į æĺ¯
Ġinter val
Ġdemonstr ate
E ven
ĠC ore
æ» ¨
. X
Ġremain der
at ial
Ġent reprene
at ile
Ġst ability
ĠR oman
å°± ç®Ĺ
çļĦ ç¾İ
å¹¿ åľº
on na
èħ º
PE CT
Ġlif estyle
èµ ģ
Ġpo inter
Ġg ap
Ġdis appoint
E ffect
ond er
ĠM ill
d ec
é¥ ¼
f ind
Ġ ä»İ
Ġ( _
Ġjur is
or able
è¯» ä¹¦
Ġb asket
Ġdom estic
å¸ĥ å±Ģ
Ġmag ic
ĠD ie
) [
ä¾ ł
çĺ ¤
åħħ çĶµ
sec urity
op ic
èĬĤ çĤ¹
æīĢ å¾Ĺ
Ġdisplay ed
çĿ ģ
Ġpartners hip
ĠĠĠĠĠĠĠĠĠĠĠĠĠĠĠĠ ĠĠĠĠĠĠĠĠĠĠ
Ġmeet ings
åı¯ éĿł
f i
Arg ument
Ġtick ets
åħ± åĴĮ
Ġdisc ipl
' ),
Ġover w
ar ry
Ġtrack ing
çļĦ ç¡®
u ct
f ront
Fl ags
Ġent ries
Ġrem ind
åĽŀ æĶ¶
et ing
ä¸į å¤Ł
Ġspect rum
åįģ ä¹Ŀ
ĠV an
Eng ine
ĠF IT
ane ous
. un
Ġmanag ing
Ġdeb ug
- ind
el i
ä¸į å¦Ĥ
ãĢĤ \
ï¼Įä¸Ģ å®ļ
Ġlab els
K ind
_d ict
Ġed ition
en ess
ERS ION
R ule
ff ff
( in
åģļ æ³ķ
ä¸Ĭ æ¶¨
Ġphen omen
ĠI O
r ine
for ward
Ġpar allel
J SON
çĦ °
, n
Ġstud io
ãĢģ æĸ°
Ġres olve
_ end
_M AX
æģ Ń
Ġentertain ment
ĠI reland
Ġfr ust
Ġh at
æ² Ĳ
Ġdiagn osis
w args
ain ts
ä¿¡ å¿ĥ
ru ption
Ġcheck ed
å¾Ĺ åĪ°äºĨ
å¾Ĺ äºĨ
åĨ ¯
Ġsp oke
ĠM ember
çĸ«æĥħ éĺ²æİ§
ç§Ł èµģ
L earn
é¸ ¿
ä¸ĵä¸ļ çļĦ
Ġben ch
s ql
Ġserious ly
mat rix
ĠIt aly
Ġf raction
çŃī äºº
f n
ob by
In valid
Ġrestaur ants
Ġrec ording
_ u
åħ¨ ä½ĵ
Ġp y
ac her
å±ħ ä½ı
Ġres et
Ġevery day
å¸ ½
Ġfact ory
Ġs ed
ĠG irl
end ant
Ġdo se
å¾Ī å¥½çļĦ
ï¼Įä¸į èĥ½
n or
çļĦ æķ°æį®
å½¼ æŃ¤
Ġc tx
æĻ Ĵ
Ġobvious ly
n av
æĪ Ī
at ar
åĮ Ĩ
è§ģ è¿ĩ
æī ¯
Ġdro pped
, çĦ¶åĲİ
â ĺ
p o
Ġl ad
Ġrecogn ition
Ġcommun icate
te en
n i
or ters
ĠAp ache
point s
Ġrecommend ations
Ġmeasure ments
åĲ« æľī
Fe ature
ä¹Ł ä¸įæĺ¯
Ġvert ical
ĠTh ree
Ġw et
åĪ© çİĩ
Ġintrodu ce
el lect
çļĦ èĢģ
requ ired
ĠE ffect
èľ Ĥ
L P
ang ers
Ġdra wn
Ġdat aset
Ġact ing
olog ist
ant ed
ĠC redit
Ġprov en
Ġsurv ival
äº Ń
éĺ² æĬ¤
Ġf older
_ I
ĠK en
çĶ» éĿ¢
ï¼ĮæĹł è®º
_ arg
Re al
Ġbu f
Cal culate
J ava
Ġcommit tee
è Ł
R NA
Ġauthor ities
Ġant icip
Ġsubsequ ent
_f rom
S O
Ġwalk ed
Ġdisc rim
ater n
æī¹ åĩĨ
åĲ ¾
Ġincor por
Ġexpos ed
C G
Ġmount ain
çİ° æľī
ir a
éħ ±
æļĤ æĹ¶
ç» ³
it age
ĠJust ice
ï¼Į ãĢĬ
ĠL ittle
omet ric
ĠExecut ive
Ø ±
ĠH ope
O k
Ġmin ing
ĠP UR
OL D
ee k
Ġcommun ications
å±ķ çİ°
ĠJ on
Ġsym met
Ġc razy
D id
ick er
ï¼Į ä¼¼ä¹İ
é¡¾ å®¢
we red
Ġst ake
: b
Ġper missions
Ġre form
B usiness
C ategories
Ã ł
am ber
Ġprepar ation
ç©º ä¸Ń
Ġsurpr ised
æİĪ æĿĥ
æµ ¦
åĲĪ è®¡
ĠM obile
Ġb le
ĠT urn
um a
èµ Į
Ġsomew here
ra k
ĠH as
Ġmod er
app er
ä¸į å¯¹
çħ§ é¡¾
om ething
ç¿ ł
ast s
Ġd ust
ĠPol ice
Ġfra ud
Ġphil osoph
Ġcomplet ion
Ġappro val
ent le
Ġr h
æĪĳ å°±
à ®
ĠF ac
app end
Ġconf ident
Ġpartic les
çĽĳ æİ§
.g oogle
ĠN C
u ced
c ers
Ġtarget s
Ġmanufacture r
çī© åĵģ
_ result
ch arge
e an
ç§ĺ å¯Ĩ
Ġpain ting
Ġh ur
P UT
ĠDan iel
. æł¹æį®æĿĥåĪ©è¦ģæ±Ĥ
( __
èµ ´
r at
ĠV ictor
éĤ£ ä¸Ģ
rec ord
L ock
ï¼Įå½ĵ çĦ¶
eth yl
ri ers
d k
ĠCook ie
ĠMc C
Ġacc um
Ġrem oval
Ġ{ "
å¤± åİ»
_ z
èĳ£äºĭ ä¼ļ
åĬ¨ æĢģ
Ġland scape
Ġorgan ized
ly mp
Ġd ining
ha ust
Ġf asc
Ġad equ
Ġg aming
ins on
Ġdef e
Ġbrow s
èİ İ
Ġsens or
åĳµ åĳµ
ä¼ ª
-p arty
å®ŀ è¡Į
Ġfun ny
Ġnear by
Ġweek ly
Ġprocess ed
l ang
ĠT erms
Ġshould n
Ġins ights
Ġinit ially
é£ŀ æľº
Ġgra v
Ġb low
j ava
Ġsched uled
ĠD og
Ġfl uid
ch ild
æıĲä¾Ľ çļĦ
Ġg ate
æĻ ķ
T ool
Ġdi abetes
è®¾ ç«ĭ
Ġlik es
is er
.p arse
åħ´ å¥ĭ
ke ep
asc ular
éŁ© åĽ½
æ¼ ł
ĠN ode
è¢« äºº
èī¯ å¥½
UN D
ps ilon
Ġcl imb
é¹ ı
an es
R oot
Ġfin ite
p rivate
å¯ Ĥ
. co
ĠE s
èĸ ĩ
ĠF ar
çĽ¸ åºĶçļĦ
Ġmat hemat
Act ive
åĨĽ éĺŁ
Ġb are
ĠE th
ĠSte ve
ĠK n
Pr ice
it an
Ġp ill
ï »
Ġap artment
Ġl oves
Ġcon clude
Ġfl ash
Ġcolumn s
S ection
. New
åį ¿
Ġprom ot
Ġag es
I LL
Ġ" <
Ġstring s
b ound
ear ing
Ġvis ited
ãĢĭ ãĢĤ
ic ity
the less
.m odel
Ġstrugg le
Ġfit ness
Ù Ī
ĠD id
Ġs ampl
Ġw est
Ġcy cl
c b
Ġf le
app lication
ĠM att
Ġfac es
ĠA C
äºĨä¸Ģ å£°
ç®Ģ ç§°
Ġtreat ments
çģµ éŃĤ
Ġdel ight
Ġt ack
ï» ¿
çĽ® å½ķ
Ġwrit ers
å¤ ¸
Ġtra il
åĨ² åĩ»
æĬĬ æı¡
li ers
ĠO K
èµ· èº«
st ack
Ġgen u
)/ (-
Ġup coming
Ġappoint ment
çĨ Ļ
å£° æĺİ
De lete
ps i
Ġt ank
ï¼Į ç¬¬ä¸Ģ
s f
åŃĲ ä¸Ĭ
g ments
ĠS olutions
æ¹ĸ åįĹ
Ġabs ence
Ġw ra
ens us
Ļ Ĥ
Ġre in
ĠCor poration
Ġwith draw
il ation
Ġm ob
èĢ ķ
çĪ µ
ç»Ī ç«¯
Ġesc ape
Ġch ose
it ting
åħ± äº«
çļĦ æľºä¼ļ
çľĭ åĲĳ
og gle
ä¸Ģ åľº
Ġbound ary
Ġob lig
Ġopt imal
ific ial
ĠJack son
ĠOh io
Ġag greg
ç¡ ħ
Ġdevelop ers
å°± æľī
pro of
Ġcomplic ated
ĠCon fig
al o
ĠF eb
ĠMon th
Ġl at
Ġtick et
s en
Ġfin ance
æĮĩ å®ļ
æĹł å¥Ī
ĠN a
å¡ĳ æĸĻ
ĠR om
Ġsupp lies
raz il
åľº æīĢ
Ġhost ing
A ng
ĠD aily
ul um
ĠB Y
Ġent itled
Ġfeature d
Ġad min
åľ¨ è¿Ļä¸ª
é¦ Ī
Ġmin i
Ġi o
ĠL abor
pro duct
Ġdescrib es
Ġh all
Ġatmosp here
å¦ ®
âĢ ĭ
Ġcan cel
!! !!
in cluding
Ġb at
åħ¬ åŃĲ
Ġexecut ion
Ġ åı¯
Ġstrong er
åºĶ å¯¹
éĩį éĩı
ãĢĤ çĽ®åīį
è¿ĳ æĹ¥
è®© æĪĳä»¬
U V
åĽŀ å¤´
") ;
è´¢ äº§
f ilter
è¿Ľ åı£
ä¸Ģ çľĭ
èĶ ¡
è¯ ŀ
ug s
ĠF estival
Ġdeb ate
ort ed
Ġg ambling
_ ext
èŃ¦ å¯Ł
æ·± åĪ»
æĥħ å½¢
< li
è¿Ŀ æ³ķ
å¦» åŃĲ
æ° ¨
çļĦ è¯´
W he
ev in
çİ ²
æ·± åº¦
Â »
æĮģ æľī
Ġmort gage
Ġdriv en
èĪ Ł
Ġsuff ering
ãĢĤ ä¾ĭå¦Ĥ
ER V
å£« åħµ
Ġextrem e
ĠCh apter
< int
çļĦ éķ¿
ath an
Ġl anguages
äºĨ æĪĳ
å¿ĺ è®°
Ġs orry
ra ine
Ġt f
amp s
ĠT em
ç¼º ä¹ı
Ġn ob
ï¼Į çľŁ
Ġc oc
Pol icy
ĠStud y
Ġoper ators
Ġnew sp
è¡ į
util s
es is
, åıĪ
a ire
oid s
Ġmatch ing
ï¼Į å·²
.W rite
ĠProduct s
med iate
ĠM achine
ï¼Į éĻĪ
-b y
åĨĽ äºĭ
Ġelect ro
Ġlow est
ru le
Ġsh arp
Ġas ide
çĶµ æµģ
o a
å¨ģ èĥģ
æĩ Ĵ
Ġcont emporary
S pace
ä¸Ń åĮ»
Ġprinc iple
Ġpr ay
çĶŁ åŃĺ
éļı æĹ¶
ï¼Į ä»Ĭå¤©
Ġre ly
ãĢģ æľī
_ is
Ġbuild er
ä¸ĵ åĪ©
ĠM ER
. as
åľ¨ æĪĳ
ï¼Į åİ»
Î ¯
ĠP an
Ġremain ed
Ġflex ible
ĠT er
-b e
Ġelect rical
éĹ´ çļĦ
æĢ ĸ
Ġw ww
\ t
ĠR oyal
éĩį å¤į
( get
ç¬ ¼
ĠCh air
Ġclaim ed
Ġaccord ance
æīĭ ä¸Ń
Ġch ronic
I mp
ĠE state
å¯¹ çĿĢ
æŁ ´
ĠM aterial
ä¹ĭ ä¸Ĭ
Ġfl av
ĠA ud
P G
å¸ Ĳ
v in
ĠB ased
D O
Ġj ew
Ġdec ade
gy pt
Ġcap abilities
c ut
å¦¹ å¦¹
ĠUn it
ä¼ł éĢĴ
æľº åľº
cl osed
Ġbox es
y y
ĠCol umb
Ġv ot
ï¼Į äºĮ
Ġlight ing
T im
ä¸ļ ç»©
Ab stract
Â ±
Ġsign ature
Ġent hus
åĬŁ çİĩ
Ġtom orrow
å®Į ç¾İ
Ġt ags
_ object
Ġmix ture
z ure
@ "
ro x
ï¼Įä¸į ä»ħ
Ġed ges
Ġstret ch
Ġtransport ation
ç© ´
OM M
ãĢģ æ°´
åľ¨ ä»ĸ
Ġrow s
(f ile
l ie
Ġcamp us
æıĲ äº¤
ian o
çļĦ ä¸Ĭ
- x
Ġg ram
- con
å¦ ¥
ĠCh ild
ĠM rs
et ary
G lobal
Ġb ridge
ä¿Ŀ åŃĺ
Ġincreasing ly
ter ior
M edia
ç¼ĵ ç¼ĵ
çª Ŀ
Ġ à¤
Ġeng aged
Ð¾Ð ²
AS H
äº² èĩª
ï¼Į æŀĹ
Ġtext ure
å®ļ æľŁ
ed In
est roy
er as
.j oin
çº ±
at aset
ĠR en
è ¤
Ġrelig ion
Ġmembers hip
UN T
, å°±æĺ¯
Ġhe nce
éģĵ å¾·
ä¹ĭ å¤Ħ
å¤§ éĻĨ
p ool
åĢº åĬ¡
G ame
h r
pos ed
ĠB ed
Ġb urd
çļĦ åħī
Ġa thlet
éĩĬ æĶ¾
T F
< string
æİ¨ åĩº
f ree
ï¼Įæľī äºĽ
Ġsign als
Ġc ake
Ġp airs
ĠR am
, åĨį
ĠH D
Ġpull ed
åĲĦ ä½į
Ġneigh b
ä¸ĸçķĮ ä¸Ĭ
Ġpack ages
åĲĪ æł¼
ĠCh ampions
################ ################
Ġexpl ains
çŁĽ çĽ¾
ä¼ Ĳ
Ġtw enty
æĬ« éľ²
æľ ´
Ġb in
} [
âĢĻ ,
ĠH on
Ġpros pect
Ġprov ision
am era
.st art
w ar
æŃ¤ åĪ»
_ var
ĠSaf ety
å¸Ĥ æ°ĳ
ĠS ol
æī¿ è®¤
è® ¶
Ġgr ass
ĠM il
l ive
Ġag ric
æ¸ Ĺ
_b lock
FT WARE
Ġ æľī
ĠH im
. se
ott ed
ĠÏ Ģ
Ġlog ic
æĢ§ è´¨
ĠPUR POSE
è¿Ľ æĶ»
Ġd iversity
Ġc ute
ON G
å¿ħ çĦ¶
ä¸ª æĢ§
S end
Ġquant ity
ï¼Įä½¿ å¾Ĺ
Ġtrig ger
atch ing
PI O
é¦ĸ æ¬¡
z ym
ĠF oot
ï¼Į å®ŀçİ°
Ġperman ent
( str
åĩº åıĳ
åľ° éĿ¢
æ´ Ĵ
is ition
Ġrec ip
ĠMich igan
æŀĦ å»º
ad or
ant ly
å² Ń
OW N
ä¸Ĭ æĿ¥
Ġnav igate
èĴ ĭ
å§ ¨
Ġn aturally
cle ar
_m ode
om atic
Ġcomp ute
â Ĩ
åľ° ä¸ĭ
B M
enn is
Ġexam ine
Ġins ight
è½¦ çļĦ
Ġearn ed
CH ANT
Ġmere ly
- res
C opy
åŃ©åŃĲ ä»¬
æĥ³ èµ·
O pt
= -
Ġshoot ing
å±Ĥ æ¬¡
åĲ« éĩı
ç¬¬ åħŃ
Ġpar agraph
è¾ĥ å¤§
Ġcol on
âĢĿ âĢľ
åħ¥ äºĨ
çļĦ äº§åĵģ
.t est
çŁ¥ åĲį
èĲ Ŀ
Ġli ability
å¤© æ´¥
Ġaf raid
çŁ £
åİ¨ æĪ¿
Ġcomp osition
ĠChar les
Ġelig ible
Ġav ailability
æİ ĺ
ĠT ag
Ġst ages
We bsite
Def inition
Ġpow der
ĠPART IC
åį ¸
erv ing
ĠCons ider
ä¸´ æĹ¶
ĠE r
Ġas sembly
Ġdist ingu
Com mon
ĠTe ch
Ġanaly zed
- z
æĹł äºº
ĠJ ac
Ä ±
. ed
Ġcare ful
éĽĨ ä½ĵ
èĪĴ æľį
end ers
(" %
Ġinsp iration
end ment
æĦ ģ
Us ing
Ġgover ning
Ġfore ver
Ġh ire
å·¥ åİĤ
) ),
pro p
ĠB ul
åı¯ä»¥ éĢļè¿ĩ
Ġlarg ely
åĽŀ äºĭ
ĠDes cription
æī Ķ
æĮĩ ä»¤
Ġt all
_m ax
Ġload ed
èĢĮ ä¸į
Trans form
Ġst ood
iz able
-st yle
å¯¹ åºĶ
ä½İ äºİ
èĵ Ħ
xy gen
ra cy
A F
. The
n ote
] ).
Ġco al
å¼ı çļĦ
il ty
Ġtrans actions
åĵ Ģ
re nd
Ġob st
Ġre nd
Ad apter
å¤§ äºİ
(t ype
ĠBuild ing
ĠY et
Ġreg ulation
ribut ed
Ġsl ots
_tr ans
ä¹¡ æĿĳ
ä¸¤ å¹´
éĥ¨ ç½²
_ comp
G amma
Ġimm un
are a
æį Ĳ
ig ger
Ġn an
in itions
. Name
Ġcompens ation
- end
ul ator
ï¼Į èĩªçĦ¶
æīį ä¼ļ
æĽ´ ä¸º
Ġh ospit
çĳ ¶
Ġwin ner
é¢ ĸ
åįģ ä¸ĥ
ĠIn put
ĠT ask
Ġch ocolate
s is
D ay
D T
ĠS ale
_add r
Ġinf lam
ont o
add ress
G raph
Ġimp lements
åıĳçĶŁ äºĨ
D uring
m al
ä¸Ģ åıª
Ġimm une
v c
d y
æĹ© å·²
å¯ ĵ
èĳ Ľ
Ġapp end
Ġbott le
Ġmag azine
Ġu l
æĹħ è¡Į
O wn
claim er
å±¥ è¡Į
Ġal pha
Ġhe aling
å¹² çĩ¥
E vents
en um
osit ory
ul ating
el le
ä¸ Ľ
éħį å¥Ĺ
ĠN E
Ġbe er
èĬ¯ çīĩ
I con
è¯ģ æį®
æĭĽ èģĺ
Ġr ub
Ġinst ances
Ġadvent ure
æĹł æ¯Ķ
p ir
ĠF arm
it ud
De cl
ãĢĤ ä¸º
åĬł å¿«
Ġex ecute
pl ugin
åį° åº¦
æŀ ļ
ãĢĤ å½ĵçĦ¶
ä¼ĺ æĥł
Ġrent al
ä¸į è¡Į
Ġapp lies
CHANT ABILITY
#if def
on th
or ce
ç¾ ŀ
Ġdis k
Result s
ĠBook s
åĽ´ ç»ķ
W E
éķ¿ æĹ¶éĹ´
ic ient
ĠCol lection
è¯» èĢħ
Ġcomp act
çĬ¹ è±«
çī¹ æĢ§
ä¸Ģ äºº
Ġtestim ony
Ġp arser
è¶ ģ
d p
èĬ Ŀ
Ġvel ocity
åİĤ å®¶
Ġtem porary
Ġhon or
Ġun w
ĠStud ent
ãĢĤ åı¦å¤ĸ
Ġsp an
ax y
ï¼Į åħ·æľī
Ġactiv ation
è¯Ĭ æĸŃ
Log ger
åĲ ¼
Ġkn ock
å®ĩ å®Ļ
Ġbre aking
P ool
Ġen ables
ov ie
ãĢĭ ä¸Ń
_ U
( std
èĽ ®
Ġle ague
èĪª ç©º
ch or
. config
Ġr u
ï¼Į åĲ¬
ĠP ak
ĠĠĠĠĠĠĠĠĠĠĠĠĠĠĠĠ ĠĠĠĠĠĠĠĠĠĠĠĠ
id en
Ġs aving
Ġpublic ation
Ġ" %
ä¹ ĸ
az e
æ¸ Ĭ
Ġpropos al
R et
y nt
hes is
Ġbet ting
ĠT ips
ĠPARTIC ULAR
f all
Ġf irms
æĻ® éģį
æĺ¯ æľĢ
Ġg ifts
ä¸ĵ é¡¹
æ°´ çļĦ
ä¿Ħ ç½Ĺæĸ¯
ï¼Į ä½ľä¸º
et he
Im port
äºº ç¾¤
A K
Ġg ear
åĪł éĻ¤
ĠFIT NESS
è®© å¥¹
Ġto ler
O mega
ĠA LL
ĠS outhern
Ġfunction ality
_S H
ĠG iven
ä»ĸ äºº
. load
ãģ Į
å¤§ éĩıçļĦ
ç»´ ä¿®
o ir
M ember
é¼ İ
_w ith
ink ing
Ġcre w
R est
ä¸» äºº
Ġtalk ed
æĲħ æĭĮ
Ġsau ce
å¤į åĲĪ
Ġemploy ed
. Data
Ġ{ {
ä¸į åĬ¨
in ar
Ġdis abled
Ġch ances
Ġ ãĢĮ
ĠMe an
åºĶ æĶ¶
çļĦ ä¸Ń
el a
Ġcarry ing
å¸¸ å¸¸
Ġdim ensions
ĠReg ister
Ġprinc ipal
åİ ĺ
itut ional
(p ath
em o
Ġv i
åŁº åĽł
Ġst uck
Ġleg it
çļĦ åĨħ
Ġsus pect
æ² «
å¼ķ çĶ¨
Ġter rit
r angle
Ġdep ression
Ġleg s
æľŁ æľ«
ĠðŁ ĻĤ
Ġil legal
Ġst ead
éŁ ¦
Ġimp ressive
ä¸Ģ åı¥
ï¼ĮæľĢ ç»Ī
Ġlaw yer
mer cial
å½ĵ å¹´
æ£Ģ éªĮ
Ġcorrel ation
éĥ¨ ä½į
St at
Ch rist
åģļ ä»Ģä¹Ī
éĶ ¡
ibr aries
Ġnew ly
çģµ æ´»
ĠSe a
ĠS EO
* -
sh ips
)$ ,
Ġaddress es
AA AA
{ aligned
D ouble
å² Ĥ
im ents
ĠM P
- K
éĿł è¿ĳ
Ġout standing
Ġt un
Ġcompl aint
ĠG ra
å ¬
ãĢĤ éĢļè¿ĩ
Ġpref erences
w hat
åıĺ åĬ¨
çļĦä¸Ģ åĪĩ
à ¹
Net work
åı¤ ä»£
ĠEv ents
Des criptor
æŃ ī
ç¿» è¯ĳ
trans form
åĩ ĳ
ä¿¡ ä»»
Ġadopt ed
ĠAdminist ration
çĤ Ń
D oc
ĠJew ish
m id
Ġar ts
Î ²
Ġover come
ĠAnd rew
lo om
çĶµ åĬĽ
n p
ĠU lt
au x
ap ore
Ġtum or
as hes
uck y
P ad
Ġpre v
Reg ister
ĠI mm
æľĿ çĿĢ
ĠV eg
Ġadvant ages
he et
Ġpow ers
å®ŀæĸ½ä¾ĭ ä¸Ń
ĠCo ast
Ġv ess
Ġprodu cing
ä¸ ĳ
ĠP y
_in put
æ¨¡ æĭŁ
cript ions
ĠFranc isco
od els
Ġrapid ly
ç©¿ çĿĢ
éĵ ¸
Ġ{ '
ĠK ar
Ġsav ings
Ġ ç¬¬ä¸ī
Ġp ra
Ġmo ist
C ard
ĠFor ce
Ġ era
Ġsuper ior
here nt
ail ing
Ġgen etic
Ġscen ario
çļĦ èĥ½åĬĽ
æ²¡ ä»Ģä¹Ī
çļĦ è¦ģæ±Ĥ
å¾Ĺ å¾Ī
å¤§ å¸Ī
Ġk ernel
åķĨ æłĩ
Ġexplan ation
Pe ople
Ġtra ce
Ġl icensed
Ġvict im
ĠÃ Ĳ
ç¤¾ äº¤
ï¼Į åĥı
ĠD ub
ed ing
ĠS em
èĥĮ åĲİ
Ġdepend ent
In tern
b uffer
ĠD ouble
ĠÏ ĥ
! [
op l
Ġhand ler
M eta
G rid
Ġvers us
W ORD
åĲĦ èĩª
. info
Ġtor ch
Ġb orrow
ä»Ģä¹Ī æĹ¶åĢĻ
å©ļ å§»
irc raft
Ġre n
åıĪ æĺ¯
æĭ ¦
Ġdep loy
åĮº çļĦ
Ġestim ates
_ LO
ra ined
Ġvac ation
Ġlegis l
Ġlegis lation
Ġbehavi our
åį ľ
çĻ¾ åĪĨ
att ribute
æ¨¡ æł·
In v
/ A
M ock
å·¨ å¤§
M ult
_F L
è§Ĩ è§ī
æĶ¶ èİ·
ĠD own
, åħ¶
ĠKing dom
æĥ ¹
ç¥ ¸
Ġhop ing
èĲ Į
Ġmar ks
Ġany more
äºĨ åĩºæĿ¥
li ament
Ġple asure
Ġl apt
_param s
is ely
æģĲ æĢĸ
av irus
åŁºæľ¬ ä¸Ĭ
åħļ å§Ķ
ĠSch olar
ĠSen ate
è¡ ¬
u v
Ġsmall est
C ap
is ement
ãĥ ³
Ġt ro
Ġque ue
ĠOffic er
enn y
Ġc able
c hers
Ð° Ð½
ĠS on
åĲ »
åĲĪ æ³ķ
ain e
ä¸į åģľ
Ġs ought
' ))
é¢Ħ æľŁ
and ed
Gener al
Ġ âĢĻ
Ġdi agram
Ġe ast
äºĴ åĬ¨
æĬĵ ä½ı
h y
Ġ ),
ĠWith out
Ġsatisf ied
il st
æ° ¢
ä¸Ģ æĬĬ
éĢī é¡¹
èĮ «
S R
ä¼ł è¾ĵ
Ġ& =
)/ (
Ġde ck
å½¢ æĢģ
ï¼Į è¿Ľ
Ġdis appe
.j pg
çŃ Ľ
æľŁ åĨħ
Ġessential ly
Met adata
Ġpick ing
( q
ym ph
Ġund efined
èħ »
Ġmechan isms
av ax
ak a
åĿ Ĭ
vis or
çĶŁ ç´ł
B E
å§Ķ æīĺ
Ġbeh alf
.prot otype
ï¼ģ ï¼ģ
çļĦ åħ³ç³»
.m ax
Ġmaintain ing
Ġh ide
è½¬ è®©
ä½ı æĪ¿
æ¯ı ä¸ªäºº
ix els
Ġvict ory
ĠSm art
è¾ĵ éĢģ
Ġmet a
Ġcover ing
Ph oto
Ġclos ing
ĠCert ificate
Ġc md
Ġund ert
Ġb ird
ãĢĤ ä»¥
end a
ĠĠĠĠĠĠĠĠĠĠĠĠĠĠĠĠ ĠĠĠĠĠĠĠĠĠĠĠĠĠ
Ġcon ventional
Ġtal ks
IM IT
Ġ å¯¹
åĶ¿ åĲ¸
ĠR ay
Ġrad ius
Ġd il
Ġman ip
ãĢĤ (
ĠMus lim
S I
crib ed
ï¼Įåį³ ä½¿
prot ected
b el
Ġal ive
ĠGeorg ia
.h as
Ġdeterm ination
éģ Ĥ
Ġ æŀĹ
çļĦ çľĭçĿĢ
éļ Ļ
Ġde eper
ĠS ometimes
Ġcontribut ions
ĠSO FTWARE
ist a
Ġinvestig ate
Ġsurpr ising
Ġassum ing
Ġp itch
é¹ ¿
b g
ĠF ather
d c
not ation
Res ources
in line
Ġre ar
i ology
å£ ¤
Rep ort
â ĨĴ
.assert Equal
ĠC at
æº ¢
Ġenter prise
-qu ality
åħ Ķ
æĿ¿ åĿĹ
ä¼ĺ åħĪ
Ġev il
B ecause
Ġstat istical
M R
meric an
ET H
ç¡ «
Ġrepresent ing
v are
åĽŀ å¿Ĩ
ĠL iving
æĶ¾ åħ¥
if iers
ĠMER CHANTABILITY
Ġobserv ations
Ġdrink ing
åħļ çļĦ
è®¤ åı¯
ç« ĸ
è§Ħ å¾ĭ
å« ©
èĩª ä¿¡
æĺ¯ å¯¹
ĠRequ est
å§ ¬
ì Ŀ
h ome
éĵ Ń
ĠO lymp
i Ã³n
En um
Ġcon j
og ram
Ġmus ical
Ġacc eler
Ġpur s
S ur
D ebug
ĠL ED
Ġ éĻĪ
ir ty
c irc
åħį çĸ«
N G
äºĴ çĽ¸
Ġh ang
Ġsuggest ions
Ġreturn ing
- class
ĠSh ort
éĢĲ æŃ¥
å¤ı å¤©
Ġdec ent
èµ° åĲĳ
ĠH un
ĠRead ing
Ġal ert
right arrow
é£İ æĻ¯
ç¾İ æľ¯
æĺ Ń
Ġha ck
ĠB rad
é Ħ
çļĦ å¤©
Ġthous and
, æ²¡æľī
Ġrec ipes
è®¸ åı¯
ĠM ajor
T ab
Ġcl othing
Ġemploy er
Ġbelie ves
ĠRes ource
éĢł åŀĭ
j ud
Ġrestrict ions
çļĦ å°±æĺ¯
åĳ½ è¿Ĳ
Ġref erences
éĥ½ å¾Ī
æľ¬ æĸĩ
Ġgrad uate
åħ» èĢģ
=" ../../
pe ction
å¹¶ éĿŀ
ĠJ ob
Ġp leased
viron ments
ĠResult s
Ġgener ic
ur ities
-s pecific
_ US
Ġrepresent ative
æ· Ģ
æ¯« ä¸į
OR S
éªĮ è¯ģ
Ġc urrency
çĶŁæ´» çļĦ
æĹ¥ èµ·
éļľ ç¢į
å¾® ç¬ĳ
Ġdam ages
Ġor al
å¸Ĥåľº çļĦ
Ġprogram me
su pport
ä¸» ç®¡
ĠS us
ĠO wn
ino is
ä¿Ŀ çķĻ
- per
ï¼Į åģļ
om orph
Ġhyp othesis
w an
Ġhead s
lo op
æīĢè¿° ç¬¬ä¸Ģ
Ġvis its
ĠCons ult
è¿Ļä¸Ģ çĤ¹
åī Ĭ
ĠP acific
s a
Ġaccompl ish
Ġb irds
Ġless on
u h
ç¿ Ķ
çļĦ ä¸¤
Ġput s
_ err
P ar
ç¥ŀ ç§ĺ
å¸¦ é¢Ĩ
åŃ¦çĶŁ çļĦ
Ġstr ange
Ġres c
çĶŁ æĦı
Ġb ars
å´ ©
ç¤º èĮĥ
çĤ¹äºĨ çĤ¹å¤´
t ilde
ill iant
ĠCh all
ĠM ir
ad ed
su per
ãĢĤ æł¹æį®
ãĢĭ çŃī
Ġreput ation
ail ure
çľĭ åĩº
Stud ents
ãĢĤ ä¸ºäºĨ
Ġpoint ed
ç» ĳ
Ġoverw hel
éĤ ĵ
çŁ¥éģĵ äºĨ
Ġfac ed
äºĨä¸Ģ çľ¼
éĻ ķ
N D
Ġtrans lation
ä»¥ ä¸ĬçļĦ
é© °
Ġp ars
ä¾¿ å®ľ
åĵª æĢķ
æĺ Ĭ
å®¶ åħ·
é»ĳ æļĹ
Ġcheck s
Direct ory
ab eth
Ġ-- >
Ġad mit
() :
åħ ¹
raw ing
åĭ ĥ
d l
å¥ĸ åĬ±
_ KEY
ĠM oney
st ar
Ġpass age
Ġmanag ers
Ġl oyal
J ECT
Ġre q
ï¼Į æĪĲä¸º
Ġc ogn
C reat
orge ous
Ġ( @
Ġd ynamics
å¹´è½» äºº
åı Ļ
ĠProf essor
ä¸ŃåĽ½ çļĦ
ik ing
ĠDiv ision
é¤Ĳ åİħ
r ating
Ġconsc ious
ĠS ummer
Ġdef ect
Ġf inger
clus ions
âĳ ¢
ĠInt eg
ater al
ĠS ave
Å ¡
ac on
Ġcal endar
ĠSecret ary
Ġre act
Ġhas n
( input
av id
S un
Ġret irement
Ġmur der
, t
HER E
Ġimpl ies
ï¼Į æ°´
ar on
ĠJer sey
æ³¨ éĩį
ĠU SE
A W
ãĢĤ å¤§
, çĶ¨
y ers
Ġopin ions
_ cl
Ù Ĭ
ä¼ĺ çĤ¹
ä¿ ±
ĠF all
Ġem ails
ĠC T
Ġ$ _
( context
_M ODE
èĶ¬ èıľ
ĠV ill
Ġwat ched
æ¶Ī èĢĹ
Ġ ##
ĠM om
ĠAg reement
å§ ļ
éĵ ĥ
Ġbu ff
Ġdo ctors
)* (
Ġ åħ¬åı¸
é«ĺ ä¸Ń
C ond
erv ative
ĠT ree
æĸ¯ çī¹
Ġfor um
ĠT rack
å»¶ ä¼¸
å· ¾
åĲĦ åľ°
ĠM icro
å¯ ¨
Ġtrack s
ĠS her
Ġ ä½Ĩæĺ¯
å¯¿ åĳ½
ĠMem bers
ourn ament
Ġm apping
åĩ ¹
Ġcelebr ate
è®¾ å®ļ
Ġsudden ly
åį± æľº
/ lib
Ġd ental
Ġindust ries
æ¸¸ å®¢
Pl ugin
çļĦ æľĭåıĭ
å®¡ æł¸
Ġsur ve
æĳĦ å½±
ç´¯ è®¡
ä¼ĳ éĹ²
Ġt one
int on
Ġperiod s
ĠK im
Ġpro secut
åĲĮ å¿Ĺ
au g
Â° C
Gener ic
. remove
H R
Pro gram
çĻ «
ĠSh op
åıį å¯¹
eal and
Ġanal og
Ġdream s
ĠAs sembly
è´ ª
OP Y
Ġfore ach
éħ ¬
ĠP sych
æķĻ ç»ĥ
æĺŁ æľŁ
.W indows
ro le
ĠG a
ä»ĸ åľ¨
Ġtri als
Ï ī
Ġst orm
ä½ Ĳ
ĠColor ado
èĮĥåĽ´ åĨħ
å¤Ħ ç½®
Ident ifier
Field s
Ġpro hib
Ġ| =
ä¸ĩ äºº
and ler
Ġp ounds
ç¿ °
Ġprov ed
Ġevery where
Ġsk ip
Ġmanufacture rs
equ ence
Ġgu itar
ä½ĵ åĨħ
az y
ä¼ł æĿ¥
Ġforg ot
è½¬ åĮĸ
Ġcor on
æķħ éļľ
her it
ĠDet ails
Ġlux ury
ĠP en
Ġport folio
ro vers
ĠC ancel
Ġc yt
iet ies
_ com
Ass ert
ĠC HECK
ĠC ivil
P erm
Ġle ct
zon a
ĠBe aut
re ation
Ġscient ists
Ġint ention
Ġfl avor
ist ration
ag ger
Ġhigh lights
Ġacqu ired
è¯´ ä¸į
ï¼Įåıª èĥ½
{ p
ĠCas ino
ĠChe m
æĦŁè§ī åĪ°
ub s
D oes
d el
Ġegg s
æĢ» ç»ıçĲĨ
Ġc ov
F unc
ĠT y
Ġfac ulty
_w rite
Ġf is
çº§ çļĦ
Ġassist ant
Ġf ake
ĠP erson
å¿« çļĦ
æĥĬ è®¶
Ġcour ts
åºķ éĥ¨
Ġme als
ĠH a
æĹ¥ çļĦ
ĠS imple
Ġmem br
Ġl ic
å°ı åŃĲ
Ġbow l
_ lock
line ar
v y
ĠCustom er
éĤ£ è¾¹
Ġsh ower
Sc ale
å¯¹ æ¯Ķ
st ers
ĠR ule
Ġâ ĸ
Ġfall s
g lobal
Ġlog ger
æ²³ åĮĹ
/ T
æľīæķĪ çļĦ
Ġfil ename
Ġab und
_V AL
âĶĢ âĶĢ
ew ise
åĪĿ å§ĭ
ĠÐ ¸
, $
ĠC G
as ma
éħ ¯
Ġend ing
ĠAr my
Ġcl ust
ĠB ad
ï¼Į èº«
Ġex haust
çļĦ åĬĽéĩı
Ġd ownt
u ating
> ::
ãĢĤ éĤ£ä¹Ī
> \
b m
åĭ ī
å°Ĩ åħ¶
Ġresult ed
N av
ĠâĪ Ī
ĠE gypt
AR N
ĠGD PR
Cl oud
art icle
- check
cret ion
æĭħ ä¿Ŀ
. ui
are t
æİ§ èĤ¡
Ġd ual
, éĤ£ä¹Ī
åĨ· åį´
ä¸Ģ è·¯
ag ent
ä¸į çĶ±
Ġmem ories
Ġdis covery
Ġt ur
ãĢĤ èĭ¥
åĲ µ
() ).
ĠR ose
ä¸»è¦ģ æĺ¯
åĬ £
Ġun iverse
èĳ ±
W ord
è¾ĥ ä¸º
åħ³ éĹŃ
æĺ¯ æĢİä¹Ī
Ġ outer
æĿĳ æ°ĳ
Ġjo ining
äº¤ æį¢
AM P
å¯¹ æĪĳ
äºĨ ä¸¤
Ġstudy ing
Ad v
ĠI V
S w
å¹³ éĿĻ
Ġluck y
Ġro ots
åħ±åĴĮ åĽ½
Ġred ist
Ġrob ust
back ground
ç° §
å¹´ äºº
@ property
ĠH ence
Ġacknow led
Ġh its
çº¿ è·¯
èĢĥ æł¸
aw a
Ġinter f
ĠPol it
iz za
ort ion
H D
ĠS anta
æ¶ ¯
Ġgreat ly
Ġpath s
Ġf ishing
Ġeval uated
ĠD rive
Ġst er
éĢ Ĭ
and y
_ AL
le ting
ĠG row
ï¼Į å¤ĸ
å°Ĩ åľ¨
åģľ è½¦
**************************************************************** ********
Ġr ising
ent h
int age
Ġinteg ral
ĠSc iences
Ġincred ibly
yn om
, å¦Ĥ
æ»ĳ åĬ¨
Ġm ic
F ILE
}} $
ï¼Į æŃ¤æĹ¶
Ġp ig
æīĵ åĩ»
posit ory
åĲĮ æŃ¥
OM E
ä¼ļ çļĦ
ra q
åĳ¨ è¾¹
H L
ĠB all
Ġbroad cast
Ġfavour ite
Ġtra v
d iction
ĠT aylor
çĳ Ł
æ ª
ä¿ ±ä¹Ĳ
èĹ ¤
G ER
I ED
æ²ī é»ĺ
? .
åĥ µ
Ġmer ch
æĦ ī
d x
un icip
]\ ].
ä¸ĭ åĪĹ
S chema
re ction
M O
Ġattract ive
w hen
çķ ı
b c
Ġfl our
ĠG arden
Det ails
æľĢ ä½İ
ï¼Į éĻ¤
Ġequ ally
L icense
Ġmist akes
Ġal gebra
Ġup grade
Ã© s
ĠC ru
åİĭ ç¼©
T ake
ä¼ļ ä¸Ĭ
Ġg olf
Ġclos est
. view
; </
ĠUn less
Ġro se
éĢ ¢
Ġapparent ly
Ġdesign er
æ± ª
/ n
è¡Ģ ç®¡
ĠF riend
own er
Ġemb od
ĠEd itor
C B
æĵ ħ
cul es
_m odel
By Id
_ AR
Ġb ags
Ġprint ed
inst all
L ayer
Ġimplic ations
Ġexam ination
ĠF uture
Ġo cean
Ġlog o
åĻ ª
Ac cept
Ġm useum
éĢļ è®¯
ï¼Į åĩº
ĠEx ample
ĠInt erest
Ġair port
.p y
å¯¹ å¤ĸ
Ġfall ing
æĪĳ åľ¨
ä¸Ģ èĦ¸
åĽŀ å¤į
å½¢ çĬ¶
Ġwork er
åıĺ æĪĲäºĨ
Ġun expected
Ġhy brid
æķ ¦
ĠPart ners
çľŁ çļĦæĺ¯
ĠPh oto
Ġp atch
U X
li x
= [
åŃĲ åħ¬åı¸
ä¸ ĺ
ï¼Įè¿Ļ éĩĮ
ĠCount ry
ĠCap ital
å© ī
ĠAs ian
ab ling
å½ Ń
Ġsim ulation
ou ston
çĽ¸ åºĶ
åĴ ½
ĠDis ney
Ġr ice
èĻļ æĭŁ
_b ase
Ġrespect ive
ord an
Ġult imate
ĠL iber
å¼ķ åıĳ
row ser
Ã ±
_id x
ĠA sh
æ· ®
ï¼Į å¾Īå¤ļ
ĠK IND
_ new
á »
ou red
è¿Ļä¸ª éĹ®é¢ĺ
ĠCath olic
Ġattempt s
ĠSt aff
, å½ĵ
ï¼Į ç»ı
Pro f
åĮ¹ éħį
è´¢ å¯Į
ot ton
r ates
i ors
Ġpro c
Ġmaintain ed
Ġd ent
ä¸Ī å¤«
Ġtemper atures
( object
æĹł éĻĲ
æĿŃ å·ŀ
åĴĮ åħ¶ä»ĸ
(n ull
Ġp ic
æĶ¶ è´¹
ä¸įéĶĻ çļĦ
. String
_ offset
ĠSe ason
è¸ ¢
çĹħ äºº
-f riendly
Ġle ts
sk i
èĬ ¬
ĠZ ealand
ĠH ost
çĪ· çĪ·
æĪĳ æĥ³
iv o
od ge
ver ter
( I
åĨ ¥
éĿ¢ è¯ķ
è¡Ģ æ¶²
, j
ĠProf essional
ĠW i
Ġb io
ï¼Į è·Ł
Qu estion
ane ously
é«ĺ æł¡
rag ment
æĮĩ ç¤º
less ly
Ġun us
Ġown ership
Pack age
è´Ń çī©
æĪĲ ä¸ºäºĨ
æ¸ ´
Ġok ay
yl van
åľº æ¯ĶèµĽ
æĬ± çĿĢ
æ¸ħ çĲĨ
å¤© åľ°
æ²¡ äºĭ
çĶŁ æ°Ķ
d ot
çĪĨ åıĳ
ure r
Text ure
u pport
Ġph osph
åĵį åºĶ
Ġfore cast
ĠH R
èµ Ĳ
éĶ» çĤ¼
am i
ï¼Į åĽĽ
ĠH ash
Ġbi as
Ġstre ets
ï¼Į å¿ħé¡»
ĠT ODO
er ior
ure au
Ġman ifest
L D
Ð ¿
ï¼Į åħ¶ä»ĸ
ï¼Į å°¤åħ¶æĺ¯
F iles
Ġcan cell
ask a
j e
Ġpack et
Ġnuc le
ï¼Įä¹Ł å°±æĺ¯
Ġsim ult
oc al
ĠCON FIG
Ġperson ality
Ġparticip ation
Ġd irections
Ġd ad
ĠW is
çľī å¤´
ellect ual
w orth
ste in
In f
åĬł éĢŁ
Ġf ing
Ġemot ions
å®ī éĿĻ
æ·± æ·±
æ© ¡
Ġident ification
( id
Ġar rive
iter ator
Ġp oker
åĪ© äºļ
ict ure
ãģ ¾
ĠB razil
æľį è£ħ
Ġpriv ile
ä¸º ä½ķ
å¥¶ å¥¶
ut ion
Ġdis pl
ĠP ers
çł ¸
ĠC ov
re ll
ï¼Į ç»ĵæŀľ
ĠJose ph
æĭ¿ çĿĢ
Ġfound ed
å¾Ī å°ĳ
ĠD ar
Ġinterpret ation
ä¸į éľĢè¦ģ
Ġre vers
å¼Ł åŃĲ
ĠTh ings
rom ise
ĠH oly
äºĭå®ŀ ä¸Ĭ
Ġimprove ments
Ġcont est
ï¼Į åįł
ä¹ĭ æīĢä»¥
Ġb unch
all back
Ġmist ake
** (-
Ġrot ation
ä¸Ģ å¼ł
ç³ Ł
_ K
.l ang
çĸ¯ çĭĤ
äºĨä¸Ģ ç§į
åĲ Ł
å°Ĭ éĩį
_d evice
i ro
ud a
us ers
æĦı å¤§åĪ©
å·® ä¸įå¤ļ
Ġen um
n m
un s
ĠSt ill
if ting
æŃ» çļĦ
eng ine
é¹ °
è¾Ī åŃĲ
Ġcent ers
æĸ ¥
Ġf ails
è¯´ åĪ°
_m ask
Ġref ers
è ©
åĲį ä¸º
ĠD am
ound ed
Ġmet rics
å¯¹ ä»ĸ
( st
ĠQ uality
ĠT itle
Ġres idential
æĹ© ä¸Ĭ
Ġst y
ad el
çļĦ åŁºæľ¬
u um
M ut
ĠSt atus
è¿Ļä¹Ī å¤ļ
æĶ¹ è¿Ľ
Ġper mitted
; \
æ¡Ĩ æŀ¶
å¤ª åŃĲ
Ġpre ced
ĠC apt
Ġop ens
Ġhe ll
å» Ĭ
Ġreve al
æłĩ é¢ĺ
Ġspec ify
ect ors
ver b
Ġsem i
åıĹ ä¼¤
riv ing
å¥³ çĶŁ
Ġcele b
ï¼Į çĽ´
ann y
è® ¼
L INE
å· «
åı Ľ
ĠV ery
è¯¾ åłĤ
ĠF A
æ¿Ģ åħī
ever al
Ġent ering
åŃĹ ç¬¦
ä¸ ¸
Rep ly
èµ° è¿Ľ
äºĳ åįĹ
åĪ¶ çļĦ
ĠN orthern
Ġans wered
ĠHe art
ĠN iger
èĦļ æŃ¥
Pro file
Ġ åĴĮ
Ġbenef icial
ate ful
è¯Ń éŁ³
ĠĠĠĠĠĠĠĠĠĠĠĠĠĠĠĠĠĠĠĠĠĠĠĠĠĠĠĠĠĠĠĠ ĠĠĠĠĠĠĠ
ä¸Ń æľī
Ġmet ric
Ġl ady
B uy
r if
Ġautom atic
ï¼Į è§ģ
che ster
ä¸Ģ ä»½
å¾® åįļ
P ass
v als
.j son
Ġalong side
æŁ Ħ
ĠL inux
Ġf t
_ST R
ï¼Į è¥¿
æł ĭ
Ġstri p
_ output
å¼ ĺ
ab out
e z
çĿ¡ è§ī
ĠF ord
èĤ ª
AT ED
Ġcomb ine
çļĦ ä¸ĭ
æ°Ķ ä½ĵ
ĠN atural
Ġb ab
æīĢ éľĢ
éľ ŀ
ar ters
Ġpar a
contain s
ĠF un
ĠH or
. index
æ¹ĸ åĮĹ
ä½ľ åĩº
^ *
ï¼Į çĶ¨äºİ
Ð° ÑĤ
Ġdecre ased
æ¸© æŁĶ
Ġwas h
æµª è´¹
} -
Ġp ace
Ġrec all
ay a
by tes
Ġm ood
! )
_ all
Ġliter ally
ĠQue en
å¤ĦçĲĨ åĻ¨
b les
ĠScot land
wh ite
Ġenforce ment
Ġeng aging
Ġatt ended
å± ģ
çīĪ æĿĥ
ĠL anguage
ĠWe ight
_ op
ĠKore a
RE AD
çļĦ ä¿¡æģ¯
Ġmole cular
w ill
å®ŀæĸ½ æĸ¹å¼ı
Ġthe rap
gress ive
Ġloss es
èĭ± æĸĩ
æıĲ åıĸ
u is
UT H
ä¸ĭ æĿ¥çļĦ
A p
ĠM other
Ġt act
è´¯ å½»
æĪĸ æĺ¯
Ġr ational
Ġdeb ut
Ġstri ke
ĠS pec
g i
ĠH arr
Ġwrit es
Ġpref ix
Ġcert ified
Ġhard er
æł ª
Ġgu ilty
å®Į äºĨ
ĠB ody
eli hood
Ġassum ed
ili pp
w a
Bl ack
L ove
Ġclick ing
ov a
ĠA wards
èĦĤ èĤª
ul in
lik ely
Vari able
å¤§ åĵ¥
éĺŁ çļĦ
ç¦» åŃĲ
ĠSp ain
åºĶ æĢ¥
ĠR h
Ġfocus es
.m in
æİī äºĨ
AR AM
ï¼Į åºĶè¯¥
Ġsubs cription
åĵ² åŃ¦
ï¼Į å¯¼èĩ´
Ġoptim ization
is play
Ġalgorith ms
ĠAg ency
st ra
è¿ĩ äºİ
iz abeth
V ID
ĠL icensed
Ġch rom
é¢Ĩ åħĪ
ĠB ang
Ġprov isions
çī© ä¸ļ
Ġ æĪĳä»¬
- for
_b uffer
Requ ired
Ġint ensity
æĺ¯ ä½ł
Ġdem ands
æļ ĳ
Ġmod ules
â ī
Ġsch olar
Ġche st
)$ .
Ġp our
h ar
å¤ļ ä¹ħ
ç§ĺ ä¹¦
Ġg entle
/ \
Trans action
In formation
ĠC PU
è¿Ļ æĹ¶
Ġstay ing
at rix
åħ ĳ
Ġ æīĢä»¥
Ġd ies
On line
ĠA ge
v ision
Ġx ml
wh o
éļ¾ åº¦
ï¼Į åıĳçİ°
ĠSen ior
Ġweap ons
St ruct
}^ {\
Ġf iber
ĠD ark
Ġli ver
nov ation
è¿ĳ æľŁ
äºĨ å¾Īå¤ļ
Ġref resh
è· ª
çĭ ®
åı¯ è§ģ
AG S
Ġass ignment
Ġcomplex ity
è´¦ æĪ·
çº ²
arg o
ĠTH IS
ĠPa per
Ġbu g
ĠM s
ï¼Į ç¬¬äºĮ
ï¼Į å¼Ģ
èĮ Ĥ
fl ags
f ramework
ĠWARRANT Y
Ġfeat uring
ĠIm port
Ġpol ar
ĠÐ ¾
æķ°æį® åºĵ
M ac
åľº çļĦ
. en
Ġaim s
ä»½ é¢Ŀ
Ġpost ing
ä¸Ģå®ļ ä¼ļ
åĲį åįķ
ĠT otal
Ġs qrt
Ġwere n
S olve
Î ³
äº§ æĿĥ
ï¼Į æīįèĥ½
çĲ ª
Fl ag
ĠB ra
eg ree
ĠRepublic an
Ġvari ation
_D IR
( res
he alth
ç»Ļ å¤§å®¶
Ġinter vention
Ġl ens
ĠP rivate
I EL
** *
_ ref
Ġwond ering
Ġtr im
ãĢĤ åı¯æĺ¯
é«ĺ æķĪ
åĲĪ çī©
_ val
A uth
_ check
ĠPr ime
l an
åŃ£ åº¦
Ġm erg
Ġh am
æŃ£ç¡® çļĦ
Ġfew er
id ity
am ine
SE LECT
å± ĳ
: âĢľ
ĠT al
Ġp odcast
\ label
Ġdifficult y
in als
éī´ å®ļ
Time out
åħ± äº§
t or
Ġoff ense
ivers ary
TH ER
è®¾å¤ĩ çļĦ
.to String
åĴĮ æĪĳ
æľª æĿ¥çļĦ
Ġbro ke
åĴĮ ä»ĸ
Ġaward ed
p ay
ï¼Į ä½¿çĶ¨
ä¸Ń å°ı
Ġe leg
uck et
Ġlif etime
ï¼ģ ä½ł
ĠEmp loy
Ġvol tage
Ġo xygen
é¢ ģ
å¤ª å¤ª
ä¸Ģ éģĵ
éĩĩ éĽĨ
Ġens uring
å°ĳ æķ°
ĠBro ad
ud o
Ġsatisf action
Ġse es
Ä ĥ
Ġconstruct ed
æŁĲ ç§į
é¢ĳ çİĩ
ĠRad io
ĠL ock
ge q
ĠB reak
m ac
Ġact or
Back ground
ä¸ľ åĮĹ
Ġinput s
rep are
j oin
Ġmechan ical
er k
Ġmor al
Ġregul atory
å¹¼åĦ¿ åĽŃ
éĢĤ çĶ¨äºİ
â ģ
. user
ob e
_ (
åıĳåĬ¨ æľº
Ġaddress ed
- cent
c opy
éģ £
Ġdeep ly
Ġim g
- J
r us
Ġres ume
ĠProt ection
èĦ ĸ
s plit
Ġqu otes
Ġut ility
de lete
äºļ æ´²
è ł
å¹³ å®ī
ĠS av
ĠSt an
éĴ ¥
Ġad mitted
ĠC a
Ġtit les
çļĦ èĦ¸
ier arch
Ġqu ad
é ¥¿
é¤Ĳ é¥®
Ġmed ication
åĢŁ æ¬¾
æĹ¶ åħī
Ġ è¿Ļä¸ª
AT CH
Ġf i
å°± æ²¡æľī
ph ones
æ°Ľ åĽ´
Ġ åĽĽ
ãĢģ æĹł
Ġ" [
éĿŀå¸¸ çļĦ
Sh ort
ĠBit coin
Ġen vironments
d ays
en ch
ir ts
Ġphot ograp
åŁº å±Ĥ
Ġinv ited
Ø§ ÙĦ
ĠE mer
< !--
ĠF ox
åıĺ æĽ´
rie ve
Ġpric ing
å¸Ŀ åĽ½
åĭŁ éĽĨ
h ot
å¹´ çºª
rape ut
D ist
ĠDes pite
ĠSil ver
b ro
Ġcontract s
Ġf mt
æľ¬ ç§ĳ
ï¼Į ä½ķ
z one
éĽĨ æĪĲ
ĠHol ly
Mem ory
æĪĳ ä¸į
ĠH E
_M ASK
ç´§ ç´§
è½¬ èº«
ĠC lient
åħ¨ èº«
ĠW as
é£Ł çĶ¨
A E
ĠI R
æīĭ æĮĩ
Ġpregn ancy
}} {
S impl
åħ¥ åı£
çļĦ è®¾è®¡
h igh
ylvan ia
ĠR ound
Ġw ake
ic ide
Ġload ing
èĿ ¶
ĠG rad
Ġlog in
Ġref und
- or
ä¹ĭ äºº
/ B
é¢Ħ ç®Ĺ
Ġtrad ition
L en
_d e
ĠCh annel
. error
è¿ĳ å¹´æĿ¥
åĽºå®ļ è¿ŀæİ¥
ĠIm pro
è½¦ åŀĭ
éļĶ ç¦»
ĠS W
Ġf its
Ġpe er
ĠÃ ł
ï¼Į åĪĺ
Ġcolle agues
å±Ģ éķ¿
\ ,
æĶ¾ æĿ¾
F G
ãģ ĭ
S G
æº¶ æ¶²
_ at
urre nce
K it
cuss ion
St op
Ġrev olution
è¿ľ è¿ľ
Ġle af
ä¸¤ ä½į
æĺ¯ ä¸ºäºĨ
æĢ» ä½ĵ
é½¿ è½®
sc ale
ç¾İ é£Ł
, æĬĬ
é«ĺ èĢĥ
åĴĮ è°Ĳ
æµ· æ´ĭ
Ġequ ipped
amp ion
èħ Ĭ
ad ium
Ke ep
Ġnews letter
å¤« å¦»
an th
eg ative
ĠHen ry
it ter
, åĲĮæĹ¶
Ġt ired
Ġc a
com fort
ï¼Į éļıçĿĢ
æĬ¥ è¡¨
çłĶç©¶ çĶŁ
cont in
M ask
ĠRem ove
ç§¯ ç´¯
p one
èĳ ¬
åľ¨ æŃ¤
D U
us ic
un ct
Ġtarget ed
Ġarg ue
Ġphot ography
J S
åįķ çĭ¬
éĥ½ çŁ¥éģĵ
-d imensional
ĠRel ations
OR K
å¼ §
Ġg re
vare psilon
ĠD ocument
æĹ Ń
b ow
- right
- left
Ġv ibr
Ex per
P al
_g roup
Ġord inary
Fin ally
Ġbelief s
ãĢĤ åħ¶å®ŀ
ia h
äºĮ äºº
Ġy ards
s ys
Ġsu ffer
Ġindic ating
sw itch
Ġprint f
æĬ¤ çĲĨ
Ġident ical
Ġfocus ing
Ġs le
ĠC ou
åºĬ ä¸Ĭ
M atch
è¸ ©
ĠT X
æĸĩ æľ¬
çĩĥ çĥ§
Ġpartic le
place ment
å¥³ å£«
çĻ¾ ä¸ĩ
å£° éģĵ
åĨ³ èµĽ
m ann
oc ation
Ġim per
èĢĥ å¯Ł
Ġprint ing
ĠDet erm
Ġs od
Ġg ained
S ervices
. K
IN K
Ġper f
ĠH aving
Ġh int
æ¿Ģ åĬ¨
åĽ½ å¤ĸ
Ġ( âĢľ
ĠI raq
Ġreview ed
oper ative
ĠG reek
Ġaccount ing
b ury
æľī åı¯èĥ½
é¡µ éĿ¢
Ġmult ip
ĠP ur
å¡ ĺ
_ pos
Ġinstitut ion
AN CE
)) )
çĻ¾ å¹´
ĠIn v
æ¬£ èµı
åĨĻ ä½ľ
æ¸ Ķ
O O
, æĽ´
Ġp ink
Ġas c
D I
Ġr ural
i y
Ġhe ating
æĪĲ äº¤
Ġre aching
.C ol
åħĪ åĲİ
in ant
çĸĳ æĥĳ
åĲĪ éĩĳ
p al
x is
Ġelectric ity
Ġbl ind
éĵ¾ æİ¥
æłĩ çŃ¾
Ġl aser
æĢĿ è·¯
æµ ı
Ġg iant
St and
ä¸Ģ ä»¶
.c urrent
ĠB oy
p ress
Ġl oving
resent ation
Ġburd en
Ġsc ored
Ġp s
e lement
. update
iat ric
Ġequ ity
on om
g ence
nd rome
Ġenh anced
C are
rior ity
aps ed
L A
ï¼Įä¸Ģ è¾¹
_D ATA
çĽ ²
ĠRes ponse
åĬĽ åº¦
åħ± æľī
çŃ¾ è®¢
ĠC ell
au ge
Ġw aves
Ġtem por
ro gen
ä¸ĢçĽ´ åľ¨
ĠS olve
{ C
å®ļ äºĨ
ĠStud io
ç¼ Ĩ
åı¯ çĪ±
ĠÐ ´
æº ĥ
oc racy
çļĦ åĲİ
å¼¹ æĢ§
log ger
Ġ ä¸ŃåĽ½
or ous
ac les
: %
r ons
æł¼ å¼ı
at io
Ġst rain
Ġobs erve
ac ent
iz on
ex ample
è£ ¹
Ġinstance of
the y
f il
y cle
ãĢĤ ä¸İ
ĠR yan
çĹ «
Ġs i
=\ "
æĶ¶ è´Ń
åĲĥ çļĦ
ãĢģ å°ı
èĪ¬ çļĦ
ĠPl ant
Ġst unning
uss ian
T P
ut en
Ke ys
æĵ İ
çķĻ åľ¨
.F orms
ĠC amb
ĠC ro
P assword
sh ire
åį± å®³
Ġla id
çĮ ´
oo f
ĠD ream
Ġinvest ments
Ġcon cluded
[ [
i ations
åĸ ĺ
Ġun n
åŃ¦ ä½į
iz ers
æ» ©
Ġsh ots
ï¼Į ç«ŁçĦ¶
ol is
Ġpurch asing
d ep
ãĢĤ å°ı
å®ŀéªĮ å®¤
Ġprof essor
Ġstat ute
Ġp ipe
ik ip
æŃ¤ å¤ĸ
ĠC orn
Ġdeliver ing
Ġprof iles
Ġa ircraft
äººå·¥ æĻºèĥ½
Ġm ile
æ¸ £
pe at
ĠExper ience
view s
L eg
ĠAs k
- min
ĠĠĠĠĠĠĠĠĠĠĠĠĠĠĠĠ ĠĠĠĠĠĠĠĠĠĠĠĠĠĠ
red ict
Ġmy st
Ġsequ ences
ĠSt ream
å·¥ åķĨ
ĠD B
Ġo ven
R Y
æį ı
æĸ° åĨł
ut ies
èĸ Ľ
èĻ ¹
d at
Su per
p are
å¤´ ä¸Ĭ
Ġs ew
ĠL uc
è¯¢ éĹ®
æŃĮ æĽ²
ĠFin ance
åĪ ¹
Ġcont rovers
] =
.C reate
Ġcon vey
Ġenjoy ing
. api
åĽ½ æ°ĳ
athe red
ĠIndust ry
è¯Ń æ°Ķ
he ast
åıį å¤į
Ġw ins
Ġanal ytics
æĽ´å¥½ åľ°
åĸľæ¬¢ çļĦ
s cope
åŃ¦ åİĨ
æ³ ³
Ġobs ervation
ï¼Į çİ°
iam i
Ġclass ification
( H
Ġ ).
Ġcas inos
ï¼Į å½¢æĪĲ
Ġlist ing
è¿Ļ è¾¹
s ome
Ġse eds
c in
(n ode
ĠM ah
ĠComm and
Ġsn ap
ĠUn fortunately
Ġg onna
Ġrest ore
ĠO UT
åľ¨ ä¸Ģä¸ª
_ q
æīĭ éĩĮ
Ġdecl ine
ï¼Įå°± ç®Ĺ
_ image
_ al
åĪ¶ åĵģ
Ġpro min
Ġst em
, ,
Ġb ind
ĠM B
åľ° åĽ¾
Ġtut orial
å¤§ å¹ħ
" The
Ġens ures
St e
ï¼Į äºİ
Ġtravel ing
Ġdecl ared
ob uf
åĩŃ åĢŁ
u z
Ġsp ark
Ġopp on
Ġspe aker
ru its
èĪŀ åı°
a ft
-g ener
v s
åĲĮ äºĭ
ĠSet tings
å¸ĥ ç½®
Ġdis order
å¥½ å¥ĩ
Ġoff ices
å¯¹ è¯Ŀ
G C
ag ic
Ġgraph ics
ä¾Ŀ èµĸ
ĠN ick
ç¤º ä¾ĭ
l ab
ĠAd am
.c lose
ï¼Į æīĢæľī
_ sp
b orn
Ġinv ention
Ġevery body
E V
} "
/ r
ol s
Att ributes
ro b
Ġle ather
ç»§ æī¿
çļĦ æķĪæŀľ
av ailable
ĠS n
ä¿Ŀ æ¸©
ç»´ çĶŁç´ł
æī§ æ³ķ
Ġne ur
- sp
æĦŁ åıĹåĪ°
çļĦ çĽ®çļĦ
èĩª æ²»
åħ¬ äº¤
æľĪ çļĦ
ĠIll inois
åįļ çī©
åı¸ æ³ķ
æ½ ĺ
åıĸ æ¶Ī
ĠSte el
èĭ ¯
éĥ½ è¢«
so cket
Ġyour s
ĠP erm
Ġcampaign s
èģª æĺİ
Ġrec ycl
med ia
ĠComput er
in et
ãĢĤ è¿Ļæł·
ol t
ï¼Įä¹Ł åı¯ä»¥
è¿Ļ ä»¶äºĭ
Ġread only
ĠBe ing
Ġdoll ar
çĭł çĭł
ĠFe atures
çļĦ ç»ĵæŀľ
sh all
ĠIt em
ä»ª å¼ı
å¸® å¿Ļ
Ġdeterm ining
( o
as is
éĻĦ åĽ¾
-t op
Ġcomm ands
è¯ī è®¼
ĠL y
am l
è§Ĥ å¿µ
st ep
ĠAir port
é£ŀ è¡Į
ï¼Į æĮī
çŃī çĿĢ
Ġjuris diction
lic ations
ï¼Į ç¡®ä¿Ŀ
ĠS N
Ġb oss
cy cle
é¹ ¤
å½ĵ åĪĿ
æ¿Ģ åĬ±
ef its
Ġ_ ,
åħ¨ åĬĽ
Se lected
å¯¼ åĲĳ
ĠA B
èģĮ è´£
ãĢĭ æĺ¯
h ash
Ġb id
B et
C ookie
Ġshould er
Ġ ä¸Ĭ
Ġsignific ance
Ġatt itude
ic ular
ĠO bs
çŃī äºİ
èµ· åĪ°
Ġexp on
åĲ¬ è¯´
w all
Ġcomput ing
og ene
Ġ- =
Ġprec ision
P ower
ä¿±ä¹Ĳ éĥ¨
Ġcomp osite
IC K
Ġsub stance
ï¼Įä¸į ç®¡
ç¢ ±
èĻ ¾
Ġs oph
åĴĮ å¹³
Ġenc oding
Ġg orgeous
ãĢĤ åħ¬åı¸
Ġclass ical
ĠK ent
è¿Ľ ç¨ĭ
Ġse ar
Ġhistor ic
ĠGu ard
ĠMount ain
ç²¾ åĩĨ
s ylvania
è§£åĨ³ æĸ¹æ¡Ī
ĠL ew
æŁĲ ä¸ª
ç¡ķ å£«
çļĩ ä¸Ĭ
æĳ Ķ
Ġa wards
ĠIr ish
Ġsuff ered
_ LE
Ġprepar ing
Ġab andon
h al
æį ī
ym met
Ġid x
ĠP ow
Ġanalys es
Ġprom oting
ç¤ºæĦı åĽ¾
Ġha z
ï¼ĮæĪĳ å°±
Prot ocol
el d
éĹ ¯
Ġb old
æķ´ åĲĪ
èĢĮ æĿ¥
Ġprodu ces
ä¸Ģ ä¸Ŀ
ä½ľ æĪĺ
Ġmat t
Ġcount s
Ġstruct ural
es ides
Ġcal c
Ġab ilities
ĠEX PECT
Ġmet adata
ĠI C
ĠSar ah
} _{\
Load er
å¦Ĥ åĲĮ
ĠSing apore
Ġsub str
cept ions
OV E
V R
ĠR od
çĸ¼ çĹĽ
èĴĻ åı¤
Ġacqu ire
Ġopp osed
çĬ ¬
è·¯ å¾Ħ
éĴ ī
ä¸į æĩĤ
Ġrad iation
Ġabs orb
è®² è¿°
Ġdis able
ĠCont ract
å° ¬
Ġmir ror
Ġ ought
ĠLim ited
è¾¹ ç¼ĺ
Ġn it
ikip edia
ĠC ancer
ik a
æīĵ åį°
Ġbacter ia
ãĢģ ä¸ŃåĽ½
çļĦ ä½¿çĶ¨
in ning
Ġsc roll
ri ent
ĠW riting
Ġexpand ed
ĠB ern
ï¼Įä¸Ģ çĽ´
c ook
åºĶ ä»ĺ
âĢľ It
éĻĲ ä½į
Ġy ard
å¿ĺ äºĨ
& nbsp
ĠC le
eng ers
æĶ¶ èĹı
Ġchild hood
_ or
ĠTR UE
åĩºæĿ¥ äºĨ
æīĭ çļĦ
< p
Ġsurv ive
M icrosoft
m ode
Ġse ats
ang ular
- known
æĿĲ è´¨
Ġup grad
Ġbi ological
.f rom
ä¸į ä¸Ģæł·
æĺ¯ éĿŀå¸¸
çĸĳ éĹ®
Col l
over line
ĠIn fo
av el
$ (
çĻ« çĹ«
çľ¼ ä¸Ń
t c
ĠQu estion
é¸ Ń
CL UD
åĦ Ĵ
åıį é¦Ī
Ġprop ag
Ġ" -
.j ava
ĠR og
p ython
çĶ· åŃ©
ĠS M
_d ate
Ġg lob
ĠM ove
Ġsp ots
ĠA venue
Ġto k
, å®ĥ
Ġen zym
c ache
Ġthe oret
Ġscreen ing
âĢ ķ
Ġassert Equals
çĽ¸ åıį
çļĦ ä¸ī
Ġl y
ĠG O
ĠInst all
Ġgot ten
çļĦ åıĳ
ĠSw ed
Ġstrugg ling
ĠI l
c up
ge on
æł ½
Ġl os
ĠF ast
å¾Ī å®¹æĺĵ
!! !
] +
B ER
Ġas ks
unt u
ĠExp ress
ĠJ r
Ġg race
ä» Ĺ
Ġj avax
åĪ ®
åĩº å¸Ń
ĠH ig
ile y
Ġmin im
ĠF red
ä¸Ģ æĹ¦
. -
è¯ Ī
çªĹ åı£
rypt o
Ġpop ulations
Ġcomput ers
Ġincor rect
æĶ¾ ç½®
lim ited
h u
z es
Ġfif th
ig e
ĠE ric
up load
o i
s uch
ï¼Į éĺ¿
Ġexam ined
ä¸į èī¯
Ġcl ip
, åį´
Ġutil ize
å®ŀ æĹ¶
Ġtrans parent
y ard
ĠP arent
ĠL atin
æī¿ åıĹ
Ĉ Ĉ
S pecial
ĠF REE
Â ¶
åī§ æĥħ
åĬ¨ çĶ»
gorith m
Ġvalid ation
othe rapy
æķı æĦŁ
ãĢĤ çĦ¶åĲİ
x f
. client
æĶ¯ åĩº
n ames
Ġwire less
R ate
åįı åĬ©
ĠF ALSE
äºĶ å¹´
éĢ Ŀ
åŃ¦ èĢħ
æ° ¯
åı¯ æĢķ
form ed
Ġg ard
Ġread s
èĤ ¢
d ates
s ystem
_p age
Ġbr illiant
if i
éĹ¨ çļĦ
ĠTr ade
ä¸Ĭå¸Ĥ åħ¬åı¸
ç¦ı å»º
Ġm ild
ĠSt one
ä¸į å¼Ģ
clip se
Su ccess
æ¹ ĺ
_ version
ol i
rad ius
æĸ¹ ä½į
å½¢ åĬ¿
æĿĤ å¿Ĺ
çĶ¨ äºĨ
Ġg all
æĪ ļ
ĠT ool
çŃī æĸ¹éĿ¢
_d ev
b et
ĠC C
Ġh orm
book s
Ġp ocket
ĠPr inc
Ġed iting
ï¼Į éģ¿åħį
io x
ç¤¾ä¼ļ ä¸»ä¹ī
m etic
ĠH om
ä¾Ŀ éĿł
Ġencour aged
çĻ¾ åº¦
_p oint
ist ence
Ġsh ops
iv a
Rep ository
è®¤ å®ļ
rop y
& &
æĭ¿ åĪ°
. O
ĠP ri
å®ī å¾½
Ġinter active
Ġconst raints
ound ing
em ption
å¤ĸ éĥ¨
Ġth inks
ä¼ł è¯´
Ġ riv
Ġinter rupt
æµģ è¡Į
åĴĮ ä½ł
Ġe le
ĠEd ition
Ġph ones
æĻ¯ åĮº
all as
Ġs id
Ġt rem
ain less
Aut o
éĩĩ è®¿
Ġmor ph
ĠO P
ĠT erm
ĠRequ ired
åİŁ å§ĭ
Ġobject ives
ot ation
$$ \
Ġb ills
æ» ŀ
vent ions
çŁŃ æľŁ
Ġmeaning ful
ck er
ĠR s
Ġsome how
Ġme ets
ç¾İ å¥½
çŁ³ æ²¹
sm all
ĠTrans port
ĠPer haps
ĠBr and
Ġdis ag
Ġdis ability
Ġemb edded
j ango
å© ·
d ocument
ä¼¸ æīĭ
ul i
åħ¬ å¹³
be an
=" #
åİĺ ç±³
pl ant
, è¿Ļä¸ª
æľī åĵªäºĽ
var phi
T ION
Ġ" .
è·Ł æĪĳ
Ġleg end
å¤Ħ ç½ļ
\ '
AN S
Ġf iction
æĴ ķ
ĠBrit ain
ï¼Į åı¯èĥ½
ĠLe ave
Ġopt ical
is odes
ĠK at
Ġcal m
Ġconstruct or
è¡¥ åģ¿
Ġt ap
ĠV en
Ä į
th row
ĠTh ough
ä¸Ģ åĿĹ
Ġenc ounter
æł¡ éķ¿
ock er
Ġser vers
ä¸į å¤§
Ġsole ly
Ġflex ibility
æĪĺ å£«
Ġf rames
ãĢĤ æ¯Ķå¦Ĥ
Ġdis cretion
Ġhapp iness
ä½ľ å®¶
ON T
g raph
ari os
ĠFil m
åħĥ ä»¶
f ire
æĿ¿ çļĦ
in ance
ãĢĤâĢĿ âĢľ
å° ´
ĠÐ º
çļĦ æķħäºĭ
S ep
æ°ĳ ä¸»
Ġinj ured
ric ulum
ĠA k
_IN T
ĠV iet
U FF
çºª å¿µ
æĬĢæľ¯ çļĦ
ic ode
Ġvacc ine
ï¼ļ ãĢĬ
W indows
æ¨ ±
W R
m ony
ĠElect ric
ĠV ar
Ġdevelop er
çĤ¹ çĤ¹å¤´
ĠQu ick
Ġh ung
çļĦ è¯´éģĵ
ï¼Įä¸į æĸŃ
éļı ä¾¿
åľº ä¸Ĭ
_ HE
Ġpredict ed
Ġlog ging
æĦ §
PO ST
. string
Sc roll
Ġ rib
åĪ© çļĦ
sh al
yt ic
L atest
Ġw is
QUE ST
C ur
st at
Ġâ Ĥ¬
cos ystem
ĠFr ont
Ġdiscuss ions
ĠB AS
è¡ «
ĠN ut
æµ· å¤ĸ
the w
Ġn s
Ġpr ayer
, ä¸İ
ĠH IV
Ġcut s
ï¼Į äººä»¬
Ġ Ñ
èµļ éĴ±
ĠAri zona
Ġhop es
ev ents
ĠR O
Ġsens itivity
(" \
T race
èĢģ çĪ·
Ġwe ights
æµı è§Ī
æŀģ ä¸º
ï¼Į çĽ´åĪ°
W I
ib ration
æĶ¾ ä¸ĭ
Ġton ight
che me
ãĢĤ ãĢį
ow a
ĠS ir
Ġem otion
Ġto oth
Ġeffect iveness
D atabase
æķĻ æĿĲ
å°´ å°¬
ĠGu id
gh an
æľī è¶£
Are a
/ P
å®ļ åĪ¶
åĵ İ
over ty
åĺ´ è§Ĵ
Ġ Ã©
} +
t otal
_ context
Ðµ ÑĢ
å¼ ¦
ash board
H ey
Ġres idence
èģĬ å¤©
ĠArt icles
çķĮ éĿ¢
ĠT en
ĠB ath
æ²¡æľī ä»»ä½ķ
Ġor ange
Ġor th
Pro gress
ĠE asy
ç¬¬ ä¸ĥ
Ġl oud
Ġaffect s
ĠT arget
é«ĺ æ¸©
Ġinvent ory
Com ments
] *
ä¹ĭ åľ°
Ġco ck
.sp ring
Ġrel ating
Ġ" ",
ï¼Į å¿ĥéĩĮ
ĠUn ivers
ï¼Įéļı åĲİ
ï¼Įä¸º ä»Ģä¹Ī
èĲ½ åľ¨
Ġf lying
åĬ¿ åĬĽ
ĠDav is
Ġk il
éĻ¢ æł¡
pl ain
op es
Ġindu ced
aw are
ĠQu estions
èĤĮ èĤ¤
g on
Ġviol ation
åĴ ¸
Ġhead ing
g ression
Ġiniti ative
Ġ ãĢĤâĢĿ
Ġin ch
ä¹ĭ åĨħ
ä¼ł æī¿
\ frac
çļĦ è¿ĩç¨ĭä¸Ń
Ġt ile
çŃī å¥ĸ
Ġh yd
Ġch a
Ġwant ing
åĥ §
bur gh
b re
ra it
Ġj un
v o
æľĢ ä¸º
Ġen emy
- j
Ġtherm al
åĨ² çªģ
IRE CT
Ġfil ters
èĤĮ èĤī
ĠSu ccess
Pro xy
ĠRe lease
el ing
Ġgar age
S pe
oc s
Ġst om
çĶµ åķĨ
éĴ ®
ĠD I
ä½ı å®ħ
Ġclass room
ĠThe orem
. Y
ĠArray List
annot ation
å±Ĥ çļĦ
ĠPlan ning
æĺ¯ ä»ĸ
ĠMag azine
â ķ
ĠE q
Ġ èĻ½çĦ¶
Ġso cket
ĠG ro
ĠO l
Ġsatisf y
åĬŁ å¤«
el ry
Ġbreak s
Ġrec ruit
AC H
W elcome
l anguage
åħĭ æĸ¯
Ø ª
Ġn am
Ġsp ray
å¦ ¨
ĠO THER
W atch
ĠMod ern
Ġproport ion
Ġinterview s
An swer
ass ion
æĽ´ æį¢
_ args
å¤§ å¤§
ä¾ĭ åŃĲ
ub ble
æ°´ æŀľ
åı¸ æľº
and id
æ¶Ī éĻ¤
ĠN ic
olut e
ç¾¤ ä½ĵ
( ch
u er
åĲĮåŃ¦ ä»¬
éķ¿ åº¦
åĴĮ ç¬¬äºĮ
h h
ĠW ould
æģĲ æĥ§
Ġcompat ible
H TML
æīĵ çĶµè¯Ŀ
æĺ¯ ä»¥
çļĦ è¿ĩç¨ĭ
Ġ" ${
çĥ ĺ
Ġcoord inates
Ġf illing
çŃĸ åĪĴ
å¤§ ä¼Ĺ
è¥¿ æĸ¹
ç¦ģ æŃ¢
èĨ ı
Ġscen es
.s plit
Ch ildren
ra ctions
Ġh tml
ï¼Į æĮīçħ§
Ġver b
Ġvict ims
, x
Ġbul k
çļĦ çĥŃ
éĿ¢ åĲĳ
Ex pr
éļĲ èĹı
L ight
s ign
æĺ¯ ä»İ
ï¼Į çªģçĦ¶
æ³¢ åĬ¨
Vert ex
ĠM iller
çľ ¯
_f ield
ĠK ids
reg on
Ġar my
iter al
ell ite
Â µ
æ²¡æľī ä»Ģä¹Ī
y o
ï¼Į äº¦
Ġpass es
IT S
r ator
Ġle an
ï¼Į æĹ¢
Ġc atalog
Log in
ï¼Į ä¸»
Ġres on
ĠM ust
Ġbuy ers
çļĦ æĦıæĢĿ
Ġdu plic
ĠFore st
æĴŃ æĶ¾
em ed
ĠD ou
ace ut
åĬ© äºİ
æł ĵ
æīĭ ç»Ń
ĠC over
Ġhead ers
[ \
Ġg ly
_m essage
r iger
F D
åĬĽ äºİ
Ġground s
v ol
$ _
ï¼Į æĺİ
Ġterm inal
Ġde pos
struct or
çĦĬ æİ¥
Ġdiv ide
- le
tain ment
å®Ŀ è´Ŀ
Ġt ape
/ D
ç§į ç±»
ĠAtt orney
åŁİ åĮº
, ä½¿
å®¡ æŁ¥
( ex
. int
Ġneut ral
ć ć
.m ap
Ã º
è¥¿ å®ī
åİļ çļĦ
Ġ ï¼ļâĢľ
å¸Ī åĤħ
Ġover l
ä¸ī äºº
Ġadministr ative
çľĭ çļĦ
Ġ' <
ĠPh one
ac cept
_f ree
æľŁ éĻĲ
Ġgr ateful
Ġm arg
ĠS ent
çľ¼ éĩĮ
Ġfunctional ities
ï¼Į åı¶
RE D
ĠMan ufact
å¦Ĥæŀľ ä½ł
l ined
Ġo w
Ġim aging
Ġfarm ers
Ġf estival
Ġacqu isition
Ġbet a
T D
Ġrem oving
Ġg ym
æ±Ł åįĹ
ĠR a
ĠCor p
è½´ æī¿
æĬ¬ å¤´
Ġclass ified
in ery
Ġview ed
åĪ© æģ¯
åŃ¦ çļĦ
Ġexpl oring
_ item
Ġgener ator
i ov
c ustom
quir y
f iles
Ġexecut ed
. cl
ĠCons ent
ĠCont in
Ġisol ated
åĲ¬ äºĨ
æĸ° å¢ŀ
ä¹ĭ æĹ¶
Ġperson nel
å¼ ĵ
ï¼Į èĭı
Ġ åĪĺ
Ġpred iction
ĠB urn
çļĦ ä»·æł¼
q q
ä¿Ŀ åģ¥
N ULL
Ġb rid
ors es
Ġdiv is
Ġfrequ ent
ãĤ Į
ĠPract ice
Ġc ow
T X
ĠO x
Ġcy ber
Ext ension
Ġwat ers
çł į
l at
è®° è½½
ĠB ell
ĠOut put
V P
Ġsepar ated
è¾ ±
ĠEx change
Ġf ram
é¡º åºı
AR K
b n
åħ¬ çĽĬ
çº º
å¼¹ ç°§
åĮĸ å·¥
O H
_m em
(" /
äººæ°ĳ æĶ¿åºľ
æŁ ¯
åıį èĢĮ
ç¾İ å¥³
ä¸ĸçķĮ çļĦ
ĠH TTP
Ġaffili ate
rit ical
Ġg od
éĶĻ äºĨ
è£ ķ
è¯´æĺİ ä¹¦
èĬ ½
ĠV ari
erial ize
è°ĥ çĶ¨
ï¼Į æł¹æľ¬
å¢ĥ çķĮ
ĠC art
ĠB UT
H ot
or ption
Ġinvest ing
éĢı æĺİ
S creen
(t est
æ¢ ¨
y al
riev ed
ç¨ »
ĠÎ µ
éĻ¢ éķ¿
Ġsc reens
Iter ator
Ġwe ird
Ġdis pos
åĽŀ åºĶ
Ġsm oke
Ġn erv
çĪĨ çĤ¸
Ġmoment um
èį£ èªī
P res
.sh ape
com ment
Ġju ice
åĳĬè¯ī æĪĳ
å±± è¥¿
èį¯ åĵģ
hav ior
l angle
çī ²
ĠE astern
F ORM
Ġo vers
çĨ ¬
CLUD ING
åĪĩ å®ŀ
Ġ' ,
Ġch ampions
it u
. <
æ±¡ æ°´
ĠLoc ation
et ric
èĬĤ å¥ı
H istory
AR S
Ġelect ed
è¯Ŀ é¢ĺ
P ointer
A IN
ĠY OU
Ġ# [
åĪĹ è¡¨
Ġcir cul
Ġch ip
Ġsur faces
Ġf ed
_ AT
å®ŀåľ¨ æĺ¯
ĠWil son
æķ° çļĦ
. open
ï¼Į åĪĨ
ãĢĭ ,
M s
æŀ ¯
ow ed
pl atform
H is
c lose
connect ed
sem ble
ä¸ĵ æ³¨
Ġlapt op
Ġmetab ol
t ree
Ġarg ues
ĠSt yle
Ġveget ables
_ msg
åĮĸ å¦Ĩ
âĢĻ .
å¸ ĺ
_ line
am ic
EN S
Ġst ations
Gener ator
Ġsupp ose
æĸ° é²ľ
, å°ı
ĠB a
éĽ¶ åĶ®
Ġhot els
In ternal
Ġ ic
et c
are r
ä¸į æĪĲ
ä¾ ¦
Ġloc ally
G O
ag a
R end
l r
and o
ĠAut om
Ġemerg ing
åľ¨ å¤§
è¿ľ ç¦»
ç½¢ äºĨ
æĢ» ç»Ł
Ġphys ics
ar ia
Ed ge
ï¼Į åĳ¨
old ing
Ġp ad
Ġvert ex
è·¯ çº¿
ĠAr m
æİ§åĪ¶ åĻ¨
es cription
èº« åŃĲ
Ġhe s
d ist
ĠR on
in en
ĠAm ong
Ġb ands
æī© å±ķ
Ġt ube
ĠM AX
.C t
ind a
Vis ible
åµ Į
_ not
èµĦ è®¯
Ġkey board
Ġo m
W H
Simpl ify
Ġmod es
Ġse asons
Ġsp atial
çĨ Ķ
çĹħ æĥħ
åĲĥ äºĨ
ï¼Į æĥ³è¦ģ
Ġm s
å·¥ äºº
Ġc aut
g iving
Ġover view
.x ml
nes ota
ĠAv ailable
_ LOG
Ġm a
å®ŀ ä½ĵ
Ġtrans f
åĬŁ æķĪ
F ore
Ġv otes
v d
éļ ¶
åŃ¦ åĳĺ
Ġwork place
U LE
Ġ ion
åģ¥ èº«
ams ung
Ġin comp
/ x
St ar
as ion
Ġsupp lied
sub set
âĢ² âĢ²
ĠPak istan
Ġst roke
Ġpack ed
Ðµ ÑĤ
åıĮ çľ¼
P ref
S ort
sh ort
mat ory
è®º åĿĽ
Ġ åĽłä¸º
Ġtrust ed
æĢ» é¢Ŀ
Ġdis orders
ĠCook ies
im ated
Ġ Âł
Ġpan els
Ġ ä¸º
umer ic
Ġsett lement
ast ing
Ġdist urb
Ġstay ed
Ġprec ise
ï¼Įä¹Ł ä¸į
ĠPer formance
Ġcre f
éĺŁ éķ¿
Ġconsist ently
ĠInd eed
Î Ķ
Ġspecial ist
Ġpol ynom
èĬ± åĽŃ
T HE
éĺŁ åĳĺ
Ġcomb at
[ k
Ex ample
Ġy e
M ove
ï¼Įå¦Ĥ ä»Ĭ
set tings
- week
è° ¦
.w idth
Ġmin ister
è¯´ æ³ķ
Ġphilosoph y
Ġb ull
@ Override
åĬ¨ æīĭ
TE ST
åª ļ
Ġ' ./
Ġodd s
ĠM u
cond ition
åį ĳ
Ġapp ellant
è¡¨ åĨ³
ï¼Į å¼Ģå§ĭ
åĢ ¡
ç»Ļ å¥¹
åħ ®
ç¤¼ çī©
åĪ« äººçļĦ
TER N
ry ption
Ġmatt ress
Ġm es
-d e
ust ain
Ġ å¤©
è¿Ļ æ¬¾
b est
ĠS quare
æ¶Ī æ¯Ĵ
^{ (
( args
éŃħ åĬĽ
Ġv ice
MA X
ĠVeg as
-b ack
Ġworks hop
B P
c md
çĪ± å¥½
Ġcr ash
èµ° åĩº
ä¸Ĭ åīį
Ï Į
æıĲ åĪ°
åħ» æ®ĸ
un es
æ£Ģ å¯Ł
åľŁ å£¤
Ġra ising
ĠD IS
Ġcomp os
F ailed
Ġmer ge
Select or
O bs
op her
de cl
ĠSt ation
åĲĪ æĪĲ
Ġswim ming
åĮ Ļ
åĨħ åŃĺ
éª Ħ
act ivity
S ocket
ä»ĭ è´¨
: n
æľ¬ åľ°
n ie
ĠDon ald
ĠTor onto
ut f
ä»ĺ åĩº
up id
Ġsc rew
su ccess
çĶ³ æĬ¥
äºº åĬĽ
åĪ° æĿ¥
ĠS ingle
éľ ī
Ġto mat
Ġh oles
Ġholid ays
... "
Ġall erg
Ġk illing
requ ency
Ġheav ily
Ġent ities
. Read
or i
s creen
ĠX ML
.ed u
ph y
r f
æĪĳ ä¹Ł
ĠRec ord
Î ¬
State ment
èĬĤ èĥ½
ĠAb stract
/L ICENSE
Ġsome body
Ġm esh
Ġph rase
on ia
Ġco at
_m in
çļĦ èº«ä½ĵ
Ġunus ual
èķ ¾
ir k
Ġtele phone
S ymbol
éĿ ĸ
ä¼ļ è¢«
æ¶Ī åĮĸ
å¼Ł å¼Ł
Ġw rap
è¾ĥ é«ĺ
é¡¹çĽ® çļĦ
è¿Ļ åı¥è¯Ŀ
èĢģ å©Ĩ
b ell
Ġexerc ises
è½» æĺĵ
Ġ çĻ½
( @
ï¼Į å¿«
Ġexception al
ĠB uff
è®² è§£
ish ment
æľĢ å¤ļ
æı ī
Ġconnect ing
. ref
A nt
è§£ æĶ¾
_ and
Ġ æĿ¨
ĠS ix
å¥½ å¤Ħ
æĺ¯ å¾Ī
r in
Ġl ake
ï¼Įä¸į çŁ¥éģĵ
äºĪ ä»¥
Ġsymbol s
Ġt ensor
çľĭ å¾Ĺ
åĸ ī
ĠC ulture
ĠH olid
Ġnot ification
pt on
å³ ¡
Ġdam aged
è¢ į
Ġimpact s
é¢ĨåŁŁ çļĦ
ä½ł åľ¨
Ġap i
Ġrare ly
ĠS cript
ä½ĵ ä¼ļ
æ³ķ å®ļ
æį §
ï¼Į åĩłä¹İ
å¸ Ĩ
Ð¸ ÑĤ
p ower
m ult
p op
T erms
Ġconven ience
Ġconvert ed
åĨĻ çļĦ
ĠCON DIT
Be an
Ġw estern
ï¼Į çĶŁ
az a
head ers
åį° åĪ·
ot ive
it ations
Ġign ored
Ġadequ ate
ul us
çĹ ´
Ġcomp an
Ġr iding
ç» £
æ·· åĩĿ
Ġob l
t an
çļĦ è¡Įä¸º
åĪĨåĪ« ä¸º
. ext
çĶ ©
åĽ½ åĬ¡
Ġ ×
å¯¹ å¾ħ
å°ļ æľª
ĠR os
Ð ·
o en
, çĶļèĩ³
Ġgenu ine
_E Q
ĠA li
ä¸į è¯´
èĤº çĤİ
. array
ï¼ĮèĢĮ ä¸įæĺ¯
ĠAl tern
ĠRem ember
Ġinvestig ated
ãĢģ å¸Ĥ
ĠFor um
ç¼ĵ è§£
å¤ļ ä¹Ī
ĠF is
è° Ĭ
çĪ ª
Ġdr inks
å¹² ä»Ģä¹Ī
Ġsyn chron
åĲĳ ä¸Ĭ
) "
ors hip
/ k
ĠR eb
çģ« è½¦
å®ĺ åĳĺ
aceut ical
éĢī æīĭ
Comp at
ym pt
ld ots
åı¦ä¸Ģ æĸ¹éĿ¢
æĹł çº¿
Pub lished
Ġem issions
Ġev ident
_N O
app a
x e
ly n
G l
, åıª
Ġprocess or
Ġ åħ¶ä»ĸ
umin um
Ġcalcul ation
éĻķ è¥¿
æ³ Į
vious ly
Ġprom otion
èª ĵ
- one
Ġsubs id
FFFF FFFF
éĺ² å¾¡
Ġorgan is
ĠG R
ãĢģ ä¸ī
. i
Sh ape
åĬł å¤§
è½¬ åıĺ
ĠS ound
ĠMin istry
åľ° çĲĨ
Ġp ushed
d rop
ist ically
åħ¨ å¸Ĥ
r ant
Ġs q
Ġi OS
= %
Ġdiam eter
éĥ¨ éķ¿
Ġaim ed
enn es
éĽ Ģ
am er
in ternal
/ F
ï¼ Ŀ
ĠH P
Ġm ad
H C
ç¦ ħ
ä»ĸ æĺ¯
] ['
an z
ç¡¬ ä»¶
, è¿ĺæľī
J o
ĠUs ed
G iven
ĠB ud
# import
rupt cy
å¹´ åīį
ĠN EW
Ġgovern ments
Ġproduct ivity
-s cale
Ġcoun cil
f ull
tr l
ĠAct ive
ĠT alk
Ġn ations
Ġanal yst
æ³ Ĭ
Ġnurs ing
é»ĺ é»ĺ
t oken
æĦŁ åĬ¨
ï¼Į æľª
Ġag ed
Ġredu ces
Ġaddition ally
in ction
å¯Ĩ çłģ
(s ize
Ġra c
æ°Ķ åĢĻ
Ġguarant eed
ĠL as
S eg
Ġelim inate
èĨ Ŀ
ä¸¤ å¤©
è§Ĥ çľĭ
ĠPl atform
æłĩ è¯Ĩ
è·Ł ä½ł
ĠB and
ĠE mb
Ġposs ibilities
ĠId ent
Ġarrest ed
åİŁ åĪĽ
ï¼Į åįĹ
adel ph
Ġn ights
Ġm oon
ï¼Į æĸ¹
ä¸¤ æ¬¡
Ġd st
æĢ» éĥ¨
@ g
Se lection
æĭĽ çĶŁ
ä¸į ä¹ħ
Ġ é«ĺ
Â ¾
Ġs ql
ĠO nt
v g
çĽĳ äºĭ
è´µ çļĦ
Ġ' .
è¡Į æĥħ
M anag
Rem ove
æ£ ļ
Ch ain
ĠS end
ï¼Į ä»¿ä½Ľ
æĨ ¾
çĸ« èĭĹ
Th ree
et o
_ event
ĠH ouston
c mp
Ġtransfer red
æĭĵ å±ķ
çī¹ å®ļ
_ obj
éĻ Ľ
Ġsign ing
ĠHam ilton
M arket
N ecessary
Pl an
cp y
_m ethod
ĠS imp
ä¸į å®¹æĺĵ
ĠB oolean
ä¸Ńåįİ äººæ°ĳ
ä¸Ģ æ®µ
Te chn
Ġgl uc
å¯¹ ä½ł
RE G
Col lect
ĠCar l
åĪ¶ å¤ĩ
est ination
AN N
ĠB on
æ°ĳ éĹ´
å¤± æľĽ
å¸¸è§ģ çļĦ
å°± è¢«
ĠPenn sylvania
ĠAss istant
b its
ä¸ľ åįĹ
Init ial
ĠTe le
åħ³ èĬĤ
Ġex clus
' );
ĠB C
Ġd rain
ä¼łç»Ł çļĦ
Ġmod ification
ĠA pr
æĥ Ł
ãģ £
w ich
æīĢè¿° ç¬¬äºĮ
Ġsaf ely
Ġprec isely
ag ma
( Q
åĸ »
ĠM ulti
ĠB ush
Ġn ose
ct rine
Ġwor ried
)) ;
. ;
åĲĳ åīį
æĦŁ åħ´è¶£
åİ» çļĦ
r ust
_m od
éĩįè¦ģ çļĦæĺ¯
ĠAnn ual
æµ ĩ
åĮ» èį¯
Ġint ense
ĠAn th
Ġsm oking
åįļçī© é¦Ĩ
åĽŀ å½Ĵ
. key
Ġopp osition
ï¼Į éĩĳ
ï¼Į å¤ª
Ġc oding
Ġroad s
çľĭäºĨ çľĭ
ĠVis it
ĠPl aintiff
ER E
Ġt x
- V
Ġanim ation
ĠF eed
ĠKit chen
Ġf ert
è®¡ éĩı
.h pp
ä¼ł åĬ¨
èķ ´
ï¼Į åħ·ä½ĵ
ĠÎ ²
ĠD ead
æľ ķ
åħ Ĩ
us et
Ġexplicit ly
ĠDie go
th rough
ĠT ru
d im
åŃ£ èĬĤ
Ġw idget
æ±Ł è¥¿
. Value
Ġcontribut ed
çĶ¨ åĵģ
Ġheart s
se lected
æŃ ĩ
Ġp df
Ġmove ments
ĠS ide
èĳ£äºĭ éķ¿
ĠK ind
( re
B T
âģ Ħ
äºĨ å¥½
m eta
Ġidentify ing
ĠPl ayer
ĠUk raine
Ġelse where
Ġiniti atives
Ġo h
f ish
åĩº éĹ¨
é¢Ĺ ç²Ĵ
è¶ħ è¶Ĭ
ok ens
å¯¹ æŃ¤
æĪĳ è¦ģ
æ°Ķ æģ¯
ĠN FL
æīĢè°ĵ çļĦ
Ġd ys
çĻ» å½ķ
æĥ³ æĥ³
F low
Ġlet ting
Des c
ĠHar ry
Ġs ke
ook s
_SE T
ï¼Į æķ´ä¸ª
pl ug
ï¼Į çľĭåĪ°
æĬĬ ä»ĸ
_w idth
å½ °
äºº å¿ĥ
æķħ æĦı
ĠC lear
ang el
ï¼Į ä»Ģä¹Ī
cont roller
éĤ£ä¹Ī å¤ļ
-p oint
rou s
_t oken
m atch
åĿ ¤
éģĵ çļĦ
Ġunivers al
ĠB rian
ãĢĤ äºİæĺ¯
ich ael
ï¼Į æĿ¨
test ing
Ġt urb
ol ves
adelph ia
ç¦»å¼Ģ äºĨ
Ġrepro du
è®© ä»ĸä»¬
ç¿ ħ
Û Į
Ġh al
æĶ Ģ
De legate
Ġst ir
F i
äºĨ åı£æ°Ķ
Ġconf ront
åľ¨ ä¸ŃåĽ½
t i
ĠN ature
ĠA G
B oolean
Ġre actions
äºĶ åįģ
is set
åºĹ éĵº
Ġty pename
Ġex ch
Ġweap on
æĽ Ŀ
_ RO
Ġal arm
ĠL A
Ġpack aging
å¥ĭ æĸĹ
Ġmus cles
Ġsol ving
ced ure
åĪĽ æĦı
[ n
Ġtem pl
å°ı äºİ
Ġh iring
( obj
-m onth
l aw
Ġ{ #
ĠG raph
ĠD ue
, çİ°åľ¨
R ole
m arket
S ync
E val
IF T
çĳ ľ
Ġd uties
Ġtime out
Ġheav en
em ma
åĲ¬ è§ģ
åĪ ĥ
Ġaccess ories
ï¼Į é©¬
æĶ¶ æĭ¾
çļĦ åħ¶ä»ĸ
å®¹ åĻ¨
Ġobtain ing
Ġt ort
as i
å¸¦ æľī
Ġinstr uments
ĠPro p
çī© èµĦ
Ġreg ression
ĠA V
Ġper m
âĢĿ åĴĮ
ãĢĤ åĨį
Ġpurs ue
Ġthe orem
Ġintegr ity
Ġcor n
å¤ļ æł·
Ġdis hes
èĮ ħ
h andle
çº¦ å®ļ
ï¼ĮéĤ£ ä¸ª
Ġappoint ed
Ġback up
Ġexperien cing
- $
Î¿ Ïħ
_ port
äºº åĴĮ
è¡Į é©¶
Sec urity
S N
æ°ĳ èŃ¦
äºº ä¸º
Ġbl end
, i
it utes
Ġin cent
Cont inue
B el
èĤ© èĨĢ
Ġpre val
çŃī åĪ°
Ġr c
Ġarriv al
olog ists
Ġfr anch
Ġs outhern
è¿Ļ è¯Ŀ
ĠApp ro
An imation
Ġ> >>
éŃĶ æ³ķ
Ġfollow ers
ä¸ĵ çĶ¨
Ġres ort
Ġpenal ty
ĠCond itions
å½± è§Ĩ
Ġdeath s
Ġredist ribute
çĶ· å¥³
æľº åĬ¨
âĳ £
O ld
ä¸Ģ çº¿
ç½Ĺ é©¬
t rack
import ant
r ank
EN CE
å°½ å¿«
{ $
äº¿ ç¾İåħĥ
Ġexp ense
ig s
èº ģ
èĢĮ åĩº
IEL D
åĬŀ äºĭ
f x
ãĤ ¹
Ġconcent rations
Ġcoord inate
Ġpregn ant
Pat tern
ĠG allery
ic iency
er ge
åħ¬ åħģ
çļĦ åıĺåĮĸ
ĠK ong
ĠP ast
b ind
ĠCONDIT IONS
d on
< td
II I
è§Ħ æł¼
op ed
éĶĪ éĴ¢
ĠAct iv
ä¸Ńåįİäººæ°ĳ åħ±åĴĮåĽ½
åŃĺåľ¨ çļĦ
{ A
yt ical
ĠSk y
Ġbound aries
Ġper t
è¾Ľ èĭ¦
è¶³ ä»¥
yn chron
Ġhost ed
ĠP O
riv en
åľ° éĵģ
Ġvalid ate
ĠCh oose
Ġde leted
Ġspeak ers
æ¡£ æ¡Ī
Ġstream ing
è ¥
uck s
ĠS a
Ġconc ert
ĠCour se
åĬĽ åĴĮ
[ -
Ġorient ation
Ġart ificial
S elf
ĠK evin
lement ation
Ġt ang
Ġc ub
ä¸ ¨
Ġent rance
åĽ½ æľī
ĠColumb ia
T erm
Ġgra b
Ġp ills
éĩĮ éĿ¢çļĦ
Ġb aking
äºº å¤§
çĿ¡ çľł
Ġt u
æĬ¥ èŃ¦
ĠS L
åĮĹäº¬ å¸Ĥ
D ev
s ince
Ġsal ary
éĴ Ļ
Ġrepl ied
Ġc ats
Ġuncertain ty
å· ·
Y ear
éĴ ©
C ert
è®¢ åįķ
Ġb att
L ife
. init
_n umber
å®Ĺ æķĻ
Sh ould
CR IP
å¢ ħ
_F ILE
Ġoper ational
_ST ATUS
çħ Į
it ate
M iss
Ġmembr ane
å® °
. equals
åİ» æī¾
epend ency
W in
% ï¼Ľ
Ġparticip ating
D im
ĠL O
å¹¿ æĴŃ
ob b
æľ¬ è´¨
Ġsupp liers
Ġhead ed
rapeut ic
åľ° çľĭçĿĢ
Ġlog ical
, k
çĶ± æŃ¤
ĠDemocr atic
Ġbrows ing
Ġpart ition
Ġprevent ion
Ġemploy ers
r v
Ġh ol
Ġsh adow
Ġsupp ress
R F
ï¼Į å®ī
ĠEvery thing
ä¾¿ åĪ©
Ġ\ ,
ä¸« å¤´
Ġenthus i
æĪĲåĬŁ çļĦ
ens ure
D uration
e lect
.D rawing
Ġconvers ations
åĽ½å®¶ çļĦ
Ġpres cription
t emp
M apping
ĠP ick
Ġwis dom
ç»ĵ è®º
ĠGold en
ĠG ets
erv let
Ġ" #
f in
umm ies
Wh ite
Pro v
opt ional
Ġt ie
S ample
æ··åĩĿ åľŁ
Ġter rible
Å ¾
.m d
Ġsure ly
Ġint ellectual
Ġ ----
ĠD ise
çļĦ éĿ¢
é¢Ħ è®¾
st op
ĠM oon
Ġnewsp aper
S ocial
. Un
Ġgr an
ç²® é£Ł
Ġdiff er
ous es
_T O
äºĨ è¿ĩæĿ¥
en z
é¸¡ èĽĭ
æįŁ å®³
Ġe cosystem
è½¬ è½½
C enter
g ly
Ġagre ements
æĽ´ æľī
t w
Ġ æĸ°
ing ton
çĽĪ åĪ©
æĥ ©
èµĶ åģ¿
Ġefficient ly
p erson
Ġtri ps
_ entry
.spring framework
Ġel der
Ġa ver
ï¼Į ä¸ĩ
cal ar
Ġstreng then
U IL
ĠJud ge
çŁ³ å¤´
é¥ ¶
æĬ Ħ
; i
ĠW inter
ä½¿ åĳ½
Ġbasket ball
Ġw x
Ġwe igh
çľ ¨
ĠD VD
ãĢĤ å°±
è½¬ åŀĭ
back s
ä¸Ĭ çıŃ
Ġd ot
åī© ä¸ĭ
åı« åģļ
S B
ri um
ä¸ī è§Ĵ
Ġfound er
S imple
ĠS ug
åľ° æĿ¿
Op ens
res ource
Ġnarr ative
, ä¹Łæĺ¯
Ġprodu cer
ï¼ļ åľ¨
Ġapp li
éĶĢ éĩı
ĠVal id
ul pt
- Z
Ġvulner able
ĠBas ic
åıĺ å½¢
çıŃ çīĻ
ĠB ru
Ġcomp ounds
Ġconsult ation
H er
re place
Ġact ively
ĠDe ep
Ġch unk
Ġdifferent ial
U C
= self
m art
Ġwh ilst
Ġaccept able
ol n
Re lease
Ġcapt ured
cy cl
Ġbr ush
ĠÂ µ
Ġstock s
et ition
( arg
_n o
Ġearn ings
s ite
Ġst ats
ä¹ĭ è·¯
Ġcomp ound
Ġhad n
Ã ª
ĠEl izabeth
- content
èį Ĩ
_ request
å® ª
nt il
Ġs lic
è¹ Ī
text bf
èº ¯
Ġcam eras
Ġpe pper
å´ Ķ
èĭ¥ å¹²
Ġqu eries
çļĦäºº çĶŁ
- form
æŁĲ æŁĲ
ĠO cean
E Y
èĩªåĬ¨ åĮĸ
G T
ĠTh read
Ġre leases
ĠSt orage
ĠMot or
ĠLeg al
oun ces
ĠS ong
.l ist
ĠArch itect
ä¸¤ ä¾§
é«ĺ äºİ
_ options
t ra
åķĨ å®¶
Id x
è®¤ çŁ¥
ous ing
Ġneg lig
an ches
æĶ¯ æŀ¶
ffic ients
rop ri
å®¡ è®®
ãĢĤ ä½ľä¸º
equ ality
ç µ
å¤ļ åħĥ
ĠAp pe
? )
Us ers
Ġcreat ivity
Ġc ust
Ġnull ptr
D avid
Ġdef ines
éĢ Ľ
ï¼Į çī¹åĪ«æĺ¯
ter min
v i
ï¼Įè¿Ļ ä¸Ģ
ĠSc ient
Pro p
E F
ĠO ak
w t
Ġcomp osed
.r un
Point s
ak i
çĥ ·
ï¼Į æīĢ
è¡ Ķ
Ġful fill
åĩł åįģ
æĲ ı
à ²
âĢĿ )
Pack et
ç¦ı åĪ©
ile t
Ġin clusion
å·® çĤ¹
. height
Ġsuggest ing
Ġd f
ĠC ut
Ġfacilit ate
æĬĳ åĪ¶
ç¼ĸ åĪ¶
èİ·å¾Ĺ äºĨ
åĩº åĶ®
AR CH
Ġsumm ar
Des ign
Ġz ip
Ġdispl ays
, åĽłæŃ¤
Ġk in
out ing
En able
Ġ. =
ox y
æĦ¤ æĢĴ
Ġtim ing
å¤ĸ åĽ½
Ġnerv ous
ãĢĤ èĩª
Ġmind s
åĵį èµ·
è½¨ éģĵ
ag g
å¾Ĺ çŁ¥
s end
æĭ¿ åĩº
ï¼Į çĦ¶èĢĮ
Ġcogn itive
èĲ¥ éĢł
Ġcas ual
Ġcap s
Ġy oga
Ġaccom p
S ingle
åıĳçĶŁ çļĦ
ï¼ĮéĤ£ äºĽ
ĠC P
IN S
Ġapprec iated
åŃĺåĤ¨ åĻ¨
Ġposs ession
é¡¶ éĥ¨
Ñ ħ
Ġl on
å£ ¶
ĠBAS IS
Ġburn ing
ĠA h
èĥ º
b ec
ä¹¦ æ³ķ
ç¾ ¡
Ġref used
Ġ å°±
çĽ ¼
Ġdriv es
ĠG as
ord inary
P refix
ĠCON TR
ic ator
æīĭ ä¸ŃçļĦ
\ pi
**** **
ĠJ ordan
Ġvot ers
Ġad mission
ç§ ©
Ġtransl ate
h ops
Ġsampl ing
(' /
En vironment
Ġg ay
ĠBet ter
Ġp ixel
look ing
X ml
ç Ģ
ĠM iami
Ġeng ines
A udio
çĶ· æĢ§
Ġcult iv
èº« ä¸ĬçļĦ
OL OR
çļĦ å®īåħ¨
å¹¿ è¥¿
Id s
âĢĿ çŃī
å®¹ éĩı
Ð¾ ÑĢ
ĠP ain
Ġve c
Ġimplement ing
çļĦ çĬ¶æĢģ
Ġblog s
r ays
ĠApp ly
{ b
th s
ï¼Į ä¸¤äºº
ï¼ ĳ
cons in
ou st
ç¨į å¾®
Ġassum ption
ond s
åĴĮ å°ı
Ġcharacter istic
s ave
l ings
Ġhe m
p ot
å¤ĸ è§Ĥ
Ġsh apes
Ġrob ot
( pro
Ġsleep ing
Ġm igration
( uint
å½± çīĩ
æŃ£ å¥½
ç»Ļ èĩªå·±
orne ys
Ġpl asma
Ġreg ime
Ġdifferent ly
_id s
å½ ¦
ï¼ĮéĤ£ å°±
_ header
Ġthrow n
ï¼Įåıį èĢĮ
Ġlabor atory
ĠC V
Ġge ometry
èİ ¹
i ating
ĠH istor
Ġimportant ly
qu ot
çļĦ éľĢæ±Ĥ
ä¼ł å¥ĩ
ä»ĸ è¯´
è°ĥ çłĶ
Ġrece iver
ĠTh ink
ĠN othing
ï¼Į èµ°
he ll
m aster
ĠA udio
Ġun likely
Ġbed s
æĹ© æľŁ
Ġpurch ases
ç¨İ åĬ¡
ĠW HERE
Ġdefend ants
å®ŀ çļĦ
æĬ¬ èµ·
Ġcollect ive
C V
Ġcult ures
Ġt ons
Ġsche ma
/ >
Ġdel ta
ãĢ Ķ
Ġrough ly
Ġn g
Ġview ing
ï¼Į éļ¾éģĵ
Ġexplo res
å¯Ĩ åĪĩ
sh ared
Ġcol lections
Ġcert ification
Ġr anging
ä¸Ģ æ®µæĹ¶éĹ´
d evice
Ġh anging
Ġstru ck
ant e
Ġp uzz
Ġple asant
ĠÎ º
Ġassess ed
ä¸ī å¤§
åıĺ éĩı
ĠOver view
ĠEnvironment al
F ire
ãĢ ķ
åĩº è¡Į
ĠF low
ab a
ĠUS D
riter ia
Ġb omb
éķ Ģ
ct rl
åį Ĵ
D i
Ġrespond ed
æ²¡æľī äºº
ï¼Į è¯´éģĵ
x c
è¿Ļä¸Ģ æ¬¡
Ġexhib ition
èµ° åİ»
ï¼Į å¥½åĥı
åĳĬè¯ī ä½ł
å¯¹ åħ¶
ï¼Į åıĳ
Ġcar rier
pl ane
. List
æĻ¯ è§Ĥ
, c
PH ONE
ĠJ am
ä¸ĭ è·Į
ç¦» å©ļ
g ood
Ġhor izontal
åĮ ł
Ġdesk top
ĠR T
çĶŁ æĹ¥
ä¸Ģ å¤§
Ġco aching
Ġsh irt
èĲ½ åľ°
å® Ľ
ĠD ays
oc hem
Ġs wit
.s end
Ġgener ating
N ormal
ĠSt ories
Ġcontract or
_ equal
W rapper
.t ime
em ia
, è¿Ļæł·
om er
Î ¸
Ġgold en
o ft
ĠG ard
unn el
Ġs b
, ä¼ļ
++ ++
Ġrestrict ed
è§ģ éĿ¢
Or igin
å®¶ å±ħ
è¡Įä¸ļ çļĦ
Ġflow er
æİ¥ åĪ°
ĠCom b
Ġm il
Ġsm ell
Ġmac ro
î Ĺ
æķĪ çĽĬ
ä¸Ĭ æľī
Ġthere by
Ġtri es
Ġmet ers
Ġl ung
Ġbank ing
è¾ Ĳ
Ġvolunte ers
Ġinf lation
çĶµè§Ĩ åī§
âĺ ħ
Ġdestroy ed
ĠF inal
å·® è·Ŀ
çĽ¸ ä¼¼
Ġprem ise
/b in
ne ed
D b
Ġamong st
m ates
ĠDe ath
ĠPh ilipp
_V ERSION
ç¬Ķ è®°
aa aa
Ġc ursor
us al
Ġemphas is
ĠConst ruction
åĩł æ¬¡
èī ĺ
e ff
Ġsur f
ĠL ady
ĠR ow
t le
Ġbe am
ä¸Ģä¸ª å°ı
.b egin
.st atus
å°± å·²ç»ı
ï¼Į æµ·
Ġt ournament
å¸¸ è§Ħ
æĿĢ äºĨ
ä¸į å®ī
èĤ¿ çĺ¤
ä¹Łä¸į çŁ¥éģĵ
Ġround ed
Ġp ipeline
s pec
å¼º çĥĪ
ĠL IMIT
M aterial
Ġ( [@
å®¢ è§Ĥ
Ġrequ iring
ä¸ĭ æĸ¹
ĠCreat ive
ĠG reg
Ġhe ter
Ġsepar ation
é«ĺ çŃī
-b it
s ervice
_r ange
åĲİ æľŁ
Ġpres erve
Ġsimult aneously
ĠM ort
ĠH ay
ä¸Ģ é¡¹
urch ase
_P ATH
Ġpr ide
Ġpil ot
éº Ł
çĶ¨ éĢĶ
ï¼Į åħ±
,å¹¶ ä¸Ķ
Ġorgan isation
åĦ¿ çļĦ
ãĢĬ åħ³äºİ
U CC
ï¼Į å¾ĹåĪ°
Pl ace
å®¡ æī¹
Ġt we
Ġdiv orce
ä¸Ģä¸ĭ åŃĲ
m ay
ĠHolly wood
Ġbut tons
å¯Ĩ åº¦
n ed
Ġfing ers
Ġboard s
éĺ» æŃ¢
Ġf er
âĢĶ and
D L
Ġt err
.st ate
} )$
Ġpro xy
ock ey
è¡Į äºĨ
Ġinvolve ment
æī¾ åĪ°äºĨ
Ġbas eline
Ġc ul
ç« Ń
æĸ Į
Ġoper ated
å±Ģ éĥ¨
æįŁ çĽĬ
ĠC SS
æĮ ½
ĠC reek
è§īå¾Ĺ èĩªå·±
å¦ĩ å¥³
irect ory
ï¼ĮæĪĳ çļĦ
å¤© ç©º
Ġimp ression
Ġ èĭı
é«ĺ æīĭ
ĠC ategory
æĮĳ éĢī
æĽ´ é«ĺ
Ġg oogle
Ġwood en
S W
Ġatt ending
Ġroll ing
ï¼Įè¿Ļ æ¬¡
Ġd w
lo pe
, è¿ĺæĺ¯
, ä¸ŃåĽ½
Ġcons ervation
, p
ç´§ æĢ¥
Ġsk illed
ï¼Į å®Įåħ¨
æĳĦ åĥı
ĠH ttp
new s
å»º æĪĲ
ãģ Ĩ
åŃ¦ å®¶
S cope
Ġref lection
Ġapp et
ĠEn c
åīį åĲİ
V ec
b ad
Ġacc used
é¢ĺ çĽ®
å¤§ éģĵ
å¤ ·
åĽ½åĬ¡ éĻ¢
: -
èģļ éĽĨ
Ġr um
Ġhab its
æ»¡ äºĨ
z h
Ġauthor ized
Ġb undle
ĠStep hen
ãĢĤ ä¸ī
Ġd ont
ä¹Ł ä¸įèĥ½
Ġcere mony
ä¸įæĸŃ çļĦ
è®² è¯Ŀ
au c
valid ate
Ġw ise
åĩĢ åĪ©æ¶¦
çĵ £
Ġreve als
ĠÂ ©
Not ification
/ re
æĺ¥ èĬĤ
em an
åİ ¢
æ¢ ³
ä¸º æŃ¢
D omain
ĠAd vent
åĨĽ çļĦ
ãĥ Ī
æ¸© é¦¨
Ġth ro
Con vert
{ {\
ĠSt op
åĨĴ éĻ©
te ch
Inter val
] ),
Ġve ctors
ĠL OG
ist ered
m ask
m enu
ĠEvery one
Ġprof its
Not ify
_ default
{ P
å¹´ åºķ
åĴ Ĵ
åĸ ĥ
Ġs ink
ĠL oss
Ġh ip
åģĩ å¦Ĥ
Ð¾Ð »
att ributes
Ġhost s
ah oo
ãĢĤ äºĮ
N AME
- he
åħħæ»¡ äºĨ
ch ildren
C r
d ers
çĶµ åĻ¨
Ġinf ections
M ulti
æİĴ éĻ¤
Ġ ä¸İ
ï¼Įæ¯ı ä¸ª
ĠPh arm
u rop
m ove
elf are
Ġl oose
Ġphys ically
We ight
.d b
_b uf
ĠAdv anced
åĩ °
Ġd ictionary
Ġres ident
pr ice
( out
çļĦ éĢīæĭ©
Ø ¯
Ġvari ations
æķĪ åºĶ
Ġl ibraries
Ġcan vas
( item
å¾Ī ä¹ħ
Ġpsych ological
_L EN
ãĢĤ æĺ¯
é¢ ł
éļı æĦı
N ET
ï¼Į åĨ·
éªĳ å£«
( request
Ġc v
Th rough
ĠM ind
ä¹ĭ åĬĽ
Ġhand led
çļĦ æĸ¹åĲĳ
Ġcur ious
ĠL inks
. Type
D iv
ĠH ong
Ġun like
å¸¦ æĿ¥äºĨ
Ġsold iers
Ġhard ly
Ġst ops
re nce
.d ebug
Ġrad ical
Ġs el
\ item
éĿĴ å²Ľ
Ġac ute
w ait
çļĦ ç¬¬äºĮ
\ <
_IN FO
ffect ive
ĠTh ird
é£İ æľº
å¤§ èµĽ
_l abel
åĿļ å®ļ
ĠJ enn
æĥĬ åĸľ
ach uset
Int roduction
ä¸» è§Ĵ
è®° ä½ı
Ġres olved
F amily
(f inal
èŀº çº¹
ĠM L
Ġe lections
è¿Ļä¸ª æĹ¶åĢĻ
ĠB at
ĠH appy
Ġvirt ually
NS String
L imit
Ġhar vest
Ġexpress ions
æ¼Ķ åĩº
ĠM ail
Ġcap ability
æľ¬ æľŁ
èĤ Ĩ
u ates
ï¼Į å¿ĥä¸Ń
end o
Ġv oting
æŀ ¢
åı¯èĥ½ æĢ§
P ut
achuset ts
åĩº ç§Ł
a ired
agn etic
Ġ/ ><
ĠWork ing
èĩ´ åĬĽäºİ
ĠCont inue
Ġfil ing
æ´» æĢ§
èĵĿ èī²
ĠAust in
_c ol
çķ ľ
ID E
Ġam pl
èĢ³ æľµ
Ġentreprene ur
Ġdram a
yd ney
æĺİçĻ½ äºĨ
Ġe igen
åĪĩ åī²
èħĲ èļĢ
Ġbro ker
ap ters
Ġnut rition
. Test
ct l
h d
m ember
Ġtempl ates
æĢ ¡
h ave
w indow
Ġf est
æ²Ļ åıĳ
off ee
çļĦ æľī
ï¼Įå®ĥ ä»¬
ä»¥ å¤ĸ
ç§į åŃĲ
M aster
.p df
Ġcool ing
.S ize
æİĴ æĶ¾
ys ical
hent ication
Ġbal anced
mar ks
Ġconf lic
å¥ ¢
ĠD R
B en
è°¨ æħİ
åº ¸
åĲĮ æł·çļĦ
Ġh ub
ĠM E
å¤§ çº¦
th rows
åĿ ª
èº«ä»½ è¯ģ
Ġn orthern
ï¼Įä¸į ä¼ļ
è¢« åĳĬ
åıĤ è§Ĥ
æĦıè¯Ĩ åĪ°
Ġstom ach
Ġexpl os
è§Ħå®ļ çļĦ
ç£ ·
ĠMin nesota
ĠM T
Sc ore
ï¼ĮæĪĳ æĥ³
éģŃ éģĩ
èĶ ½
Ġm ig
Ġ äºĶ
Whe ther
Ġpos it
t ail
ell ar
E p
Ġg ray
_f e
ä» Ĩ
åĽĽ åĳ¨
å·¥ç¨ĭ å¸Ī
Ġcrypt o
ache lor
è¿Ľ å±ķ
æįŁ ä¼¤
è´« åĽ°
F older
éĴ ĵ
åĽŀ æĬ¥
Ġtok ens
ast y
Ġw ider
ĠC ould
in v
s cription
Ġengine er
G F
_T IM
çĿĢ ä»ĸ
t ip
Ġatt ach
äºĨ ä¸įå°ĳ
æĬĬ æĪĳ
å®ŀ ä¾ĭ
ĠM ade
Ġoffic ially
ĠO regon
Reg ion
F ix
ä¿® çĤ¼
Ġsw ing
Ġra cing
åĽŀ æĿ¥äºĨ
çļĩ åĲİ
ĠM C
Ġcell ular
åħ¬ ç§¯
æıĲ åĩºäºĨ
! (
Ġtest ified
Ġmole cules
èĥ½ ä¸įèĥ½
åī ¥
_C O
ï¼Į ç¥ŀ
èĢģ åħ¬
è´§ çī©
f rak
Ġattempt ed
èĭ¥ æĺ¯
ä¸Ģä¸ª æľĪ
Ġperform ances
åĪĨ çļĦ
èı Ĭ
ä¸į å·²
åľ¨ å®¶
ï¼Į ç»ıè¿ĩ
ĠDemocr ats
ĠD ifferent
è¿ľ å¤Ħ
äº§ éĩı
çļĦ çİ¯å¢ĥ
çħ İ
ethe less
E mp
unicip al
Ġox id
_l ink
Ġpar ad
Ġuser name
des c
al so
s ession
re tt
is ons
k l
ETH OD
Â £
ĠK enn
Ġt ens
ast ed
Ġd ial
_DE V
' ;
Ġ ----------------------------------------------------------------
Ġfrag ment
il ib
ĠLew is
Ġpri ze
ç¼ĸ åı·
ord ered
Ġad option
ç¼º çĤ¹
çļĦ ä¸ĸçķĮ
å¿ĥ èĦı
åĴĮ ç¤¾ä¼ļ
èĵ ī
( user
æ¶² ä½ĵ
è®© èĩªå·±
. content
Ġdis aster
æ©¡ èĥ¶
çļĦ çĽ®æłĩ
UT E
h ire
_ create
ĠR uby
Ġnumer ical
av y
Ġsent ences
åĩı èĤ¥
åŁİ éķĩ
éĽĨ åĲĪ
ï¼Į ç»§ç»Ń
Ġar c
ĠS i
ĠR NA
çīĩ åĪ»
w er
ge red
è¦ģ ç´ł
ey ond
è¶ħ å¸Ĥ
ou ri
Ġep isodes
æ¯ı æĹ¥
R ender
aw ays
ĠSe attle
a uth
Ġas semb
eq ref
ç¾İ å®¹
ï¼Įä¸į çĦ¶
ĠT ools
ĠS ure
.s c
op ts
Ġg el
ĠD er
app ly
D ictionary
ĠA mb
Ġt ension
field s
æľŁ è´§
ĠTur key
X ML
Ġsu ite
ond a
ĠV irtual
.g ov
Qu ick
C ost
åĺ ²
ãĢĤè¿Ļ æĺ¯
æĿĥ åĬĽ
ry ing
Ġaccom pan
Ġreg ards
æµĵ åº¦
- en
. (
Ġphys ician
Ġn m
ç¬ĳäºĨ ç¬ĳ
ĠN ation
é«ĺ ç«¯
Co ord
å®¢ åİħ
å®¢ äºº
è¾ħ å¯¼
ĠB ridge
Ġpush ing
ï¼Įå°± åĥı
ĠSu ite
ass ign
k ind
con nection
, åħ¶ä¸Ń
ĠĠĠĠĠĠĠĠĠĠĠĠĠĠĠĠĠĠĠĠĠĠĠĠĠĠĠĠĠĠĠĠ Ġ
Ġs ectors
è¿Ĳ ä½ľ
çĹħ ä¾ĭ
í ķ
operator name
che m
éĻĽ ä¸ĭ
åĺ »
-h our
Ġcry stal
Ġlad ies
Ġf uck
Ġhospit als
Ġpromin ent
on omy
ï¼Į åĴ±ä»¬
Ġven ue
Ġcharacter ized
éĢĶ å¾Ħ
Art icle
åĿ ł
un ks
Vol ume
Ġthe ories
å¸ ĸ
ï¼Į æķ´
, éĥ½
Ġtype of
çĭ¬çī¹ çļĦ
S ite
åıĳ èĤ²
N eed
Res earch
Ġpro x
_S Y
Ġlegit imate
ï¼Į ä»»
Ġp overty
Un known
LO C
ä¸Ŀ æ¯«
{ E
éĨ ĭ
è´µ å·ŀ
Ġbase ball
Ġsh orter
ĠInt ellig
èĤļ åŃĲ
è§Ĩ çº¿
è¦ģ æ³¨æĦı
Ġ åħĥ
Ġdialog ue
C ancel
ĠOption al
Ù ĩ
Ġgr at
æ² ¸
ess ment
o pp
-b ottom
ĠÎ ´
ä»ª åĻ¨
Ġleg acy
å»º éĢł
Ġproceed ings
Ġmort ality
Ġass ault
çĥ «
ä¸į åİ»
Ġp od
ĠC ome
ĠBro ther
osp el
ĠF a
å°± å¥½
çĨ ĺ
Ġfin ancing
anc ell
Ġb anner
or iginal
.d at
h ard
ĠS umm
çİ «
ãĢģ åľ¨
pr ime
ï¼Į æ°Ķ
ĠCl inton
ĠP interest
Ġp ending
è¥¿ åĮĹ
Ġmoder ate
Ġcompet e
ä¸ļ ä¸»
çģ ¿
îĹ ¥
r ins
Ġthreat s
éķľ å¤´
itud es
Ġres erve
æħ ¨
å®ĮæĪĲ äºĨ
Ġsol o
r and
Ġdevelop ments
, s
om al
æľ¬ åħ¬åı¸
Ġden omin
g it
åīį è¿Ľ
ĠCon c
Ġcomput ed
Ġgener ations
çļĦ è¡¨æĥħ
un ate
ol icy
Ġhand les
ï¼Įä¹Ł è®¸
su it
äºĨä¸Ģ åı¥
éĻ· åħ¥
ĠS peed
-w idth
è¾ Ĭ
Ġconsider able
om p
ĠB aby
éģµ å®Ī
æ¬¡ æķ°
w orld
Ġwas hing
Ġf ur
ä»¶ äºĭæĥħ
Ġpr on
ĠN AS
ä¸Ģ ä¼ļåĦ¿
çļĦ çĽ¸åħ³
Const ants
Ġpassion ate
æ´¾ åĩº
Ġsc ar
ou ds
Ġ' %
i ological
ä¸ĢèĪ¬ çļĦ
å°¸ ä½ĵ
D iff
åĩĢ åĮĸ
Ġarg ued
Y P
âĹ ı
ĠEconom ic
ĠChall enge
ut o
Ġpro l
Comp any
ĠW ire
çľĭ æ³ķ
cont inue
ĠB L
ĠFoot ball
èĤ¡ä¸ľ å¤§ä¼ļ
æ°´ ä¸Ń
ĠIn cre
ï¼Į ç»Īäºİ
éĻĮ çĶŁ
åĲİ ç»Ń
æĹł çĸĳ
Ġn u
Ġdes per
Ġpredict ions
å¼ķ æĵİ
æŀģ åħ¶
_ level
ç»Ł æ²»
_N OT
è¾¾ æĪĲ
Ġbel t
, èĻ½çĦ¶
Ġb reat
ĠT am
Ġl as
Ġpublish ing
ĠJ oin
l ah
Ġexclus ively
Ġr anges
å½ķ åıĸ
ĠD iet
~~~~ ~~~~
on ed
Ġunivers ities
Ġ ï¼ļ
Ġinf inite
.Col lections
Ġrom antic
ä¸Ģ çĻ¾
Ġcharg ing
Ġreject ed
è®¾ç½® åľ¨
ĠPost ed
ĠBro ok
l f
ï¼ ı
ĠM ach
æĩĤ å¾Ĺ
Ġb ounds
Ġf ired
_d ec
äºī åıĸ
om as
çĶµ éĺ»
- name
Ġact ors
ï¼Į ä¿Ŀè¯ģ
est one
ĠL ev
çĶµ æ¢¯
Per formance
^ n
ï¼Įå¹¶ åľ¨
æĶ¾ å¤§
w rap
ĠFollow ing
, è¿Ļæĺ¯
) ?
åİŁ æĸĩ
.c all
c ategorized
çº§ åĪ«
æĲº å¸¦
ãĢ İ
ty pename
W M
AG ES
ï¼Įä»¥ åĲİ
- I
é¥ ²
ĠMethod s
åĺ´ éĩĮ
Ġg allery
iss a
ĠS aint
çĲĨ äºĭ
çĶ· çĶŁ
åįģ åĩł
end ors
å¸Ī èĮĥ
-c alled
è¡ ·
åıĳçİ° äºĨ
Ġcontact s
ol o
ig ious
Ġcrypt oc
åīį æĿ¥
em ies
æī« æıı
S ummary
ogen ic
Ġ ï¼İ
æ¡ ©
im estamp
è¯ķ åĽ¾
}, \
Ġconf used
Ġl un
ĠThe atre
Ġutil ized
Ġc ups
Ġs orts
çļĦ ç²¾ç¥ŀ
ä¸į æ¸ħ
è¿Ŀ åıį
; &
ĠY ears
Ġlock ed
Ġg est
Ġtheoret ical
Ġremark able
am ination
æĺ¯ä¸Ģ æ¬¾
éĩĳèŀį èµĦäº§
Ġc her
Sk ip
èĪ ±
ĠO s
ir able
t l
================================ ================================
Ġtim ely
Ġt ied
grad uate
æİ ı
çļĦ åİĨåı²
Ġp ython
çĥŃ éĹ¹
Ġr uling
Ġrece ipt
und ry
Ġsy ndrome
ãģ ĵ
å®Į æ¯ķ
as ync
Ġse am
Ġal ignment
ï¼ĮéĤ£ å°±æĺ¯
Ġç¬¬ åĽĽ
ĠDo ctor
å¥¥ è¿Ĳ
Ġrece ives
, âĢĻ
T imer
å± ł
Ġcan nab
Ġarbit rary
åĽ½ çİĭ
Ġnot ion
ache l
Ġc ra
" We
è¥¿ çıŃçīĻ
ĠGr ant
Ġconfig ured
è¯´ å¾Ĺ
æ² ¾
Ġphotograph s
k wargs
ĠC reated
ĠF IG
h is
ç²¾ èĩ´
Ġse gments
( V
Ġscen arios
{ F
ĠD ave
re r
AC C
è° ħ
çļĦ çłĶç©¶
åĮ» å¸Ī
( len
ĠV ice
Ġen orm
è¦ģ åİ»
ĠD AM
- comp
åıĳ å°Ħ
éĥ½ å¸Ĥ
ERR OR
ĠE arly
m ation
åİļ åº¦
Ġmed ian
Ġmand atory
Ġdesign ers
è¯ļ ä¿¡
b ie
Î Ń
Ġrel ate
igr ants
ĠLead ership
éĺ² æ²»
. check
Ġ ä¸ĩåħĥ
k ers
f p
Ġco operation
lic ense
ĠL at
Ġaltern atives
å¤± åİ»äºĨ
ĠðŁ ĺ
èĨ ¨
çļĦåŁºç¡Ģ ä¸Ĭ
ĠAuthor ity
Ġpat ent
b ed
ne ver
Ġdownt own
å±ķ è§Ī
åı· çłģ
åı£ ç½©
åįķ çº¯
_ client
out ube
çļĦ æľįåĬ¡
Ġdifficult ies
, d
ĠC ash
äºĨ è¿ĩåİ»
Ġvac uum
Ġsing ing
Ġsub set
åĽŃ åĮº
. trans
Ġmass age
-b ox
ĠChrist ians
çļĦ åŃ©åŃĲ
P rivate
ä¸Ģ çĶŁ
ad get
ĠI ron
Ġg athered
Ġ çİ°åľ¨
é«ĺ è´¨éĩı
çļĦ åĪĨ
Ġmount ains
Ġannounce ment
el ve
æĸĩ èīº
et ooth
- ray
çļĦ ä¼ģä¸ļ
Ġind ices
Ñ ĸ
h l
ĠVis ual
èĥ½ åľ¨
g rid
çĲĨ è´¢
Ġman ually
ä½ £
Ġcomp aring
Ġep id
erc ise
Ġmark er
ĠIm ages
er os
t p
å¿ħè¦ģ çļĦ
Ġautom ated
b ul
G reen
id o
Ġco h
æĿĥ å¨ģ
åī¯ ä¸»ä»»
Ġdro ps
ãĤ ī
Custom er
ï¼Į æ¸ħ
/ R
." "
ick ing
Ġexc it
Ġhold er
W ait
Add itional
T YPE
F B
æłĳ èĦĤ
Ġmotiv ation
èµĦ è´¨
éĢĢ ä¼ĳ
éĢı è¿ĩ
å¤© å¤©
ä¸į åıĺ
çª ĥ
ãĢĤ éļıçĿĢ
æĴ °
ĠE ar
Ġdec ay
å·²ç»ı æĺ¯
è®® æ¡Ī
Ġdist ribute
èµ· çļĦ
Ñ Ĩ
å¤ª å¹³
åĽ¢ ç»ĵ
w ear
us cript
Ġse vent
ä¸Ģ çķª
U ri
( E
Ġexhib it
Ġk iss
åŁİ çļĦ
Ġadjust ed
åĨį è¯´
ï¼Į è½¦
åģ¶ å°Ķ
ĠTreat ment
Exp and
VAL ID
éħ µ
Ġde ar
æ¶² åİĭ
Ġins pection
ä¸Ģ æĹ¶
Ġe q
ĠR ome
Ġlimit ation
ish op
c ence
åĨ³ å¿ĥ
Ġident ifier
pect ives
Ġindepend ently
é¡¾ éĹ®
ĠS PE
ï¼Į èµµ
Char acter
{ n
: [
èħ ķ
ç±»åŀĭ çļĦ
Ġmeas uring
.re place
Ġstead y
Ġu m
Ġwor ship
) </
_add ress
è½¬ åĲĳ
con v
ĠÐ¿ ÑĢ
ï¼Į ä½İ
ah a
Ġ æĹł
è§Ĩ ä¸º
Ġcred its
Ġbond s
èºº åľ¨
ç§© åºı
_O FF
ä¼ļ ä¸įä¼ļ
éĢģ åĪ°
g reen
r ative
Ġgraph ic
Ġprotect ing
ch a
Ġcustom ized
ĠF ive
çª Ħ
à °
å° ¹
Ġful f
T ex
ĠM ix
Ġab road
sh ift
ç£ Ĭ
/ N
Ġover night
v t
é©¬ åħĭ
æ¯« ç±³
ĠM O
secut ive
ç¥Ŀ ç¦ı
ï¼Į éĩĩçĶ¨
åħ¬åħģ ä»·åĢ¼
Ġst opping
ennes see
igh th
å¾Ī æĺ¯
æĸĩ çĮ®
Ġs ig
ĠF ix
e a
åĲĪ ä¼Ļ
Cont ract
work ing
Ġm p
åħ¬ä¼Ĺ åı·
ï¼Į åħī
re ng
Ġc rop
Ġ è¦ģ
k top
Ġsp ell
Ġtim er
Ġref uge
çļĦ æīĢæľī
æĬĢæľ¯ äººåĳĺ
Ġd os
ĠA SS
Ġinv ite
{ -
-m aking
b olds
æĮī éĴ®
åĴ Ĳ
ĠMem ory
us p
ĠBl u
P K
Ġcomment ing
Ð ±
æĦı å¿Ĺ
bl ack
Ġpay load
é¾ Ł
Add r
Ġkn ee
Ã ¸
ä¸º å¤§å®¶
Ġover se
y our
Ġinstant ly
plic ation
ï¼Į ä»ħ
Ġassoci ate
ä¸Ģ ä»£
se q
_ ON
æ·ĺ å®Ŀ
ub a
çĲ ¼
Bl ue
éļĲ æĤ£
/ .
çĹħ çļĦ
Ġaccept ance
ĠE uro
éĢī çĶ¨
æĶ¯ éĥ¨
ch arg
Ġsl ide
Ġann oy
æ® ·
leg es
ol en
ard ing
è¾¾ åĪ°äºĨ
ï¼Į å±ħçĦ¶
æľ¬ ä½ĵ
Ġt s
v ard
ĠN ative
Ġc ort
bolds ymbol
ĠN ear
, è¯·
ĠM ess
ĠD allas
é»ĺ è®¤
.p aram
èĢ į
çĻ½ çļĦ
_CON FIG
å¯¹ ä»ĺ
ĠW ars
èĩª è§ī
Ġterrit ory
st rap
f lix
f r
çĿ ¿
æī¹ è¯Ħ
ĠB udd
Ġexpand ing
_c olor
Ġste am
de velop
ä¸ī åĪĨ
- app
Ġsupp lier
éģĹ æĨ¾
ĠIde as
ar ity
å¿ĹæĦ¿ èĢħ
åĽ¢ ä½ĵ
æľĢåĲİ ä¸Ģ
ful ness
æĢ» è£ģ
ĠPol y
å¯¹ èĩªå·±
ex cept
U K
èĬ ¦
Ġinject ion
å¹³ éĿ¢
Ġa est
Ġm ature
ĠPal est
air y
ï¼Į åİŁæĿ¥
ç¬¬ åħ«
Ins ert
Ġen umer
Ġg ut
èĮ ¨
åŃĲ å¥³
è© ¹
- ass
ĠHaw ai
L ambda
Ġfro zen
Ġnob ody
Ġbrother s
ĠOnt ario
Ġatt r
åħ¶ä»ĸ çļĦ
Ġutil izing
Ġt weet
Ġrespons ibilities
z ip
Ġsett led
ĠStr ategy
çłĶç©¶ æīĢ
å®ĺ ç½ĳ
{ S
Ġun lock
ï¼Įå°± ä¼ļ
Set ting
\ |
Ġhope fully
Ġsp okes
æĸ° åĮº
- icon
å¿ĥ çģµ
ĠStr ateg
Ġtal ented
Ġarrang ement
Ġg rey
Ġglo be
inc oln
display style
. uk
èĵ ¬
) =\
ing ham
Ġsepar ately
åŀĤ çĽ´
éĤ® ä»¶
æĺİæĺ¾ çļĦ
in yl
Ġselect ing
Ġt rib
ĠAnal ytics
èµ° åĬ¿
ĠConst itution
æµĳ èº«
N odes
B ased
UT F
æ¬§ éĺ³
åª ³
nap shot
ĠIs lands
Ġ ÑĤ
Ġthick ness
ĠAnd erson
_CON T
ate way
- man
ĠE ver
DE X
Ġre ven
èĴ ľ
in cess
åĪ« å¢ħ
ĠOther wise
Ġch airs
â ħ
atter ing
äºĶ ä¸ª
math frak
ç¼ĸ ç¨ĭ
åį µ
ĠState ment
se a
ç²¾ åĬĽ
Ġref lected
i ative
Ġclub s
Ġess ays
pare ncy
Ġs our
Ġmy ster
pr ite
ĠTr ad
åĲĪéĢĤ çļĦ
éŃ Ħ
Ġp c
çī º
Ġvari ant
, éĢļè¿ĩ
* .
An n
æµģ éĢļ
Ġcomp ly
å¤ª è¿ĩ
æģĭ çĪ±
çİī ç±³
lin ux
ä¸į å®ļ
æŃ£ è§Ħ
çģ« çĦ°
om eter
éĽ ĩ
ul ative
ãĢ ı
Ġg am
é»Ħ èī²
-d own
os ity
ä¸º ä½ł
Ġmix ing
çļĦ æľĢ
Ġmagn itude
Ġsubs cribe
& A
ĠJ ason
C RE
è¿ľ ç¨ĭ
Ġdes erve
ĠM arg
Ġpres um
æ°ĳ ä¼Ĺ
Ġbuy er
_ th
ĠPhil adelphia
u per
ĠL ib
at oes
é«ĺ è¾¾
ad i
ĠF ab
ĠJ osh
PL IED
he x
ĠK ansas
Ġweak ness
Ġinflu enced
f eed
è¿Ļ ä¸¤
Ġcont rad
< a
She ll
B uf
æ´» è·ĥ
Ġl ymph
å§ĵ åĲį
C ODE
F ocus
éļı æľº
adv ant
è½ ¿
, ä¸Ģä¸ª
Ġdef initions
Ġprot est
Ġceleb ration
éĺ² å®Ī
ĠIO Exception
çļĦ åŃ¦çĶŁ
d am
Ġsort ed
çļĦ çĽ®åħī
åĿļ åĨ³
u j
Ġbook ing
ç¯® çĲĥ
.c ount
ĠD M
Ġpath way
ĠB egin
En umer
ĠL L
ä½ł è¦ģ
ä¹Ł å¥½
Ġeth ical
ĠPr ince
Ġmyst ery
Ġreason ably
ï¼Į å¸®åĬ©
Date Time
Ġinn oc
Ġexpl oration
åī ĸ
/ H
Ġcalcul ations
ĠCommun ications
Ġaud it
agon al
Ġsh r
_n ames
æĢ» ä¹ĭ
_ inter
çĳ °
çļĦ é£İ
åĭ ¿
æĹ¥ åīį
Ġang ry
ĠOrgan ization
ĠEx plore
åĪĩ æį¢
å®ī æħ°
Ġvolunte er
Ġ urg
Ġshe ets
Ġload s
ĠR ules
å·²ç»ı è¢«
Ġf ruits
Comp lete
Ġrepresent atives
Me an
en able
N OT
Ġad verse
Ġ å¯¹äºİ
ç©¿ è¶Ĭ
åįİ ä¸º
ï¼Į åİŁ
Vis it
Ġcons ervative
pr agma
Ġro yal
ĠLink edIn
Ġc atal
å¼ķ è¿Ľ
ĠN ob
Ġ åĳ¨
Ġbi om
Ġ-- -
Ġsupp lements
å¢ŀåĬł äºĨ
Ġplace ment
æķ£ çĥŃ
ĠM uch
ç©¿ è¿ĩ
N F
Ġann iversary
æ¶ ©
Ġfl ux
ĠVill age
Ġd x
Ġw ishes
Ġstraight forward
éĻĲ äºİ
è¡Ģ åİĭ
ï¼Į åĲİæĿ¥
ĠJ obs
Ġreflect s
Look ing
ç§ ī
ï¼Į æĽ¾
æīĢå¾Ĺ ç¨İ
R IGHT
ä¿Ŀ åħ»
æľ¬ çĶ³è¯·
l p
éĢı éľ²
Ġadd r
ĠD iff
par a
Ġcor por
å¤§ åľ°
S K
iz ational
.l abel
ĠImp act
se x
Or gan
Ġh orses
'] )
. :
Ġsing les
æ¦Ĥ çİĩ
è¾ĥ ä½İ
De velop
as ets
ĠM it
ä¾ĽåºĶ åķĨ
claim ed
al m
ick ets
iel aw
Ġle ase
-st ate
ä¸¥ èĤĥ
] $
f ix
ï ¸
ä¸º æĤ¨
æ¾ ľ
åº· å¤į
Ġcont rary
row se
M ath
è´ ŀ
çĹ ĺ
T ON
åİ» åģļ
èģ Ĥ
ĠS pecific
Ġc ig
UN C
èģĮ åĬ¡
èĽĭçĻ½ è´¨
çļĦ è§Ħå®ļ
Î ®
ar ms
S equence
ab c
åģĩ è®¾
çı Ĭ
me an
ĠB ag
Ġimp ressed
Ġneighb ors
åı¸ é©¬
p ad
å®īè£ħ æľī
Ġnam ely
ĠS now
å·¥ä½ľ ä¸Ń
åıį å¼¹
ur ations
ĠK h
ĠEqu ipment
çĶµ ç£ģ
ï¼Į ç¾İåĽ½
ĠMed ic
ielaw info
let te
ro it
çīº çī²
ĠC M
iz ard
Ġ ï¼Ł
Ġg ross
èī ĩ
ĠEn joy
ĠCont ext
cook ielawinfo
ĠNot ice
è´Ł æĭħ
ä¸į åŃĺåľ¨
{ fig
ĠL es
æ² ª
è·Ł è¸ª
ust ral
ĠB lood
Ã ¦
Ġmed ications
Ġestablish ment
equ iv
View Controller
èĤ¡ ä»·
ic he
Ġ ï¼ī
-ind uced
Ġachie ving
ä¸º ä¸Ģ
äº¤ ç»Ļ
ĠC OPY
Ġstrict ly
-check box
c ery
Ġp upp
ĠCirc uit
Ġsp ac
æľŁ æľĽ
Ġser um
Ġball s
Î ´
ĠT ony
éĶ Į
em a
mer ge
_ IS
riv ial
ï¼Į åĢĴ
ĠS port
éĺ² æ°´
åĸľ çĪ±
åİ» çľĭ
Ġind irect
{ c
f ilename
Ġrecept or
æŃ §
ps on
y ear
Ġfeed ing
ä½ł äºĨ
è®¡ åħ¥
ĠAff airs
an im
, è¯¥
Ad min
Ġu k
ĠP T
Ġgather ing
æĪĳä»¬ åľ¨
ĠInd ones
ĠK elly
æĽ¿ ä»£
æ¯ķä¸ļ çĶŁ
be at
Reg istry
Ġoff ensive
Ġmed ic
åį ¦
éĢļ é£İ
form s
Ġf etch
_ OK
ING S
ĠH air
Ġfail ing
DE F
ĠAnt on
Ġsl ice
St ats
ĠV A
at ches
Ġg ains
. Context
çļĦ è½¦
ä»Ģä¹Ī äºĭ
E lements
BO OL
( event
Ġeth nic
æ²¡ éĶĻ
G M
ĠS ets
ĠL iter
Ġcomp assion
} =\
qu er
aur a
Ġst upid
è¯ ¡
. Ex
( array
æľĿ å»·
uff icient
sc ill
d ebug
Ġdiagn osed
par ison
Ġnetwork ing
æµª æ¼«
éħ ¶
æ²¡ äºº
åľ° è¯´éģĵ
Ġgrad ually
Ġthorough ly
Ġtreat ing
ç«¯ çļĦ
Ġfant asy
Ġo d
ĠP in
C opyright
_B ASE
ĠDis c
ĠWis consin
åīį æľŁ
åĬ¨ äºĨ
Ġdec imal
ĠE val
åįĬ ä¸ª
ãĤ ¤
ĠB ry
Ġse cre
çĽ¸ è¿ŀ
ri ents
' ].
ç¼ĸ çłģ
ĠC os
"/ >
ow ered
ãĢĤ æľĢåĲİ
Ġland ing
åħħ è¶³
çļĦ åı¯
-g roup
Ġed ited
Z ero
å¨ ¶
æŀĦ éĢł
ĠProm ise
igen ous
ĠP ed
è¾Ĳ å°Ħ
Ġcoe fficients
èĢĮ åİ»
.sh ow
ens itive
ĠSp ot
rec ated
Ġsing er
Fe atures
Ġst abil
Av ailable
f ound
rop ical
Ġce iling
The me
SE D
è¿Ļ ä¸¤ä¸ª
p assword
{ H
Ġres il
Ġc yl
çĿĢ æĢ¥
æ³ ¼
f b
V ery
çĹ Ĵ
äºĮ æ¬¡
Ġrat ings
Ġadv ised
L ead
èĪ ħ
) |
éħ ¿
çļĦä¸Ģ éĥ¨åĪĨ
è¾ Ł
Ġcomp leting
Ġauthent ic
ack son
ĠJ ane
Ġcur riculum
D an
ĠL E
åĩºçİ° çļĦ
Ġen abling
_ J
Ġ ä»ĸä»¬
ĠCov id
Ġl ying
pp y
Ġm ari
Ġdi pl
Ġexcess ive
_ ind
ĠC opy
Ġchemical s
ï¼Į æ·±
Ġst amp
å¦ Ħ
Ġmodel ing
ĠCon vert
Ġcoron avirus
ĠDeterm ine
çĭ Ń
_ content
è¯´ æĪĳ
ç½ ķ
_f rame
Object s
on ing
end ants
ä¸º äºº
_ update
Ġmathemat ical
E st
åįł æ¯Ķ
Ġsurg ical
t ures
( is
Ġwal ks
Ġencour aging
Ġspecial ized
Y eah
æĺ¯ è¢«
T om
ĠMar c
åıĳ æĶ¾
Ġgen re
ä¸į å¿ħ
ç¾İä¸½ çļĦ
Ġpopular ity
Ġ èĢģ
Ġar ise
on ut
èĥ½ åĲ¦
r h
W D
Ġrout es
} ;
g ba
fl ag
Ġ@ "
ĠL yn
ĠSt ay
Ġcy cles
Ġin equality
ĠRest aur
Ġpast e
èĢĲ å¿ĥ
ju ana
st all
Ġche aper
Ġprec ious
åħ³éĶ® è¯į
bour ne
_VAL UE
ĠN orm
Ġcoupl ed
Ġint ake
çİ© ç¬ĳ
Ġ èµµ
as ive
Ġw rt
ä¸į ç¦ģ
æ±Ł æ¹ĸ
_ format
åĬł æ²¹
Ġg ang
ou ver
ä¹Ł è¢«
ĠAl ice
Ġapp le
N ECT
Ġcabin et
in ely
[ index
å½¢ å®¹
æĪĺ åľº
Ġpl ates
å®¿ èĪį
oen ix
è¯¾ é¢ĺ
ac ular
è¥¿ åįĹ
ĠMat hemat
å½¢ çļĦ
ĠGl ass
èĩªèº« çļĦ
ä»Ģä¹Ī æĺ¯
@g mail
ĠR ange
ĠC I
Ġcour age
own ers
ĠA bs
. Ed
Ġ äºº
ab ama
Ġs ender
å¾Ĺ ä»¥
éħį å¤ĩ
E duc
Ġbl ame
Ġ) ;
ĠB B
ĠAll en
Ġl ands
. query
P air
Ġincor porate
ï¼Įä¹Ł æľī
Ġv on
ĠIndian a
. insert
Ġcur ves
Ġgrad ient
Ġsurround ed
{ array
ĠSchool s
M ill
æĳĩ äºĨ
Ġcor rection
Ġlaw yers
Ġemb race
Ġp ixels
Ġattempt ing
Ġag enda
.com mon
Ġins pect
ãĤ Ĭ
qu ire
Advert isement
re ach
_ load
Ġp H
G P
ï¼Įä¸Ģ æĹ¦
Ġconsist ing
ĠB an
ot imes
Ġint u
ãĢĤ ä¸ŃåĽ½
Ġreli ability
è§£ çŃĶ
Ġbr anches
Ġl l
Ġdiscrim ination
ap or
ĠDis play
pr imary
ï¼Į å°½ç®¡
ĠAl ways
âĢľ ä¸Ģ
. format
ï¼Į éĿŀ
Ph i
Ġprom ised
p atch
ĠR ail
{ N
ĠC F
Id entity
ï¼ī ï¼ļ
gn ore
è¦ģ æľī
Ġindic ator
ĠMal ays
own ed
S igma
é¹ ħ
æĺ Ķ
ä½ľ æĸĩ
å°Ĩ æĿ¥
æ¡ Ĳ
åħ¬ æ°ĳ
æĿ¡ ä¾ĭ
ä¸Ģ éĥ¨åĪĨ
çĽ¸å½ĵ äºİ
ĠS ant
è¶ Ł
v ia
çºł çº·
Ġs ync
ï¼ī ï¼Ľ
Ġresc ue
Ġparticip ant
éĢłæĪĲ çļĦ
Ġeleg ant
çĲĥ è¿·
Ġsmart phone
ä¸» æ¼Ķ
æĺ¯ å¤§
Ġun p
Ġg auge
ä¾ £
ĠH u
Ġcompar able
ĠN ations
File Name
åĪĨ æķ£
Ġdiagn ostic
è¡¥ è´´
ä¼ļ éķ¿
æķ ·
æŀ ķ
Ġpl acing
å½ĵ äºĭ
Ġbur st
åħ¨ æĸ°
B oth
There fore
Ġadj acent
c ategory
ĠB arn
è¿ĳ å¹³
ï¼Ł "
çļĦ ç»ĵæŀĦ
Ġad vers
åĲİ æĤĶ
Ġc otton
åĩı è½»
Ġmat ched
ost ics
rict ion
Ġrecommend ation
ag an
ex pr
UP D
ag le
um bers
åĮĹ æĸ¹
Ġgluc ose
ĠShe ll
Des pite
L abels
Ġreal istic
Ġt ar
Ġthe sis
ĠB R
- O
é© ³
ick ed
Ġtem pt
æĥħ çļĦ
æĪª æŃ¢
c ellent
Ġs ne
çĥŃ æ°´
çŃī çļĦ
ï¼Į æĹ©
Ġvert ices
å« Ĥ
ĠF loor
åįł æį®
ï¼Įä»¥ ä¾¿
Ġsc oring
ĠJ ay
( index
Ġcol ours
æ² §
Ġt v
bl ue
, æĹł
èµĽ äºĭ
, å¯¹äºİ
éĺ Ĳ
Ġ åı¶
. equal
, åħ¶å®ŀ
C md
æĢİä¹Ī ä¼ļ
ï¼Į ä¸¤ä¸ª
ĠAtl anta
ĠMass achusetts
å»¶ éķ¿
og y
ç¼º éĻ·
éĶ ¤
å¼ķ é¢Ĩ
ol ine
è§ģ äºĨ
Ġin ev
Ġis instance
b us
Ġem ission
_f unc
æĸ¯ åĿ¦
ĠM enu
Ġchar ity
Ġathlet es
W ater
at on
ĠS erial
ĠS TR
ĠAn swer
ĠKore an
ĠD raw
Ġsk i
Te am
á º
ru p
_N UM
N Y
âĹ ĭ
Ġden ote
Z one
äººæ°ĳ æ³ķéĻ¢
Inst all
S ql
H ub
åı¯ä»¥ å¸®åĬ©
ĠB irth
åĽŀ äºĨ
å®Ī æĬ¤
ribut ions
éĢ ¾
Ġbare ly
å¼Ĥ çļĦ
ï¼Į èĬ±
Eng lish
Ġa uth
apt ure
Ġgu ides
Ġt ent
Ġvent ure
è® ½
Ġconsequ ence
Ġvol unt
_h andle
ĠB io
Ġsubst itute
è¿ĺ çľŁ
ç² ¥
ĠJe an
ãĢģ å¤ļ
Ġb ass
æĬĬ èĩªå·±
_ const
Ġcou ples
ur ches
ut ex
UCC ESS
Ġf ract
Ġind oor
A bs
ä¸Ģ çº§
èľ Ģ
æ½ ĩ
r ade
é¼» åŃĲ
ĠS A
ä¸įä»ħ ä»ħ
) **
w riter
Ch apter
ä¹° åįĸ
ï¼ī åĴĮ
do ors
ac co
Ġdesign ated
L anguage
ä¹ł è¿ĳå¹³
_c ache
é ĳ
Ġsustain ability
Ġobl igation
æ¿Ģ åıĳ
ĠS olution
L ive
Ġa qu
æķĳ æı´
ĠG ree
ç±» åĪ«
ä¸Ĭ æĸ¹
ä¸į åĸľæ¬¢
Ġf ool
éĺ¿ å°Ķ
' S
ĠEd ge
D NA
ç§¯ åĪĨ
å° ī
Ġcoe fficient
æľįåĬ¡ çļĦ
ul se
Ġaff irm
\ times
b urn
æĮ ¨
Ġdis pute
æķ´ æ²»
éŁ³ é¢ĳ
- al
Ġst ere
æĭ ĺ
Ġth irty
a que
UR I
Ġlik ewise
èº« æĿĲ
ä¸įè¿ĩ æĺ¯
lish ing
æĹ¥ æĬ¥
Ġbab ies
F urther
Ġtri angle
hab ilit
Ġbehavi ors
å·´ é»İ
-d ate
ĠDef ense
ASS ERT
Ġg rain
åĮ ª
Ġne ural
çº³ ç¨İ
N ov
è¿ĩ åº¦
add y
æīĵ çł´
ar ma
i op
Ġflow s
ä»İ å°ı
Ġaccomp any
Ġinflam mation
ä¸į ä½Ĩ
Ġ å°Ĩ
çĶµ æŀģ
Ġth y
Ġ ä»¥
G od
æľīä¸Ģ å¤©
l on
Ġtiss ues
Ġany body
C ent
Ġf s
n ut
R P
ĠF ilter
åįĹ æĸ¹
Ġorder ing
Ġrestrict ion
.C ount
ĠG olf
Ġp ets
Ġag gressive
æī¾ ä¸įåĪ°
åĳ ľ
Ġproduct ive
æ´»åĬ¨ çļĦ
(' #
Ġrec ru
- align
} :
ition er
ï¼Į èĩ³å°ĳ
ĠReg ion
ĠM aking
æĺ¯ æĪĳä»¬
doc s
ĠR oss
web kit
ĠA ve
vent ory
Ġpaint ed
ĠC ool
( config
ar o
! \
ĠA F
åĳ¼ åĲ¸
Ġnum py
A IM
IS S
Ġc ord
ï¼Į é¡¿æĹ¶
Ġch ips
ĠC ra
us hes
ç¥ Ī
re a
Ġv oted
Ġsubsequ ently
Ġdis closure
Ġaccompan ied
ãĤ Ĥ
Ġinter section
Ġsc ream
å®ł çī©
F actor
ï¼ģ "
æĹ¥ èĩ³
æĤĦ æĤĦ
Ġd urable
ï¼Į åĨħ
æĿ ı
åħ¸ åŀĭ
è¿ĩ å¤´
éľĢè¦ģ çļĦ
ĠRec ords
ï¼ļ ãĢĮ
æľĢ åĪĿ
Ġt ears
ĠA st
å°ģ éĹŃ
æŃ¤ åĲĮæĹ¶
å¤į åĪ¶
ï¼Į æĭ¥æľī
if act
åı ®
çĿĢ å¤´
ãĢĤ åĲİæĿ¥
at ers
åľ¨ åľ°
ï¼Į ä»Ĭ
ä¹ĭ éĻħ
Ġshort ly
åĮĸ åĲĪçī©
ĠH ind
Ġpart ially
am ount
åĽ¾ä¹¦ é¦Ĩ
å¥½ åĲ§
ãĢĤ ä»ĸçļĦ
æĹ ¬
Ġr ug
Ġarr anged
B undle
Ġpublic ly
åĭĩ æ°Ķ
å©´ åĦ¿
_ Y
empl ates
F il
Ġ éĩĳ
Ġpref erence
ĠE C
B al
ĠU V
Ġre wards
ĠH art
æł¼ å±Ģ
Ġform ats
Ġref riger
ĠNot es
g ency
ric ts
els on
Ġvis itor
Ġaddress ing
enc il
éĢĤ éĩı
- ph
Ġopt s
æĭ Ĳ
åĲ¬ çĿĢ
ĠEX P
Ġloc ate
ï¼Į éĢīæĭ©
_ def
A ir
\ to
ĠL arge
å¡ Į
Ġprom ises
åĨ¬ åŃ£
lu x
.Error f
SS ION
æľīéĻĲ è´£ä»»
Ġoverwhel ming
ab ases
æį ŀ
âĢĿ ï¼Ī
ç¾İ å¥½çļĦ
Ġbar rier
! =
f ly
ä¸ĵ é¢ĺ
ĠAtl antic
Ġport able
R oute
p aper
ag ra
ç² ¹
çļĦ æĢģåº¦
so ck
) åĴĮ
(' .
ĠL ot
b ot
ãĥ «
ĠH o
è¿ĩ åĲİ
ĠRep resent
Ġport ions
ç»ĵ ç®Ĺ
May be
ä¾Ŀ æ¬¡
ä»» æĦı
ĠE L
ĠP ear
Ġtable t
Ġclin ic
R andom
çŁ ®
ĠPh D
IC T
ï¼Į æıĲä¾Ľ
Ġdram atic
Ã¼ r
ç¨ĭåº¦ ä¸Ĭ
ĠMin i
_ IM
æĬĬ å®ĥ
ĠER R
ĠVictor ia
ĠReg ional
T ech
ĠMary land
é¢Ĩ åıĸ
è¿Ļ æīį
con n
AN GE
å¹² æī°
Ġequ ality
é«ĺ åİĭ
äºĮ çº§
V ENT
å· ¢
id al
Ġlist ener
m ont
Ġext ensions
A xis
Ġimm igration
èĪŀ è¹Ī
Ġbu cket
Ġtra iler
ĠQu ant
Ġoblig ations
æħķ å®¹
è´¦ éĿ¢
_h ash
æĺ¯ æ²¡æľī
Ġlik elihood
ĠR oll
-st ep
Ġre pository
Ġpow ered
ï¼Į èİ«
Ġco pper
åķ ¸
ï¼Įä¸į å¾Ĺ
éļ¾ å¾Ĺ
. object
Ġy eah
Ġrep airs
Ġoccas ions
Ġscr atch
Ġle ak
Ġdescrib ing
m ate
m c
Ġtrem end
emp loyment
ĠFe ature
ĠG M
èº« çļĦ
plic ity
ĠC lose
ç§į ç§į
LO W
Ġacknow ledge
éĿĴ å°ĳå¹´
Ġdesign ing
Ġat om
B egin
Ġvit amin
Ġwhe els
ot ypes
cre ated
w p
=" ../
Ġs li
åı¯ æĥľ
Ġsp oken
Ġhe x
Ġ åıª
æĪ¿ äº§
æĺİ æĺİ
_p ack
åħ±äº§ åħļ
. annotation
ĠH old
.L ength
Ġinv ari
_r ate
Ġj s
çľ¼ æ³ª
ĠHarr is
ĠT E
Ph ot
ĠPro b
/ G
result s
ĠInvest ment
z o
Ġencour ages
å®¶ ä¸Ń
comm it
- only
Ġsub mission
éĺ³ å¸Ĥ
" It
_arg ument
Ġcar pet
å³ »
AD ER
ĠMe eting
Ġb ot
_D IS
å¿ĥ æĢģ
Ġv ine
ap on
Ġtrans mit
_ qu
ĠRepublic ans
Ġsch ol
ut ory
d ots
èĦ¾ æ°Ķ
, åį³
ĠInit ial
ĠMo ore
Ġfe as
her lands
Ġhit ting
è¶ĬæĿ¥è¶Ĭ å¤ļ
Ġ* ,
unn els
Ġthe rapeutic
ĠI owa
ĠEnter tainment
Ġcon secutive
_C ODE
å°ı åŃ©
Ġcannab is
å¤§ åŃ¦çĶŁ
ac o
ĠAf ghan
èĲĿ åįľ
Ġ Ø§ÙĦ
Ġqual ify
Ġp izza
æķ°æį® çļĦ
ĠEN D
æĬķ ç¥¨
ca ption
{ B
sequ ently
ĠW E
èĦ± ç¦»
ine craft
_t ypes
Ġinf ected
Sub mit
Ġmin istry
Ġgar lic
åıĸå¾Ĺ äºĨ
Ġb lo
Ġstake holders
åıĳ è¾¾
ï¼Į é£İ
ĠSim on
ï¼Įå½ĵ æĹ¶
Ġfasc inating
sk ip
Pl atform
æ¼Ķ åĶ±
ĠDe al
rypt ed
åįĬ å¤©
id i
ĠAlex ander
Rend erer
ä¸Ģ ç³»åĪĹ
Ġcorrespond s
J ul
con c
al g
Ġwra pped
d n
Ġk g
atter y
Ġconfig ure
J an
æ½ Ń
Ġco in
ĠD oc
Ġaccompl ished
å°ĳ çļĦ
o T
åĩº ä¸Ģä¸ª
åĿĩ ä¸º
æĹłè®º æĺ¯
æĮĸ æİĺ
Ġhydro gen
èĢģ å¤§
ï¼Įæ¯ı å¤©
Ġin sect
Ġcor poration
ĠH ills
St atic
å¯¼ å¸Ī
Ġengine ers
Ġdom ains
Ġoutput s
add le
æĺ¯ çļĦ
ĠIndust rial
æ° ®
ĠPort ug
{ a
Stand ard
U F
æĢ Ķ
Ġ' #
es ign
Ġemp ower
Ġ' -
ĠNiger ia
ç¿ ģ
Ġmotiv ated
Ġher itage
å±Ģ éĿ¢
att ed
ï¼Įä¸į çŁ¥
Ġtrans cript
Ġpersonal ized
ĠĠĠĠĠĠĠĠĠĠĠĠĠĠĠĠĠĠĠĠĠĠĠĠĠĠĠĠĠĠĠĠ ĠĠ
es y
ill ance
Ġfranch ise
ä¼ĺç§Ģ çļĦ
Ġmake up
Ġco inc
Ġcompl aints
ĠAl b
æŀ £
åĺ ±
Ġtrad em
Ġdiscount s
çĶ¨æĪ· çļĦ
Ġc ited
Ġan ger
è®¨ åİĮ
y r
Ġh oney
ĠIM PLIED
å¤ı åŃ£
ĠLIMIT ED
ĠPat rick
ä¸Ģ å¼Ģå§ĭ
èŀį åħ¥
Ġanc est
Ġi Pad
.c lear
{ L
å¤§ æĪĺ
ĠV AL
å¾ħ éģĩ
plic it
çĶŁ æ¶¯
å¤ļ å¹´çļĦ
ç²¾ å¿ĥ
åİ ķ
W orks
Ġsc ulpt
P F
m atic
Ġpro pri
Ġper ception
ï¼Įä½Ĩ ä»ĸ
Ġkey word
çļĦ åĬŁèĥ½
- weight
çļĦ åŃĺåľ¨
çļĦ éĢŁåº¦
ï¼Į å¾Ĺ
d iff
Ġbe aring
Ġread ily
Ġwork out
ï¼Į ä¸ľ
åĩº åħ·
Ġflo ating
ï¼Ł è¿Ļ
R ob
çŀ Ĵ
éļ¾ é¢ĺ
, .
Test s
ĠS everal
å°¼ äºļ
init ial
ed er
sub section
Ġcompet itors
s ure
ĠW olf
æĪĳ ä¼ļ
æĥ³ äºĨ
% ãĢģ
-h and
å¤§ å£°
Up dated
å¸Ĥåľº ä¸Ĭ
éľĩ æĥĬ
Ġsens ors
l ayout
Ġfit ting
_ END
pr ises
Ġac ids
-l ife
Ġ å½ĵçĦ¶
Pl us
ro se
æ¨¡ åħ·
H aving
åħ·ä½ĵ çļĦ
çī© æĸĻ
ãĢĤ ä¸ĢèĪ¬
Ġextra ordinary
åĵª åĦ¿
å°½ åı¯èĥ½
Ġblock chain
ur face
å¢ŀ åĢ¼
Ġpoll ution
att ice
ä½ĵ åĪ¶
æĬ¥ èĢĥ
èŁ ¹
èī° éļ¾
Ġcomp lement
Ġp se
Not Null
Ġd irt
è¿Ļä¸ª äºº
_f unction
Ġto ys
in th
ĠCom mercial
è§£ éĻ¤
Ġcr imes
çĭ Ħ
ï¼Į éĿŀå¸¸
Ġmount ed
è¿ŀ å¿Ļ
çīĻ é½¿
Ġdir ty
Ġhun ting
Ġm old
æ´» çĿĢ
ĠEV ENT
ĠB M
ĠCo ord
ä»İ æľª
æķĻ å®¤
Ġb rack
And roid
Ġre ception
Ġqu it
Ġorganis ations
Ġp up
çļĦ å½¢å¼ı
å¥½ åıĭ
çĶµ æ°Ķ
( text
çģ¯ åħī
ãĢĤ ä¸Ģä¸ª
ï¼Į çľŁæĺ¯
Ġout s
æķ° åįģ
Ġaffect ing
ĠFore ign
, m
h ang
å¾Ī é«ĺ
ĠS ydney
ĠE M
ar ound
_ co
å¿ĥ æĢĿ
ç¬¬ä¸Ģ æĹ¶éĹ´
is l
Ġdest ruction
ĠT el
Ġc av
ç«ŀ èµĽ
_W R
ĠÐ½ Ð°
u ccess
ä»Ģä¹Ī æł·çļĦ
Ġle mon
r ans
æ²¡ äºĨ
ä½ł å°±
Ġmin imize
Ġintellig ent
u its
, v
åĪĿ æŃ¥
, èĥ½
Ġr ings
ĠC OM
Ġsh ips
F ill
Ġyield s
Sh op
cont act
b log
Ġform ing
Ġd t
æĺ¯ä¸Ģ å®¶
Ġpursu ant
Ġvari ance
} '
Ġe ager
Ġbe ef
on ical
ur red
Ġconv in
æ°´ æ³¥
O F
nc ies
ath on
ĠP E
Ġf ut
ĠPar liament
éĹ» è¨Ģ
ĠS ex
] ->
ĠJew s
ĠSim ilarly
Ġaccur ately
åľ°åĮº çļĦ
ig it
Ġthread s
Ġvar ied
Ġch ains
æĭī çĿĢ
Ġtransform ed
çº½ çº¦
Ġbelong s
Ġprogress ive
ç»Ļ æĪĳä»¬
ãĢĤ ç¬¬äºĮ
ĠW ales
ĠD iam
Ġaccommod ation
ĠAg ric
Ġclust ers
ĠAdd itional
eh icle
ï¼Į æ»¡
, ä¸įè¿ĩ
ĠN ev
ĠD evice
Ġl iv
p res
_ action
ĠL ie
æ¾ ¡
æł ħ
çĦ¦ èĻĳ
ir q
- order
: '
: @"
="../../ ../../
å¥½ çľĭ
as sembly
ä¿ ¯
ä¸ĸçķĮ æĿ¯
cri ber
ä¸į æ»¡
ol k
Ġwhere in
C ity
ĠS EC
Ġfriend ship
istic ated
Ġ: )
æĭ¿ èµ·
æĿ¥ åĪ°äºĨ
ï¼ĮæĪĸ è®¸
Ġse al
ĠGover nor
å¼ķçĶ¨ æĹ¥æľŁ
Ġr ated
Ġprom ising
const ruction
Al ways
-------------------------------- ----------------
(t arget
åĳ³ çļĦ
æ²¿ çĿĢ
Ġcont rolling
è¿Ļä¸Ģ åĪĩ
# else
äºĨ è®¸å¤ļ
-in ch
ĠR ol
è¿Ļ æĿ¡
è¯¸ å¤ļ
Att r
å®¢ æľį
- int
z ero
çĶµ ç¼Ĩ
ï¼Į è¿Ľè¡Į
åĨ¬ å¤©
Ġtox ic
ĠComp lete
ER Y
ĠP itt
, å¤§å®¶
st ock
be ing
-be ing
Ġret ired
Ġforg iveness
ä¹ĭ äºĭ
g al
Ġbreath ing
Ġrank ed
Ġv intage
èĢ ¸
ex ception
å¹³ å¸¸
ï¼Įä¸Ģ åĪĩ
Ġin cl
Ġh ill
S outh
ï¼Į åĲĮ
ĠD om
ï¼Įæľī çļĦ
ĠIntern al
ĠMag ic
Ġsp am
Ġoccasion ally
ĠF ocus
Ġconv iction
Ġconf usion
ç»Ĩ èıĮ
on i
Ġtack le
ç¢ Į
çľģ çº§
ard ed
éĿĻ éĿĻ
ĠV eter
æĸ° æĹ¶ä»£
Ġvary ing
æĦŁ åºĶ
aud i
Ġdro ve
ĠD utch
re ason
æĿĢ äºº
è¹ ²
ĠE c
åĩł åĪĨ
å¸® ä½ł
ä¾Ľ ç»Ļ
Ġcar b
Ġh ired
ç®¡çĲĨ äººåĳĺ
Ġdel iber
å¯» æ±Ĥ
Ġjew elry
ER N
Ġmari juana
å§Ĳ å¦¹
lah oma
F ragment
ĠM ission
ĠIn n
ĠR isk
, :
- item
/ $
Ġd ip
ag ers
çļĦ åħ·ä½ĵ
ĠViet nam
èĢ »
ä»£ è°¢
b ib
ĠW ait
ç²¾ åº¦
et adata
ĠB iden
ĠComp anies
[ (
ä½ĵ ç§¯
Ġup set
ç§ĳæĬĢ æľīéĻĲåħ¬åı¸
& \
Ġcr ushing
èı ©
ĠG i
L ower
æįŁ åĿı
Ġrub ber
{ (
vert ed
å¹¸ è¿Ĳ
ä¼ĺ éĽħ
ï¼Į å¦Ĥä½ķ
stand ard
ĠMic hel
Ġpublic ations
LE S
Ġarrang ements
æµ· åįĹ
ĠG ift
å¢ĥ åĨħ
/ O
ä¸¥éĩį çļĦ
D IR
mb ox
Ġdem o
ĠR ap
ch annel
am ous
Ġgr ants
(" #
ĠMat rix
Own er
__ ,
- ad
Ġincorpor ated
R aw
" ],
åĪ° ä½į
ä¸į ä¸ĭ
ï¼Į é»Ħ
el and
Ġfl ights
Ġsil ent
m other
åĢŁ åĬ©
ĠAd vis
ed itor
( ()
En v
{ figure
G ui
as ures
ĠM ock
our t
d ale
Ġt ong
ĠE lement
Ġ åı·
Ġsing ular
rac le
Ð ³
å¹¶ æľª
ĠDel hi
ĠPro file
Ġindepend ence
Ġj et
.c ol
Ġt ender
Ġinteg rate
M c
åºĵ åŃĺ
Ġp d
åħ¨ çľģ
Ġhe al
Ġblock ed
Ġdis rupt
å·² æľī
ä»¥ å¾Ģ
T x
ĠCom pl
G G
ĠÐ ·
æĦ ļ
æĿ¥ è®²
æ°Ķ è´¨
ab e
C hat
åıĪ æľī
ãĢĤ åı¯ä»¥
èĢĮ æĪĲ
ï¼Į è¿Ľä¸ĢæŃ¥
Ð¾Ð ´
Ġn urse
ä¹¦ ç±į
çºª å½ķ
å¸® æĪĳ
äºĽ ä»Ģä¹Ī
Ġh ierarch
Ġcons olid
_ OUT
N E
ï¼Įè¿Ļ æł·çļĦ
éķ¿ æ±Ł
\ text
N ational
ĠSur vey
éŁ §
Ġinsp ire
ĠY outh
e in
ĠBen efits
Ġch ampion
åĽ½åĨħ å¤ĸ
ĠTechn ologies
B ro
: h
åĿ İ
çļĦä¸Ģ ç«¯
åħ¬ åĬ¡
èĬ Ļ
ĠD im
_ query
H P
Ġdiscuss ing
åĽ¾ æ¡Ī
urre ncies
çľĭ ä¸Ĭåİ»
ĠAg ent
Ġwin ners
åºı åĪĹ
åī© ä½Ļ
per ature
Ġres ist
Ġspeak s
Ġm l
Ġphenomen on
ç» Ĵ
éĴ ł
AN K
Ġp ose
ĠCol lect
am az
Ġstart up
Ġres erv
ĠÎ ³
æĿ ł
o ks
è¿ĩåİ» äºĨ
æĽ² çº¿
ĠH um
å¤§ å¤ļ
æİ¢ è®¨
æĿĥ éĻĲ
Ġdom inant
èĤ¡ å¸Ĥ
æĺ¯ä¸Ģ äºĽ
EM ENT
Ġsee ks
ĠPe ace
æıĴ åħ¥
Ġf ears
rec ision
Ġh o
åħ¬ å¯ĵ
ĠH ur
åľ¨ éĤ£
ä¼ ŀ
Ġsim ulations
å´ ĸ
ĠM oh
çļĦ è¡¨çİ°
h line
ĠD rug
Ġwor n
ĠA bb
Ġ ä¸Ģä¸ª
V T
( cl
Ġsec ured
ce iver
, æ¯Ķå¦Ĥ
Ġbe ans
è¶³å¤Ł çļĦ
AT OR
ĠCommun ication
éĥ½ ä¸įä¼ļ
ĠP D
ç§° åı·
çļĦ å¥³äºº
èĦĳ æµ·
_ST ATE
_fl ags
æļ´ éľ²
Ġdenomin ator
S en
æĹł åħ³
ĠRes pons
æĢĢ åŃķ
ĠLook ing
Ġassum ptions
or izontal
an ia
.s ave
_G ET
ï¼Įçľĭ æĿ¥
ç¼´ çº³
.c ss
Ð°Ð »
Ġnot ifications
Ġ åįķä½į
Ġcl ause
ir s
æĪĳ è§īå¾Ĺ
.c pp
_ view
Ġw ing
Ġr ust
ĠB us
ĠR aj
éĢ Ĺ
æŃ ª
Ġold est
, a
/ -
Ġben e
çº¿ ä¸ĭ
èı ĩ
Ġins ulin
éĻ Ģ
æĭ ±
Com put
H appy
ĠT ennessee
en ue
éĺ² çģ«
Mem bers
sh are
ĠH al
M onday
ĠN urs
Ġnew est
è¥¿ äºļ
Ġprior it
å°± å¼Ģå§ĭ
Â Ĥ
Ġpharm ac
ä½ł æĥ³
Ġdecre asing
éĴ¢ éĵģ
çļĦ æĥħ
ï¼Į åĪ©çĶ¨
ĠHall ow
æī® æ¼Ķ
Ġend orse
L ow
Ġhuman ity
Ð½ Ð¾
æĢĢ éĩĮ
ĠS ession
åĬ© åĬĽ
th ur
Ã¶ r
ĠD J
èĭ ĳ
Ġsoc cer
å¦Ĥ åĽ¾
eb ook
Ġcon ce
Ġend point
ĠRef erence
çĽ¸åĲĮ çļĦ
Ġam plit
ï¼Į æĹ¶
åįģ è¶³
B ool
Ġman uscript
-l ink
Ġfin ishing
åºĶ çĶ¨äºİ
ĠThe ory
è¿Ľ åº¦
èŃ¦ æĸ¹
ex pect
Ġpr inter
Ġkey words
å· ©
Ġpo etry
f ather
Ġdead line
æ´» åĬĽ
Ġe ars
åĲĦ å¤§
M ichael
Ġfab ulous
Ġtext s
ï¼Į åįķ
exp ression
_ ACT
anc ouver
èĶ ĵ
å½ĵ ä»£
Ġscal ar
ĠTra il
éķ¿ å®ī
vel ope
/ st
Ġprotect ive
ï¼Į æĹ¥
éĢļ çĶ¨
ï¼ Ĳ
_t itle
Ġmoist ure
èĢĥèĻĳ åĪ°
-d ependent
Ä «
ĠS ay
Ġcook ed
ĠS ET
lo ve
, è¿ĻäºĽ
èł ¢
Ġinter mediate
å¼Ģ è½¦
æ¶Ĥ æĸĻ
_EN ABLE
çļĦ å¯¹
N a
ĠIss ue
ĠF at
ĠLa ure
ä¸ĩ åĲ¨
( `
ĠM I
ener ate
çļĦ åħ³éĶ®
ãĢĤ ä¸Ĭ
ä¸į çĦ¶
ott a
ĠC rim
pe g
m n
ĠApp lications
Ġoper ates
ĠM and
Ġflo ors
ï¼Į äºĶ
v ation
æ£ µ
Ġcollect ing
_ values
ĠT yp
Ġbeg un
æĭĽ åĶ¿
Ġn n
Ġworks hops
rb an
pt ic
æĬµ æĬĹ
_ Q
f ox
ĠR andom
at tern
Ġpre jud
ãĢģ çĻ½
å¼º åĪ¶
umb ing
Ġharm ful
ï¼Į æİ¥çĿĢ
èµ·æĿ¥ äºĨ
ĠF ellow
Ġdig est
ys ql
åħ¶ä»ĸ äºº
ĠS amsung
Ġg reet
ipher al
ä¼ł éĢģ
A li
Ġv iral
z i
çłĶç©¶ éĻ¢
Ġb arg
çļĦäºº çī©
æĸ° èĥ½æºĲ
prot ocol
ç»ĵæĿŁ åĲİ
EE E
ï¼ĮæĪĳ ä¼ļ
ĠPart icip
g ame
ential ly
ĠL eft
ä¼Ł å¤§
ï¿½ ï¿½
ĠPro perties
Ġinc ub
_DE BUG
F riday
åı¯ æĢľ
oo oo
Ġred irect
: `
ĠO cc
Ġint ra
ï¼Į æĮĩ
vis ible
æį ¡
æıĲ èµ·
- trans
Ġsell er
Ġd ivers
aff e
åĲ ı
dom ain
Ġsett le
ĠD atabase
w riting
, å¤ļ
Th ose
ĠR ain
ĠB esides
ï¼Į æĶ¾
æµ· åĨĽ
-min ute
el eration
è¿ĻéĩĮ çļĦ
ï¼Į æĹ¢çĦ¶
ï¼Į ä¹ĥ
ĠI ce
W eek
Ġv endors
åıĸ ä»£
è¥¿ éĥ¨
) ^{
è° Ń
ãĢģ ä¸Ģ
éĤ£ æĺ¯
ä¸ª ä½ĵ
Ġcomplic ations
oles ter
Ġport al
æłĩ è®°
Ġclos ure
å¹¿ä¸ľ çľģ
ilib rium
Ġra ces
éĳ «
ĠE T
èİ ŀ
å½ĵ å¤©
åĩĨ åĪĻ
åŁ¹ èĤ²
ag ine
ĠMat thew
æĳ© æĵ¦
æī ģ
ï¼Į ä¿ĥè¿Ľ
Ġnot ify
ent o
/ a
_ if
Ġfl ip
Ġf et
Ġconsist ency
çķĮ çļĦ
ĠC E
Ġsubs crib
äºº ä¹ĭ
ic ating
éŀ Ń
åı³ æīĭ
Com b
æĹ¶éĹ´ çļĦ
rem ote
çİ°ä»£ åĮĸ
ï¼ĮæĽ´ æĺ¯
ĠR id
Ġj aw
Ġwork force
ĠAr k
ĠB oot
åºĶçĶ¨ ç¨ĭåºı
IN FO
Ġ" _
ĠR ES
è¯Ŀ è¯´
èļ ģ
Ġ é¡¹çĽ®
Ġplaintiff s
A merican
ĠC ry
Ġdefe at
ĠC ele
ĠPer fect
Ġextract ed
OUR CE
Ġhonest ly
çķĻ è¨Ģ
end l
x d
V E
ä¹Ł æĺ¯ä¸Ģ
ï¼Į åĲĥ
ä¼¤ åı£
ï¼Įè®© ä»ĸ
çİ° çĬ¶
_d im
t f
Ġj ail
ĠÎ »
ï¼Į å°¤åħ¶
å· ħ
Ġfund ed
ä¸Ģ åįĬ
- reg
ï¼Ľ åľ¨
ps y
æĸĹ äºī
å½¢æĪĲ çļĦ
ï¼Į é¦ĸåħĪ
S peed
åĩº äºİ
_c md
ĠMan chester
è´µ æĹı
_ Get
æľīéĻĲè´£ä»» åħ¬åı¸
Ġvis ibility
ĠRE G
Ġ åħ¶å®ŀ
Ġdef ensive
Ġexpect ing
éķ¿ èĢģ
o il
ĠP ret
Ġp el
ç¬ ¨
Ġre aches
Ñ İ
åıĳ è¨Ģ
off s
è¿Ĳ è½¬
cc a
çĦ ī
è¿Ļ éĥ¨
Ġp tr
Ġkn ife
åĩĿ èģļ
ãĢĤ è¿ĺæľī
ĠĠĠĠĠĠĠĠĠĠĠĠĠĠĠĠĠĠĠĠĠĠĠĠĠĠĠĠĠĠĠĠ ĠĠĠĠĠĠĠĠĠĠĠ
ï¼Į è¶Ĭ
F ood
s ort
Ġdes ert
ĠMem orial
_P ER
Ġunn ecessary
Ġbre ach
å²ģ æľĪ
ynt ax
l ag
ï¼Į å¹´
æĸ¯ çļĦ
éĢĢ åĩº
åĺ¿ åĺ¿
Â ½
Ġg host
ï¼Į åıĮ
æłĳ ç«ĭ
Ġauthent ication
è¯¦ æĥħ
ĠC offee
ç»Ī æŃ¢
çĽ¸ å¤Ħ
Ġmut ual
çİ© æ³ķ
ĠAm endment
åİ¦ éĹ¨
ĠG il
log in
åĪĨ æķ°
ĠY eah
ä¸į æĦ¿æĦı
-s m
å¸Ĥ å§Ķ
ç¨³å®ļ æĢ§
L R
Ġsh o
å¯ ¡
å®¢æĪ· ç«¯
ess ed
æĢ¥ å¿Ļ
hel per
Ġcar ing
Ġpers u
Ġprevent ing
æ·· ä¹±
Ġin k
Ġcompl iment
åľ¨ å¤ĸ
ĠB ureau
è£ ´
b p
Ġ< !--
ä¸ī ç§į
è¿Ļ å°±æĺ¯
ĠMon itor
è¯Ń æĸĩ
ĠProgram s
Ġsou p
ĠInter view
( list
åŁºç¡Ģ è®¾æĸ½
ï¼Į æģĲæĢķ
Ġdistribut ions
Ġout line
Ġfo am
( url
å¿½ çķ¥
Ġm eth
Ġt ends
Ġver ified
çľ¼ éķľ
ĠMor gan
_f ilter
Ġex cluded
Ġex terior
ĠS S
æ±ĩ æĬ¥
Ġfall en
ĠInt roduction
ig ue
emp loy
ç³» æķ°
{ D
_RE S
ĠIN T
sh ape
Ġcon ve
Ġpro pose
ent ine
' \
ation ally
ï¼Į æį®
ç³ Ĭ
ĠEd ward
.g ithub
o j
( response
çĥ¦ æģ¼
Â «
{ Z
ĠClass ic
Ġoptim ize
_C HECK
æ³¨æĦı åĪ°
Ġ æł¹æį®
Ġb other
Ġsil ence
å¤§ æ°Ķ
u ity
W est
C ast
Ġang les
ï¼Į åĪĨåĪ«
ĠNav y
.m odels
åĨ ¶
Ġrun time
AT URE
M ouse
.f irst
Ġcontinu ously
Ġdel ivers
ĠAd vert
äºĭ åĦ¿
Ġsubstant ially
Ġrid ic
Ġc od
ãĢģ é»Ħ
P DF
Control s
ä¿¡ ä»°
ĠRep air
DE D
Ġsol ved
Ġdis charge
è±¡ å¾ģ
Ġenorm ous
em it
oun ge
, è¢«
An im
Ġto ilet
å¤ª åĲİ
ion ed
æĹ¥ ä¸ĬåįĪ
d m
Ġadd iction
ĠM ode
Ġenjoy able
è®¾è®¡ å¸Ī
ä»¥ä¸ĭ ç®Ģç§°
æĸĩ çī©
çīĽ å¥¶
åĪĿ ä¸Ń
> )
ord on
ĠClin ical
Ġprodu cers
Ð¾Ð ¼
åľ¨ åľ°ä¸Ĭ
Ġrem ed
çŁŃ ä¿¡
ĠOr ange
ĠR ate
Ġpro ps
åĳĬ çŁ¥
ĠT ok
åŁºéĩĳ ç®¡çĲĨ
åĨ· éĿĻ
åĪĨ æ³Į
ĠM IT
Ġmark ers
Ġdo ctrine
ä¸į æŃ¢
å®ŀ ä¹ł
S an
: =
ĠS K
ãĢĤ æĿİ
éĹ¨ å¤ĸ
Valid ation
ĠH ad
oles ale
+ (
æµģ çļĦ
ĠOx ford
ĠVol ume
Ġt ear
å¥ ¸
Ġsusp ension
Ġhor ror
ap olis
ensure math
ĠH ub
edd ings
out ine
éĴ ¦
Ġut ter
_t arget
éĥ Ĭ
åľĨ å½¢
è¿Ļ åľº
ure rs
ä»£ ä»·
comm ended
å¾Ĺ å¤ļ
ĠS olar
rif ice
ï¼ĮæĪĳ æĺ¯
Ġa ug
che ll
Ġ ell
çŃ¾ ç½²
å°± æĬĬ
com b
åŀĭ åı·
[ å¼ķçĶ¨æĹ¥æľŁ
ĠJ ess
ãĢĢãĢĢ ãĢĢ
ul ates
è¿ĺ åĮħæĭ¬
T ry
UR N
Ġdiscipl ine
Ġsc ales
åĴ ª
å¼Ģ çļĦ
æĮ «
äº¤æĺĵ æīĢ
ï¼Į é»ĳ
c n
-l ist
P erson
æ£ į
æ£ ł
çĶ «
å±± åĮº
è¿ĲåĬ¨ åĳĺ
è°Ī åĪ¤
ĠCal cul
c ule
Ġagric ultural
C ould
Cl uster
è¯ķ è¯ķ
Ġrepl acing
ï¼Įæ²¡ æĥ³åĪ°
L ib
Ġsh it
_ ip
Ġtarget ing
' }
Input Stream
Ġpros pective
Ġsh aped
ï¼Įè¿Ľ èĢĮ
æĸŃ äºĨ
_f iles
éĢīæĭ© äºĨ
ĠChampions hip
(b uf
æīĵ äºĨ
Enc oding
Ġimp osed
icens ing
Ġrock s
. u
çļĦ æ¶Īæģ¯
ĠÐ ¼
Ù İ
Ġgrav ity
ĠAd ult
æĮ£ æīİ
æ¼« çĶ»
ES C
H TTP
ĠDise ase
ï¼Į ç§¯æŀģ
ĠP odcast
æīĢæľī äºº
ĠT ai
/ test
AL S
Ġtechn ological
ï¼Į èĦ¸ä¸Ĭ
ĠHolid ay
ak h
Ġ[ ],
_P R
Ġpass engers
ä½ķ åĨµ
b age
Ġch amber
E lect
art ed
ï¼Į æıĲåįĩ
é¢Ħ çº¦
åįĩ éĻį
g un
Ġcar ries
in ters
åĩ¤ åĩ°
ä¸Ĭ éĹ¨
Ġcomb inations
ä¹ĭåīį çļĦ
it arian
Ġdecl are
Ġper ceived
ĠM ut
ĠD ictionary
Ġth umb
ĠF if
è§¦ åıĳ
ĠBer lin
Ġloyal ty
ãĢĤ ä»Ĭå¤©
ug g
emb ered
ĠR ub
Ġdef ining
ov ies
Ġw are
Ġregard ed
éĿŀ æ³ķ
-d riven
ç»Ļ äºº
ĠNever theless
ĠTem ple
ä¸Ģ åı£
and ra
ĠPre vious
ĠImpro ve
Ġpolynom ial
Ġbene ath
sequ ence
Ġfis cal
éĺ¿ éĩĮ
N R
rit is
ĠHallow een
è§Ĩ éĩİ
éĺ² çĸ«
Ġflu ct
Ġsh ame
:b efore
ĠPro du
åľ¨ åĵªéĩĮ
Ġg ig
ĠJac ob
ĠCl aim
æĸĩåĮĸ çļĦ
å¹´ çº§
Ġco ins
Ġactiv ated
p io
($ _
r ific
Ġin verse
ÃĲ Âµ
Ġcoll apse
çº¿ ç¨ĭ
Return s
å©ļ ç¤¼
an ne
Ġo live
Ġdirect ors
æ© Ļ
éĩį ç»Ħ
Ġviol ent
Ġgun s
ĠD ebug
èĬĤ çľģ
t ask
_T H
_d is
, æĪĸèĢħ
æĿĥ çļĦ
éĿ¢ æĿ¿
ig o
Ġd ying
Function al
Ġgr inding
Ġdeal er
arc el
ch ing
Â §
comm un
ĠCr usher
è´¦ åı·
Head ers
Ġaff airs
Ġd Ã©
ç«ĭ é©¬
Ø§ Ø
èĮ Ħ
ĠR oy
é¡ ½
rac ing
ĠG A
Ġcom edy
æĳĩäºĨ æĳĩå¤´
Ġv oices
Ġde emed
æľī æĹ¶
er als
ç¬¬ ä¹Ŀ
N orth
Ġo scill
ĠM agn
ct ic
Ġrank ing
ï¼Įè¿ĺ è¦ģ
.r andom
å¼ Ĭ
Ġaccommod ate
ĠIslam ic
åıĤ èµĽ
ann on
ch at
âĢĶâĢĶâĢĶâĢĶ âĢĶâĢĶâĢĶâĢĶ
.com p
åĽºå®ļ èµĦäº§
ãĢĤ åħ¨
åĸĿ éħĴ
ë ĭ
ĠC ow
Ġprov ince
Ġimplic it
_M EM
Ñ Ī
ĠT oy
ig est
ab ul
å¯¹ å¥¹
Ġcl s
Const ant
ĠBy te
ä¸Ģ è¡Į
æĶ¶ åĽŀ
Us age
ĠC hen
ĠC raft
è®¡ æıĲ
_t ag
G rad
(m essage
Ġarch ive
åħī æĺİ
Sm all
ĠR ot
( msg
Ġconvin ced
it i
Ġult ra
å¯¹æĸ¹ çļĦ
ç¡® è¯Ĭ
** (
è¿ľ çļĦ
Ġsign aling
Ġal uminum
oo g
ĠCl ark
! <
w he
ĠM ovie
Ġexcit ement
å¼ķ åħ¥
ä¸» åĬŀ
åıĳ ä½ľ
äºı æįŁ
Ġdelay ed
è§£åĨ³ äºĨ
Y Y
ä¸ºä»Ģä¹Ī è¦ģ
Ġrefer ring
çĽ´ å¾Ħ
ãĢģ æĬĢæľ¯
è¾½ å®ģ
is ite
Ġsh ade
åıį æŃ£
ĠCl imate
> :
Ġdepart ments
en ities
èĦĸ åŃĲ
ĠIntellig ence
ĠP os
ä¸Ĭæµ· å¸Ĥ
ĠĠĠĠĠĠĠĠĠĠĠĠĠĠĠĠĠĠĠĠĠĠĠĠĠĠĠĠĠĠĠĠ ĠĠĠĠ
Ġt el
Å Ĥ
ĠG h
. U
Ġtrou bles
.util s
ĠTechn ical
Ã§ Ã£o
, çĽ®åīį
B inding
æĺ¯ åı¯ä»¥
åŃ¤ çĭ¬
Ġin herent
r ison
Ġwal let
à ª
å°± è¿Ļæł·
Ġ\ (
è¯Ĺ äºº
"} ).
æĪĲ åŀĭ
æĢİä¹Ī äºĨ
Ġ' @
F X
ĠQu ery
æİ ł
æ¾ Ħ
co res
Oper ator
.b ase
åĿĲ æłĩ
ific ates
Ġsp ouse
sp ring
ï¼Į è½»
ç¼ĸ åĨĻ
Ġdo zen
æĽ´ å¤§
ĠLe on
form ing
ĠL incoln
ï¼į ï¼į
äºĨä¸Ģ åı£æ°Ķ
ur u
Ġtrans cription
im en
ĠFl ash
ropri ate
ail and
è¿Ļä¹Ī è¯´
æİ Ģ
Ġ é©¬
è¿ĻäºĽ äºº
ount ered
åĵ ĳ
Ġgrow s
Ġatt orneys
å»¶ ç»Ń
çº¢ çļĦ
Ġ èĩª
è·Ł ä»ĸ
æľĢ éĩįè¦ģçļĦ
/ index
ï¼Į èĤ¯å®ļ
Ġm ales
åı° ä¸Ĭ
B asic
LE TE
s n
uff le
Ġs ake
ĠDe lete
_m odule
act ic
Ġperm its
art z
ĠAll iance
åĩı åĢ¼
Ġpar ks
å®½ åº¦
( state
support ed
å¿« éĢĴ
Ġu i
< tr
Ġestablish ing
Ġan onymous
Ġautom ation
ĠG ET
å£³ ä½ĵ
ell ers
Ġse q
lot te
- cl
è¡¥ åĬ©
ĠA RE
ĠB BC
Ġdeg rad
Ġconst itutional
L o
m ad
ï¼Į åĬłä¸Ĭ
Ġpain ful
ĠFriend s
Ġir rit
æł¼ åħ°
æīĢ å±ŀ
æ³¨æĦı åĬĽ
Ġn est
.n um
-c ol
Ġm aker
Ġra ises
åŁİ ä¹¡
ul ent
Ġsynt hesis
ar ance
tr im
ĠH op
å¬ ·
To String
èľ ¡
Ġrom ance
çľŁçļĦ å¾Ī
Ġspecial ists
xx xx
ĠF ashion
P ython
s chema
èĬĤ çº¦
bar a
# pragma
Ġd p
å¸Ī çĶŁ
éĤ µ
ä»¶ çļĦ
é¾Ļ å¤´
éĢī ä¸¾
Ġcirc ular
ä¸į éĶĪéĴ¢
Ġsat ellite
_ Z
ĠInt el
ĠL ag
ä¹° äºĨ
ĠV it
Ġcent uries
ä¸Ģ æĿ¥
Ġg ast
Ġpro gression
Ġag ing
ĠWith in
éĹ ¸
ĠF ace
åĪ° å¤Ħ
ex it
çī© ä½ĵ
ãĢģ äºº
åĪ° çİ°åľ¨
åįİ å¤ı
Sp ring
Up load
Ġo re
Ġr ats
Ġin e
Ġsuggest ion
åĲĪçĲĨ çļĦ
ĠThe rapy
æĪĳ çŁ¥éģĵ
ĠCamb ridge
æĽ´ å¤§çļĦ
ĠDef endant
ĠL ICENSE
Ġbu ck
m ade
if iable
éĻĨ ç»Ń
g ot
è¯ Ģ
eg u
ĠN J
ï¼Į åıĹ
æĪ· å¤ĸ
ĠAnth ony
äºĨ èĩªå·±çļĦ
ï¼Į åĪļ
Ġtro ops
Ð ¹
Ġsl ip
__ _
Ġliber al
-F i
æīĭ ä¸Ĭ
Ġconsult ing
Ġsp are
con sole
ft en
, å¸ĮæľĽ
å¼º èĢħ
ĠR ather
ject ion
Ġnon pro
Ġlast ing
æħ¢ æĢ§
Ġro d
ĠS ort
, ä»¥åıĬ
åį« æĺŁ
Ġconfirm ation
åıĳ çĶµ
j avascript
æŀ¶ æŀĦ
{ T
Ġsp ir
ĠJ son
Ġflo od
éĹ´ éļĶ
æ¼Ķ è®²
Ġp ays
fore ach
Ġforgot ten
Ġinitial ize
èº« ä¸º
çĪ± å¿ĥ
v able
B its
æľī ä¸Ģç§į
åıª å¥½
US B
=" "
ä»ĺ æ¬¾
ç¤¾ä¼ļ çļĦ
æİĴ æ°´
Ġra ck
N I
é¥® æĸĻ
_P L
Ġpro be
Ġbank ruptcy
Ġadv ise
R ich
çļĦ é£İéĻ©
ivid ually
_ height
arr ass
Ġinter vals
ĠNS String
çļĦå¿ĥ çĲĨ
Ġsynt ax
Un iversity
Ġ Ì
ĠLI ABILITY
è± ¹
ĠD a
. contains
ãĢĤ æĸ°
é¥° æ¼Ķ
Ġvess el
ï¼Ľ èĢĮ
RO UP
p read
as a
ĠF R
char acter
åīį æĻ¯
C red
ÑĢ Ð°Ð
ĠN A
å½ĵ æľŁ
åĿ Ŀ
Ġo ils
an ol
æĻ® åıĬ
Ġpoint ing
å¦ į
ut her
è®¾è®¡ çļĦ
od o
Ġd ess
Ġun e
ĠP ier
inem a
åĴ ķ
. empty
éĴ¢ ç®¡
Ġdon ation
æĿ¡ä»¶ çļĦ
ĠG P
et ics
S V
Ġc ure
Ġsupp orters
Ġl ips
ä¸į è¶ħè¿ĩ
ĠAl abama
l g
é» ı
p air
-pro fit
ĠCh at
ĠChar acter
_d et
un ting
f inal
Ġsoph isticated
åĪĨ è§£
ĠE P
Ġpre view
ãĢģ å¼ł
Ġwell ness
æĪĳ åĴĮ
ĠQ ual
Ġchem istry
ew ard
åĽĽ å¤§
ç»ıæµİ åıĳå±ķ
ĠRed ist
Ġenc ountered
Ġmob ility
Ġmat rices
ãĤ ĵ
i w
< std
åħ¬ åħĥ
b efore
Ġconst raint
oc ytes
çľĭ äºĨä¸Ģçľ¼
Ġg em
äº§çĶŁ äºĨ
ï¼Į å¸¸
us age
ï¼Įè¿Ļ å°±æĺ¯
H older
, åıªè¦ģ
ĠIS O
æŃ£å¸¸ çļĦ
åĬ© çĲĨ
le ans
Ġwork flow
ocr atic
ĠR ick
b one
Intern ational
L ibrary
n orm
âĢľ ä¸ī
ĠE rr
è´¦ æ¬¾
åľº åľ°
Ġfin est
b oy
æĬķ æłĩ
ĠA BC
Ġsw ap
ĠĠĠĠĠĠĠĠĠĠĠĠĠĠĠĠĠĠĠĠĠĠĠĠĠĠĠĠĠĠĠĠ ĠĠĠĠĠ
i ator
è§Ĵ èĲ½
Ġcal ories
Ġcontribut ing
ï¼ĮæĪĳ ä¹Ł
app rox
b es
çĶµè§Ĩ åı°
ĠMiss ouri
æĭħ å¿§
ĠEnter prise
çĥ ¹
Ġd ynam
Ġso ap
ol ph
A h
çļĦ æĹł
Ġet ern
ad os
Ġproject ion
ĠStat istics
Ġreason ing
ol as
N P
Ġqual ities
çħ§ æĺİ
éķ¿ æ²Ļ
ä¸» åĬĽ
å®ŀçİ° äºĨ
Tra vel
ä»£ æĽ¿
qu es
Ġrep orter
æ± °
åħ¶ ä¸ŃçļĦ
ĠP as
Ġachieve ment
ä¾Ľ çĶµ
Ġdem ocracy
-s ite
è¿Ļ æ®µ
# [
æ¸¸ æ³³
D ict
Ġelder ly
], [@
* \
ç² ¤
UN CTION
åľ¨ æĦı
ĠNet herlands
Ġ ----------------
) _
äºĭ çļĦ
æķ´ æĶ¹
ĠP u
ment ed
Ġ ....
In vest
ang les
CP U
ĠTre nd
ĠJ u
éĵ ħ
Int eg
ç»Ŀ ç¼ĺ
Ġexcept ions
ï¼Į ç«Ł
ĠS ym
^ ^
çħ ŀ
over nment
ç´§ å¯Ĩ
Ġconf idential
' >
ĠOr iginal
Ġvol umes
N EW
Ġ è¯¥
Ġmin eral
è´¢åĬ¡ æĬ¥è¡¨
æĮ ª
ï¼Į ç§¦
Res et
ĠD or
éĺ² èĮĥ
åĺ´ å·´
, çĶ±
ä½ ĳ
un ique
ir atory
=" $
Ġt ours
äºĭ çī©
çĿĢ å¥¹
Ġhand y
i per
æ¨¡ æĿ¿
Comm unity
Ġu pt
P arse
ãģ ķ
Ġat oms
ĠT oo
arn ings
çļĦ å¤ļ
Ġcritic ism
èĢģ å¤´
éĨ Ľ
Ġfem ales
Ġfem in
åıª ä¼ļ
ï¼Įè¿Ļ æīį
Ġperform s
Ġn ick
ĠT ogether
åĴ ¯
Ġex ec
-g o
æ³ »
ol er
Ġcomp iled
Ġâī ¤
. default
çľŁ ç©º
å°ĳ çĪ·
Ġtim estamp
åķ ª
is ure
ĠAct ivity
l as
åŃĺ æ¬¾
. be
åıį å°Ħ
ĠV M
æĿ¡ æ¬¾
ip h
b ecause
> .
æķ° ç»Ħ
åĲ« ä¹ī
Ġcomp ression
[ key
éľ Ħ
Ġinsp iring
ĠWh it
åĬł ä»¥
å®ŀ è´¨
C ross
" github
Ġhighlight ed
ĠT oken
Ġaccept ing
- value
Ġcoupl ing
æĹ¥ ä¸ĭåįĪ
åıĳ èµ·
ãĢĤ è¿Ļä¸Ģ
olester ol
ï¼Į è¿ĩ
Ġcontain ers
è¿ĺ å¥½
Ġr ounds
( var
Ð¸ Ñı
Ġrandom ly
Ġthrow ing
- way
åĨ· çļĦ
ĠCapt ain
ï¼Į éĩį
è¿Ļ ä»½
Ġfig ured
ID S
ĠB alt
Ġst ays
Î± Î¹
Ġd ough
O ct
èĨ Ĭ
Ġbe ings
s App
Ġir re
ĠS ac
Ġ åĨį
ĠA qu
èĥĸ åŃĲ
ä¸Ń åįĪ
åĲĦ çº§
ĠS Y
pe ople
Ġpull ing
Ġmy th
éĥ½ å·²ç»ı
.com m
k appa
èĨ¨ èĥĢ
Ġpl t
Ġsp rint
t wo
è§¦ æĳ¸
æ¸Ĺ éĢı
{ M
ï¼Į çĽ¸ä¿¡
Ġwild life
ä½ĵ éĩį
ong o
ĠB ol
å¯¹ äºĨ
_ queue
n one
. Log
è¿ĩ æĿ¥çļĦ
P aul
Ġdep loyment
ĠTrans fer
Ġover flow
æľºåĬ¨ è½¦
z ens
Ġhere in
SS L
Ġappet ite
Ġaccording ly
Ġbroad er
ä¸Ģ èµ·æĿ¥
/ en
X Y
Ġtour ism
Ġar med
Ġrel ates
Ġmar ine
çļĦ çī¹çĤ¹
ĠS urg
ĠS afe
C OM
ell i
ĠUs ers
ä¹Ļ çĥ¯
åľ¨ å¥¹
ãĢĭ åĴĮ
Ġpresident ial
ĠW ind
ĠCh i
Cont ents
Ġjust ify
Ġconscious ness
äºĨ å¥¹
ï¼Įè¦ģ æĺ¯
ogene ous
ĠMe et
ĠPack age
As k
Ġw age
ĠP ages
ĠOper ations
Ġpre lim
( K
cd ots
V O
ph ant
ĠW indow
Ġ --------
. o
rins ic
um ing
Ġquant ities
ï¼Į ä¸ĭéĿ¢
Ġatt achment
ĠCol umn
Ġbott les
Ġfunction ing
Ġtr ash
Ġstri king
ä¸ ŀ
Ġpoly mer
Ġun a
Ġpath ways
Ġcitiz en
åħ¶ æ¬¡
çº³ åħ¥
] ],
æł· æľ¬
g ent
/ api
Ġal ike
Ġcon clusions
.t itle
Ġch lor
Ġw elfare
Ġt ire
Ġen emies
Cont ains
Un ited
ä¼ ½
Ġsubt le
ĠL ux
èµ° çļĦ
qu et
è¿Ļ ç±»
å¸Į èħĬ
_b ytes
æµģ æ°´
æĭħ å½ĵ
Ġextra ction
to String
[: ,
ç¥ Ľ
åĨ³ è®®
ann ers
Ġst raw
æĸ° æĬĢæľ¯
Ġmag ical
ĠS leep
ï¼Į åĿĩ
IC AL
Ġsu its
å®īè£ħ åľ¨
ĠObject ive
=" _
Ġâ Ĩ
y g
roll ers
Ġneigh bour
äº¤ åıī
conom ic
åĩº èµĦ
ä¼¸ ç¼©
Ġend less
åĭŁéĽĨ èµĦéĩĳ
æľĭåıĭ ä»¬
.p ost
è¿Ľ çĲĥ
ç¬¦ åı·
Ġdeterm ines
èħ¾ è®¯
her ited
st able
ç¾¡ æħķ
Ġelev ated
Ġv endor
L oop
è¯ ı
Ġbar riers
F eed
ï¼Įä½ł çļĦ
ac er
ock ets
çģ« ç®Ń
æ¶ ¡
Ġgener ous
B ank
urs ive
ĠB attle
ĠP rior
éĻ¶ çĵ·
Ġdri ed
Ġcap ac
çĽĳçĿ£ ç®¡çĲĨ
è´Ŀ å°Ķ
_ valid
çĥŃ çļĦ
- ups
çİ« çĳ°
Ġal igned
_T EST
æĹ¥ åĨħ
B ound
anc ies
ï¼Į æŃ£æĺ¯
Ġc um
ĠFrank lin
[ x
ener gy
, [
ä¸Ĭ ä¼ł
ĠS ummary
ï¸ ı
. Generic
_B IT
Sp an
å± ¡
æĭĽ æłĩ
åĬł å¯Ĩ
_RE AD
å¤© ä½¿
äºº äºĨ
Ġhom ework
åī© ä¸ĭçļĦ
-w ide
- use
ä¹Ł å°Ĩ
äºĭåĬ¡ æīĢ
ç²¾ åĵģ
Ġbuild s
at tered
ĠA z
ĠN ik
æĽ¹ æĵį
Ġ] ;
Ġcorpor ations
å¼Ģ éĹ¨
ä»Ģä¹Ī çļĦ
æĸĩ æ¡£
# !
es ity
par ator
éģµ å¾ª
Ġsal ad
åĲĮæ¯Ķ å¢ŀéķ¿
Ġrh yth
éĺµ å®¹
Ã© e
äº¤ äºĴ
ï¼Į ä½ľèĢħ
p in
F our
è¯´ åĩº
æ·±åľ³ å¸Ĥ
Ch ina
wit zer
Ġf ence
ĠÂ «
ç«ĭ ä½ĵ
åĶ ī
çľŁ çĽ¸
è° İ
è¿Ĳ ç®Ĺ
åĭ ĭ
ĠH an
è¯ µ
éĶ ¥
Ġdec iding
åĪĳ äºĭ
ä¸Ĭ å¸Ŀ
Ġn ov
éĻª ä¼´
ï¼Į åºĶå½ĵ
Ġto y
çĽ® çļĦæĺ¯
ĠDE FAULT
ï¼Įå¥¹ çļĦ
Post s
Ġadapt ed
çĽ¸ ç»ĵåĲĪ
ĠO w
anal ysis
d ed
p n
æĤ£èĢħ çļĦ
éĻĦ åĬł
Ġso ck
ĠT rain
Ġn erve
olog ically
ig ator
æĤ į
Ġass ured
Rem ember
èĮ¶ åı¶
åŃĹç¬¦ ä¸²
Ġsust ained
Ag ent
ur ious
IC ATION
æī¶ è´«
èĥ ³
Ġport s
hel lo
ĠL emma
å®īåħ¨ çĶŁäº§
Ġ æį®
j ack
ç²¾ çģµ
Ġs ends
_t rain
Ġd ancing
äºº éĹ´
C N
Ġto ss
_T X
æĹģ çļĦ
F ac
ĠRes erve
Ġb ib
b oolean
åįĥ å¹´
Ġdecl aration
Ġabund ance
åĭ ĺ
ï¼Į åĶĲ
Ġb ones
cp u
å¤§ èĦĳ
ï¼Įåıª è§ģ
åºķ åº§
Ġh unt
ĠBel ow
ãĢĤ çİ°
Ġal location
Cons ider
b led
Ġshe d
Ġparticip ated
åĨį åº¦
åıĤ çħ§
for ced
E v
æĲŃ å»º
d one
Ġpresent ing
ï¼Į å¸¦
åĤ¨ å¤ĩ
at able
Ġprotocol s
Ġwhere ver
åĵ Ħ
æĿ¥ å¾Ĺ
ï¼Į åĩıå°ĳ
æ°Ķ æ¸©
Ġ çĶ¨
Ġcons ume
ag u
çĶŁ çĲĨ
_T EXT
Ã¡ n
Ġint rig
åŃ¦æł¡ çļĦ
Rem ote
åĵ ĩ
ĠP ref
w id
D istance
ĠC B
ãĢģ å¯¹
å¤§ å¤«
Ġsu icide
Ġm amm
ä¾¿ æį·
' (
Ġbatter ies
ĠMod ule
F I
Ġ" (
P ersonal
ĠAssoci ate
W A
Ġre cess
Ġun fortunately
Ġc b
V A
Ġst ainless
çķĻ åŃ¦
D igital
çļĦ åħ¬åı¸
ĠUt ah
Con verter
.f ile
è±ª åįİ
å¤§ äºĭ
ï¼Į çĽ¸
D river
Ġa u
down load
æĿ¡ä»¶ ä¸ĭ
. al
Ġrepeated ly
æĹ¥ åľ¨
_ attr
user name
å¤§ åĬĽ
Ġfast est
ĠCon nection
Sub ject
ĠT ut
-m ade
@ @
ä½ł ä¸į
ch ant
è§ģ çļĦ
ather ine
et work
ĠEx amples
irc le
Ġadjust ment
_c olumn
ĠOver all
V S
ress ions
Ġa er
_C OMP
ï¼Įè¿Ļ ä¹Ī
te am
. ),
ra ining
ä½į çļĦ
Ġout fit
à¤ ¾
æ½ľ åľ¨
ä¼ļ åĩºçİ°
am ar
Cond ition
ĠT ab
OD ULE
Al loc
æĽĿ åħī
.m essage
ç®Ĺ äºĨ
ch anged
C ounter
å¤į ä¹ł
Ġadvert is
è¦ģ åľ¨
reg ular
== =
Ġdo i
ä½łä»¬ çļĦ
ï¼Įåį´ æĺ¯
cond s
èĲ į
åģ· åģ·
red ient
ĠMex ican
Ġphotograp her
_FL AG
Ġcon n
æĺ¥ å¤©
Don ald
æľº éģĩ
æĴ ¼
ĠH ERE
ä»ĵ åºĵ
el ay
Ġph ases
%%%%%%%% %%%%%%%%
æĹ¶ æľº
æ¥ ł
Ġs s
èĬĤ æĹ¥
æİĪ äºĪ
ourn als
ï¼Į çŁ¥éģĵ
habilit ation
ĠS R
Ġc c
Vis ual
oth y
æ°Ķ æ°Ľ
æĭĽ åķĨ
\ leq
ĠForm at
ä¸Ģ åĬ¨
m os
ä¸Ģ éģį
P y
Ġcompet ing
Ġc p
å¼ķèµ· çļĦ
sp ot
check ed
æł Ī
æ³ķå¾ĭ æ³ķè§Ħ
ĠGrow th
æļ ¨
ä¸Ń æīĢ
ä¸Ģ åĲĮ
æ¹ Ľ
Ġa uction
Ġdistingu ish
ay ment
um ble
ç»¿ åĮĸ
æİ¥ å¾ħ
j an
Ġm as
æŃ£ éĿ¢
è¿Ĳ æ°Ķ
Ġsche mes
ĠCurrent ly
Int erest
Ġglass es
Â Ģ
çĶŁ èĤ²
ĠR ace
æĿ¿ ä¸Ĭ
ĠL ane
_s ession
Ġpro to
æ° Ł
ĠPrem ier
. Object
T emp
Ġmarket place
ĠN BA
ä¸ī å¤©
o vers
ä¹ĭ å¿ĥ
res et
æ¤ İ
_ up
Book s
g oogle
Ġt une
Ġend e
_ rec
æ·± å¤Ħ
ï¼Į æĺ¾çĦ¶
.d raw
ï¼Ľ æīĢè¿°
h ad
Ġexplain ing
æ¸´ æľĽ
. of
+ "
å®¢ æ°Ķ
-d epth
çŁ «
çļĦ èĬ±
ĠIn novation
ĠO pport
Ġdemonstr ates
ĠAn imal
Ġstrugg les
å·® åĪ«
åħ¨ éĥ½
AR GET
åĤ¨ åŃĺ
ĠV ent
in ars
åĲĮ æľŁ
ãĢģ "
Ġcare ers
oll ar
Ġlog ged
ï¼Į åĮĹ
% ),
å¾Ī ä¸į
igh ters
Ġde leg
id el
M IN
. url
Ġ' _
Ġke en
å¹´ åĪĿ
Am ount
Ġdisappoint ed
é« ĵ
% ;
ell ular
é£Ł æĿĲ
ï¼Į åĵªæĢķ
ç¬¬äºĮ æ¬¡
Ġroll ed
ç§» æ°ĳ
Ġj a
èĢģ å¹´
ĠS creen
P resent
ĠP anel
C U
èĭı å·ŀ
c ss
Ġsecre ts
Ġtown s
Ġ åı¯æĺ¯
å¾ĹåĪ° çļĦ
Ġ åĶĲ
ul k
M usic
\ r
su pp
Ġdis advant
åĲ ©
pe red
å¤§ éĹ¨
åįı åĲĮ
ä¼ł åªĴ
J ames
St ay
ãĢĤ å½ĵæĹ¶
åĩł ä¸ªäºº
Ġemerg ed
ä¸ĵ è¾ĳ
ides pread
Ġpers pectives
ress ing
( val
ĠBet ween
äºī è®®
Ġra bb
Ġgu ided
Ġpur ple
Ġv ig
åĳ¨ å¹´
o ons
ul ly
çļĦ è´¨éĩı
Ġaud iences
ï¼Į åĽŀ
ç§ģ äºº
Ġcelebr ated
ĠF ly
_st ream
ĠG PS
-b lock
Ġtra its
ĠDe cl
-f amily
err ors
l ice
LO B
em ph
ä¸Ĭ è¯¾
èµ¢ å¾Ĺ
å®ŀ è¯Ŀ
D rop
ç«ł ç¨ĭ
çĶ¨ åĬĽ
Ġrem inder
æ°´ åĪĨ
Ġboot s
æĳĺ è¦ģ
ç»ĺ çĶ»
ãĢĤ çİĭ
ç¦ Ħ
ĠF le
ãĥ »
ĠC ars
d est
çĦ¶ çļĦ
Ġsatisf ying
ç¼ĵ æħ¢
æĮģ èĤ¡
å®ŀ åľ°
ï¼Į çº¢
As set
art ial
ãĢĤ æ¯ı
æĹ ±
æĪĺ èĥľ
Ġl ap
oc a
Ġc s
ä¹Ł éĥ½
æķ ŀ
et erm
çļĦ åĲį
ĠW el
åĨħ å¤ĸ
r ases
ç¥ŀ å¥ĩ
ãĢģ äºĮ
{ t
Option al
ï¼ļ A
çĭ¬ èĩª
Ġthe ater
am on
Ġcl oth
Ġr ush
Ġconst itute
Ġh ug
,èĢĮ æĺ¯
å¤§ ç¬ĳ
æĮĩ åįĹ
.l ast
M apper
æ± Ŀ
Ġout let
(n p
Ġhaz ard
] ))
ĠHealth care
æ³ £
)* (-
å¤ļ äºº
ĠD ur
ann ah
witzer land
åħ¬ å¼ı
" ].
å¿½ è§Ĩ
èµ· çĤ¹
èº«è¾¹ çļĦ
ĠV ert
ĠH yp
(m odel
ĠGirl s
W arning
x a
Ġcount ing
S ch
ĠSe pt
Ġcomp elling
è¾ĥ å¤§çļĦ
Ġstruct ured
ãĢģ çİĭ
Ġc ant
ç¢° åĪ°
ãĢģ æĿİ
ĠPat tern
åı¥ åŃĲ
port ed
Ġcon vention
GB T
éģĹ ä¼ł
. for
ĠT IM
ipp i
es ian
å¾Ĺ ä¸Ĭ
æĵħ éķ¿
, ä¸įè¦ģ
qu arters
p ed
ĠMe chan
Ġimag ination
. or
æıĲ åĩºçļĦ
EN ER
Ġapprox imation
ï¼Į åı«
ä»ĭç»į äºĨ
è¿ŀ éĢļ
åħ¬å®ī å±Ģ
åİĨåı² ä¸Ĭ
éĴ¥ åĮĻ
Ġswitch ing
çĥŃ çĪ±
èįī åİŁ
{eq n
Ġdi ver
ĠMaterial s
, âĢľ
ĠF ant
ĠThanks giving
æĹł åı¯
ä¿¡æģ¯ åĮĸ
\ {
å¡« åĨĻ
Process or
å±± çļĦ
ä¸Ģ åı¥è¯Ŀ
Ġwat ches
ĠL abel
ĠD ick
å¥ī çĮ®
he ets
ern et
åĤ¬ åĮĸ
åĮħ è£¹
ark er
F inal
æİ¥ ç§į
ãĢĤ åıĪ
Ġaggreg ate
ä¹ĭ ä¸º
ble ms
åĽŃ æŀĹ
ĠGet ting
at om
çŃ¾ çº¦
Ġs its
Ġmod ifications
ä¸į æĺĵ
iss ue
Ġr s
æĸ° çĶŁ
åı£ æĦŁ
Ġpass enger
ç¯ĩ æĸĩç«ł
æĥ³ çļĦ
Ġexpl ored
ĠD rop
ol itan
åĶ® åĲİ
Ġref use
B ay
æľī ä¸ĢäºĽ
Th ursday
ĠG B
ĠD river
æĹł æīĢ
å¯Į æľī
li est
te in
or ious
ĠHow ard
plug ins
Ġte aches
Ġpolit icians
ident ifier
/ pro
Ġf ancy
Ġobst acles
èİ· å¥ĸ
æĻ®éĢļ çļĦ
][ "
ĠL in
Execut ion
äºĨ ä¸ĭ
ĠB uilder
Pro ps
umn i
Ġep it
ĠEmp ire
Ġm elt
å¯¹ éĿ¢
ĠM atch
ĠCoun sel
ï¼Į èº«ä½ĵ
,ä»İ èĢĮ
ur ring
ours es
R untime
-s ide
V EL
åīį æıĲ
om ing
Ġbi ology
ĠW edding
nab la
Ġ( ((
ĠIn clude
èº« å½±
æĬ¥åĳĬ æľŁåĨħ
Ġapp ar
æĺ¯ ä¸ŃåĽ½
à ¯
B Y
_s ource
çº¦ æĿŁ
B ad
ĠT ags
Arch ives
åı¯ä»¥ çĶ¨
ĠBel g
Ġstream s
ab i
åİĤ åķĨ
_p ost
Ġprospect s
ç«ŀ æĬĢ
( os
Ġglob ally
éľ Ĩ
çļĦå¿ĥ æĥħ
Ġpropos als
-b utton
Ġar row
Ġback ed
ç²¾ èĭ±
ĠEx cel
Ġ ê
éĥ Ŀ
æ²¡ åĬŀæ³ķ
Ġdepend ence
ox ic
v et
ĠF O
åħ¬ æĸ¤
ĠRev olution
æ³ķ çļĦ
am ents
ĠF ont
. IO
ĠB ot
iov ascular
ĠAnt i
Ġsymmet ry
param eter
Ġabs ent
ĠGal axy
ĠWalk er
Ġrec overed
I ENT
, T
ĠMar ine
-s ized
lic al
Ġrecip ient
åį§ å®¤
è±Ĩ èħĲ
ï¼Į é¡º
Ġshel f
_ ctx
æİĴ åºı
Ġsynt hetic
ĠP ool
çĥ ģ
ä¸į çĿĢ
è¯´ ä»ĸ
Ġval ve
IS H
, (
Ġbes ides
Ġpe ers
å¨ ħ
f its
D ER
> ("
åħĭ æľį
Ġver ification
Ġprof ound
@ end
i ere
å¤įæĿĤ çļĦ
ĠT emplate
ĠPh ill
ï¼Į å»ºç«ĭ
ĠH it
Ġtra uma
ï¼Įåıį æŃ£
. op
Ps i
ĠJ oy
èĻ ŀ
ract ed
Sc ene
Ġtyp edef
åľ¨ æľ¬
å§¿ æĢģ
ens ively
Ġl ig
ä¸Ģ æĹ¥
çļĦ ç¬ĳ
_ response
èĳĹ åĲį
ĠM erc
ĠK EY
æĹĹ ä¸ĭ
ĠJ S
= true
-w inning
ï¼Į å¸¦çĿĢ
. arg
çĪ± ä½ł
_h andler
ï¼Į å¿ħ
Ġ" '
ï¼Į éĿ¢
Ġmax im
Ġsim ilarly
Ġvari ants
Ġmass es
ĠBow l
ç«ŀäºī åĬĽ
ĠM ars
ç¼ĵ åĨ²
åĻ ¬
ä¸Ģ ä¼ļ
Ġassoci ations
æµİ åįĹ
Ġz oom
æīĭ ä¸ĭ
èĢĥ éªĮ
S ound
ĠG all
Ġen jo
åĹ ½
Ġart istic
Ġf itted
] ^
_ ad
Ġcust ody
ĠInd ividual
éĩĮ æĸ¯
Ġc er
Ġc ement
Ġp iano
Ġper pet
Th us
Ġw ard
ç¦ ½
Ġbar rel
æī© å¼ł
Ġdownload ed
Ġsit uated
w alk
æł¸ éħ¸
DE BUG
qu ote
ç¬¬ä¸ī æĸ¹
.p op
W ow
Ġinvest ed
é¢¤ æĬĸ
ĠMar ia
Ġsurve ys
ĠDe an
_ enc
å½ ¬
ï¼Į èĻ½
ä¸Ń èį¯
æıĲé«ĺ äºĨ
åĽĽ åįģ
Ġsystem atic
è¯´ ä½ł
ï¼Į éĻĨ
ĠL ater
b tn
roph y
Ġinstall ing
ĠTur k
ĠDen ver
è¿İ æİ¥
ien e
ĠCh rome
With out
il ateral
Ġe uro
P rom
Ġmethod ology
in ion
Ġhand ed
çļĦ ç®¡çĲĨ
M esh
æī¿ åĮħ
Ġret ro
ump y
ĠBeaut y
_ form
Ġindu ction
ĠDI Y
Ġpul se
äºĨè§£ åĪ°
. Equal
F oot
åĬł æĭ¿
_ order
åı£ èħĶ
_sh ape
ER VER
Ġpub lisher
å¿ħé¡» è¦ģ
Ġthere of
ã İ
ĠIsrael i
Ġcom ic
èĪ Ĩ
ĠW orth
Ġsubstr ate
avel ength
ĠPhys ics
å¤§å®¶ éĥ½
çĬ¹ å¦Ĥ
éķ¿ å¤§
åľ° éľĩ
Ðµ Ð»
Ġr ic
im on
{ s
Ġb ay
Ġfre ely
Ġfund ra
Inst agram
Ġsc aling
èĥ³ èĨĬ
p ond
åĭ º
ĠCam era
çļĦ å¤´
Ġdev oted
Ġpen et
_S C
Ġagric ulture
Ġtow er
act ors
Ġp as
ĠR d
select or
ï¼Ī ä¸Ģ
G old
e as
å¼Ģ è®¾
Ġd ense
Ġland sc
m aking
ĠB u
ĠRep orts
V irtual
Ġcor ruption
ĠG rid
mon th
ãĢĤ å°Ĩ
Ġ? ?
Ġconflic ts
is an
( []
con sc
Menu Item
åĮĨ åĮĨ
çĶ¨ æ°´
ĠSpring s
ç§ĳåŃ¦ å®¶
åĳ¨ æľ«
(f loat
ĠB ull
Ġport ray
éĽĨåĽ¢ æľīéĻĲåħ¬åı¸
Ġs ib
Ġillust rated
Ġaccess ed
, æ¯ı
æľī åºı
æĥ³ è¿ĩ
ï¼Į ç¾İ
R a
äº ¨
é¢ĳ ç¹ģ
æ¶¦ æ»ĳ
Ġt ies
Ġshel ter
Ġt ale
å¤ļå°ĳ éĴ±
C ursor
-t ext
Ġa ux
æľª èĥ½
ĠLoad ing
Ġrem embered
act ual
æ¾³ å¤§åĪ©
Ġint end
åĹ ĵ
TR L
Ġrelax ed
Ġh i
_f n
Ġin clusive
Ġcol ored
Ġcred entials
ic ting
çļĦ çľ¼çĿĽ
Ġcl one
ĠT ouch
Ġp icks
ĠCal endar
Ġoccur ring
Ġvis a
çľ¼ åħī
è´¯ ç©¿
ĠS pect
ï¼Į åı¦å¤ĸ
Ġin cons
^ +
-w orld
Ġ çľĭçĿĢ
tain ing
ä¹Ĳ è§Ĥ
Ġun iqu
Ġimpro ves
C ong
åįģ åŃĹ
ĠG re
cont ents
ac hers
Ġtoler ance
ĠH andle
A lex
ĠO FF
è¾ĥ å¤ļ
ograph ical
Ġmax imize
è·ĳ åĪ°
ä¸į åıĹ
Ġstat utory
Ġentertain ing
åħ» çĶŁ
_s ign
è¿Ŀ è§Ħ
Ġtw elve
Ġmother s
äººåĬĽ èµĦæºĲ
om it
ĠF DA
æĿĲæĸĻ çļĦ
ĠS witch
æĻ¯ çĤ¹
________________ ________________
èĩªæ²» åĮº
çĩĥ æĸĻ
Ġbless ed
ĠKent ucky
ĠR ank
çıį æĥľ
æ¾³å¤§åĪ© äºļ
Ġp ants
ĠFranc is
x s
éĤ£ å¤©
oc he
Ġmagn et
Ġestim ation
rit es
åįĥ éĩĮ
å¤§ éĺŁ
IC S
EO F
åĽĽ å¹´
ä¸ľ äº¬
_ thread
ĠCo ach
Ġco aches
ĠDirect ory
ĠB rew
æĴ ĩ
Not Found
Ġind ividually
æģ į
Method s
Ġdis put
ï¼ĮæīĢè¿° ç¬¬ä¸Ģ
ï¼ Ĵ
Ġsusp ended
Act iv
bb ed
ĠDet roit
åĽ½ äº§
rit ers
éĹ® æĪĳ
Ġam id
Ġbound ed
Ġ çĦ¶åĲİ
Ġstrength s
T ri
åĲİ æŀľ
B G
æĺ¯ è¿Ļæł·
Ġsix th
Ġinter ventions
ot or
ĠUn like
Ġd ur
An notation
Ġ ä¸ĩ
å¯¹ æĬĹ
Trans fer
ä¸Ń æľĢ
he ld
Ġorgan izational
Ġstra ins
out heast
Ġcru ise
ĠS ustain
ä¸į åĪ©
ĠOpt im
çĮľ æµĭ
Det ail
Ġret rieve
Ġspect acular
å¼º åĬ¿
çļĦ çľ¼ç¥ŀ
A f
æĸ° çĸĨ
EN C
ĠS U
æĶ¾ åĪ°
Ġl ambda
Off ice
ä¸Ģ å¥Ĺ
Ġc ous
em ale
çļĦ åĲįåŃĹ
Ġch arts
Ġint im
ä¸ĵ ç§ĳ
é²ľ è¡Ģ
ĠW ant
Ġlaw suit
_l oss
b rew
ĠF M
Ġgrad uated
Ġveter an
å¯¼ ä½ĵ
ĠG ib
d eg
ç¨İ æĶ¶
Ġisol ation
ĠB rid
c out
lim it
Ġpo ison
Ġindic ators
ĠNet flix
ĠS in
åīį æĸ¹
åĢ¼ çļĦ
çŀ ³
ï¼Į èĲ§
UPD ATE
S aturday
sh ore
c am
. android
Ġrecruit ment
Ġmetabol ism
éĢĤ å®ľ
param eters
ĠA CC
åľ¨ éĤ£éĩĮ
Ġvess els
i u
Ġblock ing
æ°Ķ è±¡
ç¼º å°ĳ
" },
Con n
ĠA zure
æį Ĥ
- foot
rel ation
ĠOk lahoma
æĿ ī
Ġal le
çİĭ çĪ·
od a
at ility
Ñģ Ðº
. input
-l abel
æ¿Ģ çĥĪ
pt s
éĺ´ éĺ³
ign ore
Ind ent
Ġin hab
Ġconst ants
Ġconduct ing
Ġb ases
äºĨ èĩªå·±
ĠF ish
åŁºç¡Ģ ä¸Ĭ
ä¸» å¼ł
åĲ© åĴĲ
ãĢģ ç¬¬äºĮ
Ġclaim ing
-t est
å¸ §
èĦ¸ ä¸ĬçļĦ
åįķ è¯į
ĠMedic are
çº¦ ç¿°
Ġg low
èŀº æĹĭ
ãĢĭï¼Į ãĢĬ
C amera
âĢĻ ï¼Į
Ġsupport ive
ro ck
Ġretail ers
Ġass ay
[...]
